<unk>	0
<s>	0
</s>	0
<0x00>	0
<0x01>	0
<0x02>	0
<0x03>	0
<0x04>	0
<0x05>	0
<0x06>	0
<0x07>	0
<0x08>	0
<0x09>	0
<0x0A>	0
<0x0B>	0
<0x0C>	0
<0x0D>	0
<0x0E>	0
<0x0F>	0
<0x10>	0
<0x11>	0
<0x12>	0
<0x13>	0
<0x14>	0
<0x15>	0
<0x16>	0
<0x17>	0
<0x18>	0
<0x19>	0
<0x1A>	0
<0x1B>	0
<0x1C>	0
<0x1D>	0
<0x1E>	0
<0x1F>	0
<0x20>	0
<0x21>	0
<0x22>	0
<0x23>	0
<0x24>	0
<0x25>	0
<0x26>	0
<0x27>	0
<0x28>	0
<0x29>	0
<0x2A>	0
<0x2B>	0
<0x2C>	0
<0x2D>	0
<0x2E>	0
<0x2F>	0
<0x30>	0
<0x31>	0
<0x32>	0
<0x33>	0
<0x34>	0
<0x35>	0
<0x36>	0
<0x37>	0
<0x38>	0
<0x39>	0
<0x3A>	0
<0x3B>	0
<0x3C>	0
<0x3D>	0
<0x3E>	0
<0x3F>	0
<0x40>	0
<0x41>	0
<0x42>	0
<0x43>	0
<0x44>	0
<0x45>	0
<0x46>	0
<0x47>	0
<0x48>	0
<0x49>	0
<0x4A>	0
<0x4B>	0
<0x4C>	0
<0x4D>	0
<0x4E>	0
<0x4F>	0
<0x50>	0
<0x51>	0
<0x52>	0
<0x53>	0
<0x54>	0
<0x55>	0
<0x56>	0
<0x57>	0
<0x58>	0
<0x59>	0
<0x5A>	0
<0x5B>	0
<0x5C>	0
<0x5D>	0
<0x5E>	0
<0x5F>	0
<0x60>	0
<0x61>	0
<0x62>	0
<0x63>	0
<0x64>	0
<0x65>	0
<0x66>	0
<0x67>	0
<0x68>	0
<0x69>	0
<0x6A>	0
<0x6B>	0
<0x6C>	0
<0x6D>	0
<0x6E>	0
<0x6F>	0
<0x70>	0
<0x71>	0
<0x72>	0
<0x73>	0
<0x74>	0
<0x75>	0
<0x76>	0
<0x77>	0
<0x78>	0
<0x79>	0
<0x7A>	0
<0x7B>	0
<0x7C>	0
<0x7D>	0
<0x7E>	0
<0x7F>	0
<0x80>	0
<0x81>	0
<0x82>	0
<0x83>	0
<0x84>	0
<0x85>	0
<0x86>	0
<0x87>	0
<0x88>	0
<0x89>	0
<0x8A>	0
<0x8B>	0
<0x8C>	0
<0x8D>	0
<0x8E>	0
<0x8F>	0
<0x90>	0
<0x91>	0
<0x92>	0
<0x93>	0
<0x94>	0
<0x95>	0
<0x96>	0
<0x97>	0
<0x98>	0
<0x99>	0
<0x9A>	0
<0x9B>	0
<0x9C>	0
<0x9D>	0
<0x9E>	0
<0x9F>	0
<0xA0>	0
<0xA1>	0
<0xA2>	0
<0xA3>	0
<0xA4>	0
<0xA5>	0
<0xA6>	0
<0xA7>	0
<0xA8>	0
<0xA9>	0
<0xAA>	0
<0xAB>	0
<0xAC>	0
<0xAD>	0
<0xAE>	0
<0xAF>	0
<0xB0>	0
<0xB1>	0
<0xB2>	0
<0xB3>	0
<0xB4>	0
<0xB5>	0
<0xB6>	0
<0xB7>	0
<0xB8>	0
<0xB9>	0
<0xBA>	0
<0xBB>	0
<0xBC>	0
<0xBD>	0
<0xBE>	0
<0xBF>	0
<0xC0>	0
<0xC1>	0
<0xC2>	0
<0xC3>	0
<0xC4>	0
<0xC5>	0
<0xC6>	0
<0xC7>	0
<0xC8>	0
<0xC9>	0
<0xCA>	0
<0xCB>	0
<0xCC>	0
<0xCD>	0
<0xCE>	0
<0xCF>	0
<0xD0>	0
<0xD1>	0
<0xD2>	0
<0xD3>	0
<0xD4>	0
<0xD5>	0
<0xD6>	0
<0xD7>	0
<0xD8>	0
<0xD9>	0
<0xDA>	0
<0xDB>	0
<0xDC>	0
<0xDD>	0
<0xDE>	0
<0xDF>	0
<0xE0>	0
<0xE1>	0
<0xE2>	0
<0xE3>	0
<0xE4>	0
<0xE5>	0
<0xE6>	0
<0xE7>	0
<0xE8>	0
<0xE9>	0
<0xEA>	0
<0xEB>	0
<0xEC>	0
<0xED>	0
<0xEE>	0
<0xEF>	0
<0xF0>	0
<0xF1>	0
<0xF2>	0
<0xF3>	0
<0xF4>	0
<0xF5>	0
<0xF6>	0
<0xF7>	0
<0xF8>	0
<0xF9>	0
<0xFA>	0
<0xFB>	0
<0xFC>	0
<0xFD>	0
<0xFE>	0
<0xFF>	0
▁the	-3.19976
.	-3.20966
s	-3.34782
,	-3.43174
▁	-3.83736
▁of	-3.90709
▁and	-4.00195
▁to	-4.04743
▁a	-4.09962
▁in	-4.27537
▁is	-4.70973
0	-4.88055
-	-4.93319
1	-4.93694
▁for	-4.96381
▁it	-5.12248
▁that	-5.15015
▁with	-5.23114
2	-5.23511
ing	-5.26369
▁you	-5.29068
▁i	-5.29443
ed	-5.30213
▁on	-5.31758
t	-5.37816
d	-5.42461
▁be	-5.42507
▁are	-5.50951
'	-5.52463
▁this	-5.52708
’	-5.60009
▁(	-5.63965
▁was	-5.67379
▁as	-5.67739
3	-5.80468
▁not	-5.83772
5	-5.83808
▁by	-5.85293
▁from	-5.85503
▁or	-5.85963
:	-5.86329
▁at	-5.86925
)	-5.94311
▁can	-5.94844
▁an	-5.96573
▁have	-5.96642
4	-5.99334
9	-6.00322
▁he	-6.04078
ly	-6.04331
▁we	-6.05521
er	-6.09755
▁will	-6.10725
▁your	-6.13751
▁but	-6.18907
▁all	-6.19457
6	-6.19865
8	-6.21378
?	-6.23812
m	-6.2563
y	-6.26959
7	-6.31502
▁they	-6.33283
▁has	-6.33681
a	-6.35206
▁one	-6.35761
e	-6.39178
i	-6.42012
▁his	-6.46943
▁if	-6.47957
▁there	-6.48518
▁so	-6.48853
n	-6.49142
▁which	-6.51558
▁“	-6.5403
▁do	-6.54637
▁more	-6.55951
al	-6.57331
re	-6.58555
▁their	-6.58673
▁also	-6.63833
r	-6.64297
▁"	-6.65772
▁when	-6.65959
▁time	-6.66546
▁what	-6.67495
▁were	-6.68059
▁about	-6.68135
▁my	-6.68655
▁no	-6.71313
▁up	-6.72409
c	-6.7263
▁out	-6.7362
;	-6.76491
in	-6.77927
es	-6.78981
b	-6.81041
/	-6.82334
▁new	-6.82541
▁-	-6.83372
▁other	-6.84434
!	-6.8609
▁her	-6.87257
▁had	-6.88234
▁she	-6.8868
p	-6.89152
▁our	-6.8973
▁me	-6.9003
▁who	-6.9206
▁been	-6.93082
o	-6.93134
▁like	-6.93728
▁re	-6.9388
g	-6.98289
l	-6.98735
▁how	-6.99748
or	-7.00331
▁only	-7.00373
▁these	-7.00779
▁into	-7.02092
▁some	-7.02913
▁first	-7.06887
▁would	-7.09103
▁just	-7.09915
▁than	-7.10397
▁after	-7.11065
f	-7.11431
▁use	-7.11468
▁may	-7.11873
▁them	-7.12906
▁over	-7.1307
▁people	-7.13693
▁two	-7.1446
▁any	-7.15007
k	-7.1691
▁most	-7.17539
▁its	-7.17638
▁very	-7.1809
▁work	-7.19346
h	-7.20238
"	-7.22435
).	-7.23119
▁get	-7.24274
▁well	-7.24288
th	-7.24576
▁then	-7.28755
”	-7.30539
▁said	-7.31238
▁make	-7.32034
▁should	-7.32278
ic	-7.33984
▁now	-7.34061
▁such	-7.35225
▁used	-7.39358
▁de	-7.39702
▁many	-7.39843
▁good	-7.40108
ll	-7.40307
ation	-7.40325
ve	-7.41582
▁c	-7.42378
▁us	-7.42568
▁–	-7.42606
x	-7.4414
on	-7.44264
▁don	-7.44348
▁even	-7.44463
▁un	-7.45163
▁where	-7.45747
▁need	-7.45889
ers	-7.4814
▁see	-7.48667
▁him	-7.49237
▁back	-7.49652
▁e	-7.49717
v	-7.49814
▁way	-7.49942
▁p	-7.5065
▁go	-7.50867
le	-7.51018
▁years	-7.5209
▁system	-7.52859
▁b	-7.5318
an	-7.53251
▁m	-7.54569
▁each	-7.55103
▁could	-7.55288
 	-7.55628
▁through	-7.55638
▁world	-7.56051
w	-7.56806
▁high	-7.56854
▁know	-7.58373
▁here	-7.58691
▁because	-7.59058
ion	-7.59325
able	-7.59506
▁day	-7.60277
to	-7.60449
▁take	-7.60973
ive	-7.61279
▁made	-7.62054
▁life	-7.62682
▁year	-7.63743
▁different	-7.63817
▁d	-7.64022
▁under	-7.64692
ity	-7.65144
▁same	-7.6519
▁water	-7.65774
▁want	-7.66479
▁before	-7.66499
▁much	-7.66913
▁between	-7.67041
the	-7.68084
it	-7.69033
▁right	-7.69785
▁t	-7.70517
na	-7.7113
▁car	-7.72094
▁while	-7.72423
▁long	-7.72571
▁g	-7.72617
%	-7.73274
▁both	-7.73275
▁during	-7.74314
en	-7.75168
us	-7.75235
el	-7.75429
▁information	-7.75617
▁part	-7.75645
▁home	-7.76414
▁set	-7.76549
▁f	-7.76653
▁place	-7.77058
▁co	-7.77735
▁free	-7.77863
li	-7.7791
▁data	-7.78003
▁number	-7.78428
▁[	-7.79408
▁those	-7.79527
ma	-7.79578
▁r	-7.79813
▁being	-7.80026
▁best	-7.8111
▁does	-7.81125
▁man	-7.81152
▁however	-7.81905
ry	-7.82006
▁did	-7.82024
▁v	-7.82109
▁great	-7.82341
▁using	-7.82568
▁down	-7.82883
▁n	-7.82896
u	-7.83272
▁help	-7.8387
ia	-7.84069
▁end	-7.84677
▁con	-7.84744
il	-7.84759
▁off	-7.86322
),	-7.86524
▁three	-7.86699
▁find	-7.87293
▁must	-7.87418
▁still	-7.87582
▁per	-7.87653
▁own	-7.87872
man	-7.88522
▁power	-7.89627
ta	-7.90468
▁last	-7.90486
ra	-7.91301
▁think	-7.91711
▁love	-7.92001
▁without	-7.9315
ment	-7.94617
z	-7.94694
▁state	-7.9535
is	-7.95561
at	-7.95802
▁am	-7.9586
▁order	-7.9639
de	-7.96515
▁company	-7.96519
▁every	-7.99034
▁another	-7.99111
co	-7.99506
▁k	-7.99757
age	-8.00505
▁look	-8.0059
ne	-8.01246
ch	-8.01813
▁design	-8.02007
▁w	-8.02037
▁too	-8.02397
▁control	-8.02435
st	-8.02551
ate	-8.02693
▁around	-8.03345
ar	-8.03934
▁case	-8.0417
▁important	-8.0436
▁business	-8.04786
ol	-8.04937
▁head	-8.05343
▁pro	-8.05943
▁support	-8.06012
ness	-8.06821
▁always	-8.06836
▁l	-8.06848
]	-8.07179
▁group	-8.08135
▁process	-8.08142
▁really	-8.08294
▁small	-8.08473
▁h	-8.08757
▁service	-8.09235
ine	-8.09655
▁come	-8.09988
▁since	-8.10534
j	-8.10777
▁o	-8.10876
▁found	-8.11965
▁hand	-8.12076
ter	-8.12485
▁going	-8.12902
▁city	-8.1325
▁development	-8.13308
▁—	-8.13468
▁second	-8.135
▁let	-8.13595
▁open	-8.13713
la	-8.13736
▁children	-8.13742
▁j	-8.13975
ent	-8.14166
▁why	-8.14307
▁light	-8.1464
▁name	-8.14845
▁point	-8.14904
▁x	-8.15028
▁game	-8.15396
,”	-8.15553
ated	-8.16025
▁u	-8.16032
▁available	-8.16137
▁little	-8.16342
com	-8.16477
te	-8.16864
▁few	-8.17189
▁area	-8.17488
▁play	-8.17817
▁&	-8.17995
...	-8.18447
ro	-8.18566
▁change	-8.18809
▁following	-8.18874
id	-8.19633
▁something	-8.19684
▁air	-8.19976
▁$	-8.20061
ies	-8.20123
▁next	-8.20441
▁body	-8.20587
▁view	-8.2059
▁never	-8.20708
▁example	-8.21217
▁say	-8.21298
be	-8.21431
▁lot	-8.21565
▁family	-8.21589
▁level	-8.22151
▁better	-8.22182
▁pre	-8.22255
no	-8.2247
ist	-8.22516
up	-8.2258
▁ma	-8.2273
est	-8.22966
ke	-8.23018
▁main	-8.2327
ur	-8.2338
▁room	-8.23796
me	-8.2393
ian	-8.24379
ant	-8.2464
ary	-8.2507
▁possible	-8.25332
ton	-8.25409
ri	-8.25722
as	-8.2626
▁school	-8.26332
▁show	-8.26634
▁within	-8.2707
tic	-8.27465
▁start	-8.27666
▁st	-8.27752
▁center	-8.28327
▁large	-8.2863
▁form	-8.28851
▁put	-8.28902
▁according	-8.2905
▁things	-8.29171
▁again	-8.29488
ting	-8.29512
▁dis	-8.2964
▁quality	-8.29743
▁market	-8.30017
se	-8.30399
▁give	-8.30855
▁against	-8.30877
▁color	-8.31141
ul	-8.31211
▁real	-8.3122
rs	-8.3174
▁al	-8.3179
▁art	-8.31862
▁food	-8.31865
▁line	-8.32019
▁type	-8.32119
▁special	-8.32119
▁house	-8.32176
▁check	-8.32209
▁full	-8.32492
ty	-8.32588
▁na	-8.32972
▁project	-8.33174
▁old	-8.33179
▁product	-8.33279
."	-8.33437
ie	-8.33457
▁team	-8.33529
▁side	-8.33748
▁top	-8.34288
▁course	-8.34382
▁women	-8.34555
▁war	-8.34641
ti	-8.35079
▁bar	-8.35301
▁post	-8.35325
and	-8.35751
▁white	-8.35874
▁keep	-8.36373
▁experience	-8.36761
▁person	-8.36777
▁black	-8.36791
▁human	-8.36799
ha	-8.37166
▁got	-8.37172
▁hard	-8.37179
▁short	-8.37204
▁left	-8.37601
do	-8.37609
▁often	-8.38282
go	-8.38467
▁key	-8.38528
▁program	-8.38915
▁including	-8.39043
▁once	-8.39124
▁local	-8.39632
▁working	-8.39887
▁public	-8.40028
▁country	-8.40084
ous	-8.40096
▁several	-8.4029
we	-8.40687
▁value	-8.40892
▁health	-8.41148
▁sure	-8.41602
▁create	-8.41717
▁might	-8.41728
▁book	-8.41894
ance	-8.4191
▁non	-8.41969
▁days	-8.41982
▁less	-8.42457
▁‘	-8.42573
▁international	-8.43126
ce	-8.43158
ge	-8.43395
▁away	-8.43477
▁en	-8.43566
▁problem	-8.4369
▁model	-8.43829
▁products	-8.43862
▁fact	-8.43902
ba	-8.43909
▁services	-8.44111
▁general	-8.44136
▁god	-8.44459
ac	-8.44593
▁provide	-8.44823
▁size	-8.45264
▁result	-8.4533
▁already	-8.45427
▁national	-8.45488
—	-8.45588
▁until	-8.45703
▁social	-8.46012
▁access	-8.46217
▁la	-8.46282
▁li	-8.46566
▁become	-8.46632
▁able	-8.46791
▁today	-8.46855
ad	-8.46887
ga	-8.46925
ex	-8.47322
▁di	-8.47599
▁vi	-8.47715
▁low	-8.47729
▁face	-8.4774
ized	-8.47838
ism	-8.47921
am	-8.48071
(	-8.48074
▁red	-8.4822
im	-8.48344
▁called	-8.48444
▁space	-8.48567
ling	-8.48573
ka	-8.48763
▁based	-8.48824
di	-8.48887
▁government	-8.48965
▁add	-8.49002
um	-8.49016
less	-8.49038
▁list	-8.4938
▁four	-8.49676
▁far	-8.50381
▁please	-8.50496
▁big	-8.50934
▁means	-8.50972
line	-8.51086
▁men	-8.5119
ca	-8.51342
sh	-8.51397
.”	-8.51455
▁feel	-8.51548
mo	-8.5163
▁present	-8.51942
▁period	-8.52125
▁money	-8.52185
▁range	-8.52216
▁night	-8.52691
ite	-8.52726
▁study	-8.5308
son	-8.53141
▁care	-8.53272
▁thing	-8.53446
▁everything	-8.538
▁sub	-8.5381
▁mo	-8.53845
et	-8.53857
▁read	-8.5398
▁due	-8.54073
▁price	-8.54279
▁didn	-8.54683
▁live	-8.5478
▁sp	-8.54932
ted	-8.55858
▁results	-8.56251
▁later	-8.56276
os	-8.56397
▁research	-8.56512
▁together	-8.56536
▁easy	-8.56689
ization	-8.57451
▁call	-8.5775
▁ra	-8.57794
ating	-8.57972
lo	-8.58383
▁given	-8.58416
pa	-8.58423
ir	-8.58639
he	-8.58874
▁law	-8.58935
da	-8.59195
ut	-8.59304
po	-8.59627
▁having	-8.59649
▁close	-8.59751
▁ex	-8.598
▁past	-8.59893
▁table	-8.59901
▁/	-8.59984
▁test	-8.60194
▁try	-8.60233
▁oil	-8.60496
▁ro	-8.60695
per	-8.60697
▁young	-8.60902
▁treatment	-8.61164
▁done	-8.61203
▁file	-8.6122
▁production	-8.61252
▁run	-8.61254
▁came	-8.61272
con	-8.61682
ny	-8.61759
▁page	-8.61925
_	-8.61963
▁sa	-8.62134
▁times	-8.6217
ni	-8.62223
▁above	-8.62337
▁heart	-8.62405
▁video	-8.62483
▁single	-8.6249
▁among	-8.62534
–	-8.62812
▁current	-8.62934
▁stock	-8.6311
▁energy	-8.6327
ck	-8.63317
▁app	-8.63428
un	-8.63464
▁making	-8.64245
ial	-8.64729
▁known	-8.64738
▁kind	-8.64915
▁cost	-8.64961
▁turn	-8.65204
▁contact	-8.65214
▁'	-8.65385
▁account	-8.65508
▁amount	-8.65595
▁management	-8.65608
▁russian	-8.65821
▁image	-8.66272
▁though	-8.66318
va	-8.66358
▁age	-8.66463
▁include	-8.66591
▁enough	-8.66975
▁position	-8.67041
▁land	-8.67052
▁week	-8.6717
▁method	-8.67368
▁child	-8.67453
▁question	-8.67462
▁least	-8.67885
bi	-8.6792
▁says	-8.68173
▁se	-8.68348
▁performance	-8.68349
▁field	-8.68581
▁yet	-8.68622
▁anti	-8.68848
▁section	-8.69503
▁front	-8.70011
▁clear	-8.70018
▁office	-8.7004
▁select	-8.70095
ak	-8.70333
ish	-8.70431
▁site	-8.70622
▁building	-8.7076
▁sea	-8.70805
▁risk	-8.70816
▁million	-8.70857
▁necessary	-8.70919
▁application	-8.71073
▁bit	-8.71093
▁hotel	-8.71156
▁simple	-8.71217
▁future	-8.71306
▁beautiful	-8.71515
▁function	-8.71642
ci	-8.71758
▁film	-8.71966
▁material	-8.72142
▁states	-8.72164
▁ever	-8.72217
one	-8.72217
▁doesn	-8.72237
▁fire	-8.72289
…	-8.72428
▁further	-8.72639
ful	-8.72643
▁took	-8.72788
▁pay	-8.7293
▁skin	-8.72948
▁music	-8.72949
▁specific	-8.7314
▁step	-8.7318
▁increase	-8.7322
,"	-8.73289
▁code	-8.73386
▁looking	-8.73511
mi	-8.73877
▁various	-8.74082
▁countries	-8.74147
▁mode	-8.74237
▁students	-8.74257
▁inter	-8.74462
▁role	-8.7449
▁whole	-8.74568
pe	-8.74631
▁personal	-8.7468
▁court	-8.74804
▁conditions	-8.74823
▁temperature	-8.74829
▁mind	-8.74883
land	-8.74989
▁le	-8.7499
▁early	-8.75267
▁along	-8.75418
em	-8.75665
que	-8.75709
▁photo	-8.75957
▁features	-8.76131
▁content	-8.76146
▁user	-8.76203
▁effect	-8.7635
▁thought	-8.76593
▁common	-8.76983
▁phone	-8.77184
▁history	-8.77645
op	-8.77646
▁shall	-8.7772
▁almost	-8.77723
▁understand	-8.77936
▁hours	-8.78148
min	-8.78389
▁stay	-8.7844
▁network	-8.78449
ence	-8.78461
▁report	-8.78621
▁season	-8.78627
▁self	-8.7876
▁online	-8.79
by	-8.79009
▁hair	-8.7904
fi	-8.79053
q	-8.79272
▁move	-8.79283
▁device	-8.79292
▁went	-8.79386
▁surface	-8.79595
sa	-8.79841
▁required	-8.79878
▁green	-8.79941
▁natural	-8.79976
▁therefore	-8.80057
▁five	-8.80167
>	-8.80321
▁modern	-8.80528
▁plan	-8.80531
▁press	-8.80551
▁mar	-8.80805
om	-8.8123
▁note	-8.81281
▁similar	-8.81413
▁screen	-8.81441
ap	-8.81569
out	-8.81577
▁mr	-8.81806
ot	-8.81844
▁technology	-8.82015
vi	-8.82327
lin	-8.8246
bo	-8.82513
▁class	-8.8255
▁computer	-8.82874
ki	-8.82897
▁bank	-8.82946
▁minutes	-8.83032
▁whether	-8.83095
▁bi	-8.83135
▁addition	-8.83138
▁series	-8.83217
▁ba	-8.83287
▁bo	-8.83406
▁story	-8.83464
▁seen	-8.83509
▁total	-8.83527
ally	-8.83606
▁ka	-8.83634
▁needs	-8.8372
▁standard	-8.83811
▁believe	-8.83816
▁=	-8.83902
▁nothing	-8.83939
▁road	-8.83954
▁media	-8.83975
▁stop	-8.84016
▁makes	-8.84041
▁clean	-8.84105
▁lo	-8.84135
▁tell	-8.8417
▁won	-8.84194
▁taken	-8.84204
▁either	-8.84333
ig	-8.84443
▁quite	-8.84696
▁united	-8.84701
▁card	-8.84909
time	-8.85364
▁drive	-8.85431
▁multi	-8.85707
▁search	-8.85894
ah	-8.86022
▁article	-8.86071
▁rate	-8.86116
▁below	-8.86125
▁professional	-8.8613
▁display	-8.86307
▁style	-8.86479
▁ne	-8.8654
▁cannot	-8.86585
▁cross	-8.86637
▁south	-8.86665
▁individual	-8.8672
▁located	-8.86862
▁action	-8.86863
▁problems	-8.86985
▁russia	-8.87201
▁months	-8.87219
▁matter	-8.87288
▁lower	-8.87375
▁security	-8.87394
▁training	-8.87433
▁started	-8.87559
ow	-8.8761
▁systems	-8.87622
▁click	-8.87657
ize	-8.87661
▁half	-8.87714
▁blood	-8.87726
▁higher	-8.8782
mon	-8.87852
▁american	-8.87949
▁woman	-8.88007
▁gas	-8.88136
▁equipment	-8.88203
▁background	-8.88323
▁offer	-8.8837
ide	-8.88477
▁date	-8.89005
▁pa	-8.89006
▁thus	-8.89017
▁board	-8.89047
▁subject	-8.89148
▁choose	-8.89158
mb	-8.89301
▁address	-8.89611
▁star	-8.89725
▁bad	-8.8989
▁answer	-8.89996
gu	-8.90013
tra	-8.90022
▁figure	-8.90047
ho	-8.90088
▁speed	-8.9014
ov	-8.90195
▁unit	-8.90272
▁park	-8.90336
▁economic	-8.90342
▁anything	-8.90355
▁changes	-8.90371
▁sound	-8.90385
▁university	-8.90446
▁reason	-8.90453
▁death	-8.90561
▁doing	-8.90676
▁third	-8.90697
▁paper	-8.90919
▁•	-8.90942
▁job	-8.91071
pi	-8.9115
▁plant	-8.91218
▁major	-8.91259
od	-8.91324
au	-8.91365
▁website	-8.91493
▁event	-8.91568
▁especially	-8.91577
▁others	-8.91612
▁strong	-8.91711
▁actually	-8.91731
▁complete	-8.9182
▁comes	-8.92049
▁talk	-8.92062
▁certain	-8.92344
▁return	-8.92421
▁hope	-8.92539
▁mother	-8.9262
io	-8.9269
▁share	-8.92951
▁rest	-8.93062
▁cover	-8.93093
▁location	-8.93364
▁everyone	-8.9356
▁learn	-8.93793
▁near	-8.94079
▁pressure	-8.94167
oc	-8.94203
▁provided	-8.9429
▁although	-8.94328
▁base	-8.94487
▁six	-8.94694
▁friends	-8.94763
▁cause	-8.94877
▁heat	-8.95065
▁blue	-8.95092
▁cut	-8.95099
▁getting	-8.95234
▁patients	-8.95252
dy	-8.95253
▁moment	-8.95261
▁weight	-8.95375
▁solution	-8.954
▁button	-8.95449
ster	-8.95569
▁told	-8.95579
▁industry	-8.95599
▁version	-8.95672
▁questions	-8.95976
fa	-8.95983
ard	-8.96097
▁works	-8.96122
▁machine	-8.96124
▁north	-8.96289
▁community	-8.96292
tor	-8.96337
▁party	-8.96344
mm	-8.96404
▁issue	-8.96538
▁region	-8.9687
▁usually	-8.96874
▁members	-8.96882
▁living	-8.96981
ative	-8.97221
▁someone	-8.97322
▁ha	-8.97332
▁across	-8.97341
▁brand	-8.97355
▁nature	-8.97423
▁text	-8.97455
▁taking	-8.97591
mp	-8.97599
▁buy	-8.97777
▁dr	-8.97866
▁hi	-8.97886
▁true	-8.9796
▁perfect	-8.98262
ee	-8.98305
▁ground	-8.98345
▁meeting	-8.9849
▁education	-8.9853
▁ad	-8.98564
▁enjoy	-8.98584
▁super	-8.98725
our	-8.98757
br	-8.98774
▁ten	-8.98776
▁upon	-8.98818
▁lu	-8.98962
▁visit	-8.99062
▁mean	-8.99063
▁word	-8.99079
▁idea	-8.99145
▁fun	-8.99369
if	-8.99483
▁rather	-8.99529
▁soon	-8.99593
▁block	-8.99682
▁break	-8.99855
▁street	-8.9989
▁became	-8.99934
ru	-9.00077
▁web	-9.0036
ten	-9.00549
▁ensure	-9.00598
▁girl	-9.006
▁areas	-9.00603
▁sha	-9.00781
▁words	-9.00843
▁environment	-9.00941
▁z	-9.01237
▁travel	-9.01276
▁allow	-9.01325
▁structure	-9.01397
▁inside	-9.01459
▁ta	-9.01509
▁additional	-9.01527
▁remember	-9.01648
▁wide	-9.01668
men	-9.01869
▁gu	-9.01885
▁approach	-9.01934
▁types	-9.02001
▁companies	-9.02143
▁son	-9.02308
ber	-9.02395
▁financial	-9.02403
▁private	-9.02573
▁du	-9.02862
▁town	-9.02892
▁su	-9.02905
ev	-9.02979
▁growth	-9.03007
▁property	-9.0301
ron	-9.03032
ag	-9.03035
ger	-9.03206
▁engine	-9.0322
▁nice	-9.03313
▁request	-9.034
▁analysis	-9.03575
▁president	-9.0358
▁added	-9.03585
▁box	-9.03702
▁focus	-9.03818
▁ni	-9.03986
▁server	-9.03987
▁church	-9.04015
ley	-9.04022
▁floor	-9.04068
way	-9.04122
▁tv	-9.04211
▁final	-9.0431
▁ask	-9.04311
▁cases	-9.04341
ug	-9.04392
▁source	-9.0444
side	-9.04453
▁itself	-9.04554
for	-9.04633
▁+	-9.04698
ft	-9.04713
▁follow	-9.0489
▁fe	-9.04958
ring	-9.04988
▁ho	-9.04992
king	-9.05055
▁:	-9.05126
ip	-9.05199
▁situation	-9.05383
▁activities	-9.05408
▁hold	-9.05775
ang	-9.05827
red	-9.05854
▁meet	-9.05984
▁central	-9.06005
▁vector	-9.0602
ab	-9.0602
▁hot	-9.0617
ities	-9.06215
▁eyes	-9.06283
▁pe	-9.06398
▁lead	-9.06414
▁received	-9.06477
▁considered	-9.06491
▁provides	-9.06516
▁map	-9.06601
▁created	-9.06629
▁leave	-9.06675
▁needed	-9.06888
▁particular	-9.06935
▁po	-9.06944
▁...	-9.07126
▁sometimes	-9.07164
ology	-9.07228
▁global	-9.07303
so	-9.07323
▁wall	-9.07384
▁difficult	-9.07514
▁language	-9.07547
▁flow	-9.07774
tal	-9.07818
▁store	-9.07866
▁download	-9.07952
▁choice	-9.07952
▁trade	-9.0796
▁fall	-9.0798
▁track	-9.08071
▁>	-9.08096
▁limit	-9.08115
▁original	-9.08124
▁build	-9.08145
▁character	-9.08181
▁fi	-9.08346
▁simply	-9.08354
let	-9.08355
ium	-9.0837
nt	-9.08403
▁happy	-9.08514
▁windows	-9.08529
▁hit	-9.08535
▁allows	-9.08558
▁sun	-9.08576
▁san	-9.08622
▁sign	-9.08722
▁metal	-9.08743
kin	-9.08745
▁yourself	-9.0889
ner	-9.08937
set	-9.08961
▁watch	-9.09119
▁activity	-9.09153
▁review	-9.09165
▁fast	-9.09194
▁deal	-9.09303
▁offers	-9.09307
▁couple	-9.09384
▁staff	-9.09455
ler	-9.09576
▁father	-9.0968
▁unique	-9.09704
▁prevent	-9.09759
▁station	-9.09821
▁operation	-9.09826
of	-9.10032
▁software	-9.10081
vo	-9.10085
ical	-9.10111
▁safe	-9.10185
tion	-9.1028
▁medical	-9.10284
pro	-9.10316
▁switch	-9.10537
▁complex	-9.10586
▁host	-9.1068
▁built	-9.10922
▁probably	-9.11043
▁act	-9.11064
▁outside	-9.11164
▁terms	-9.11164
▁asked	-9.11294
▁condition	-9.11464
▁director	-9.11464
▁charge	-9.11569
hi	-9.11634
▁sense	-9.11708
▁response	-9.11732
▁issues	-9.11766
▁el	-9.12002
▁construction	-9.12018
nd	-9.12027
▁led	-9.12216
▁protection	-9.12237
▁knowledge	-9.12267
▁attention	-9.12305
▁q	-9.12432
▁fine	-9.12432
▁em	-9.12541
▁target	-9.12656
▁practice	-9.12703
les	-9.12826
der	-9.12843
▁john	-9.12857
▁#	-9.12867
▁da	-9.12868
▁popular	-9.12912
▁interest	-9.1293
▁police	-9.13005
▁parts	-9.1318
▁held	-9.13185
▁instead	-9.13459
▁shows	-9.13701
▁shown	-9.13785
ya	-9.13885
▁physical	-9.14013
▁cap	-9.14065
▁summer	-9.14116
▁designed	-9.14156
ud	-9.14471
▁receive	-9.14524
▁concept	-9.14625
▁stage	-9.14657
cr	-9.14871
ions	-9.14902
▁points	-9.1506
ator	-9.1516
▁ago	-9.15174
▁walk	-9.15178
▁materials	-9.15195
▁consider	-9.15329
▁success	-9.15333
▁mi	-9.15442
▁wanted	-9.15464
ning	-9.15567
▁yes	-9.15638
lic	-9.15646
▁internet	-9.15756
▁va	-9.15774
ko	-9.15916
▁write	-9.15934
▁bring	-9.15961
▁imp	-9.1617
▁department	-9.16254
▁door	-9.16352
ja	-9.16485
▁late	-9.16513
▁ko	-9.16525
▁included	-9.1654
▁games	-9.16642
▁option	-9.16673
ability	-9.16708
▁month	-9.16782
▁english	-9.16805
▁master	-9.16872
▁longer	-9.16892
ub	-9.16893
▁began	-9.16978
▁potential	-9.17089
▁touch	-9.17122
▁ca	-9.17142
▁im	-9.1726
▁increased	-9.17452
▁picture	-9.17548
▁win	-9.177
▁author	-9.17785
▁port	-9.17828
▁mark	-9.17882
▁normal	-9.17903
▁includes	-9.17957
▁member	-9.17989
▁ju	-9.18001
▁significant	-9.18055
led	-9.18114
ps	-9.18159
▁policy	-9.18187
▁pan	-9.18329
▁safety	-9.18373
▁impact	-9.18403
fe	-9.18445
▁continue	-9.18536
▁organization	-9.18678
▁quickly	-9.1882
▁interesting	-9.18843
ified	-9.18851
▁ver	-9.18917
▁saw	-9.18952
▁force	-9.19084
▁signal	-9.19111
▁political	-9.19147
+	-9.1945
tro	-9.19555
▁decision	-9.19558
▁active	-9.19692
wa	-9.19857
▁users	-9.20021
▁disease	-9.20068
▁developed	-9.20076
▁effective	-9.20109
▁beach	-9.2012
▁wood	-9.20193
yl	-9.20259
▁avoid	-9.20561
▁likely	-9.20662
▁levels	-9.20884
▁connection	-9.20897
▁suggest	-9.20897
▁cell	-9.2097
▁micro	-9.21022
ure	-9.21104
▁remove	-9.21205
▁options	-9.21229
▁eye	-9.21248
▁save	-9.21256
▁entire	-9.2135
▁reduce	-9.21421
▁positive	-9.2155
▁behind	-9.2156
▁thank	-9.21578
▁fa	-9.21636
▁*	-9.21744
▁dark	-9.21831
▁direct	-9.21838
old	-9.21868
▁related	-9.21959
gg	-9.21992
▁culture	-9.22042
▁doctor	-9.22104
▁demand	-9.22193
▁capital	-9.22228
▁enter	-9.22283
mer	-9.22285
▁ready	-9.22355
▁himself	-9.22458
▁dry	-9.22492
▁load	-9.22588
▁easily	-9.22624
▁thanks	-9.22646
▁dream	-9.22666
▁completely	-9.22739
▁pain	-9.22774
▁etc	-9.22791
▁events	-9.22884
sk	-9.23035
▁contract	-9.23062
▁legal	-9.23069
▁trying	-9.23073
▁ja	-9.23092
▁communication	-9.23114
▁seems	-9.23138
▁pretty	-9.23162
▁forward	-9.23177
▁cha	-9.23188
▁average	-9.23218
▁collection	-9.23325
ey	-9.2337
▁camera	-9.23376
▁hands	-9.23567
▁via	-9.23622
▁running	-9.23643
▁china	-9.23706
ship	-9.23753
▁length	-9.23761
▁mm	-9.23972
▁supply	-9.24094
▁groups	-9.24233
▁ob	-9.24345
▁baby	-9.24653
▁direction	-9.24783
▁science	-9.24877
▁customers	-9.24945
▁cells	-9.2503
▁cat	-9.25077
▁themselves	-9.253
▁manager	-9.25382
▁damage	-9.25622
ging	-9.25674
ations	-9.25678
▁population	-9.25869
▁else	-9.2605
▁lost	-9.26128
ward	-9.26139
▁anyone	-9.2616
▁ball	-9.26248
my	-9.26299
▁command	-9.26317
▁studies	-9.26368
▁foreign	-9.26378
▁earth	-9.26391
▁effects	-9.26466
▁round	-9.26505
▁volume	-9.26568
▁path	-9.26622
ina	-9.2688
off	-9.26982
ping	-9.27021
▁shape	-9.27029
ana	-9.27607
▁send	-9.27681
▁gold	-9.27696
▁rock	-9.27754
gi	-9.27931
▁island	-9.27965
▁images	-9.27988
▁improve	-9.2806
▁customer	-9.28157
▁basis	-9.28161
▁movement	-9.28381
fin	-9.28436
bb	-9.28436
▁basic	-9.28459
▁looks	-9.28503
▁double	-9.28592
ok	-9.28675
▁et	-9.2874
▁coming	-9.28843
▁takes	-9.289
▁protect	-9.2894
ph	-9.28955
▁relationship	-9.28983
▁ability	-9.29081
▁record	-9.29264
▁stand	-9.293
▁garden	-9.29405
year	-9.29487
▁guide	-9.29641
▁mobile	-9.29682
lu	-9.29689
*	-9.29691
▁transfer	-9.29904
▁finally	-9.29952
▁layer	-9.30013
▁fit	-9.30026
▁investment	-9.30053
▁european	-9.30178
▁band	-9.30192
▁middle	-9.30237
▁cool	-9.30259
▁river	-9.30371
▁bra	-9.30379
▁reach	-9.30385
▁object	-9.30459
▁release	-9.30494
▁apartment	-9.30579
▁tool	-9.30598
▁ship	-9.3062
ible	-9.30738
▁develop	-9.3075
▁technical	-9.30902
za	-9.30913
ight	-9.30947
▁ar	-9.31119
▁kids	-9.31181
▁term	-9.31213
den	-9.31218
▁influence	-9.31258
▁si	-9.31329
▁club	-9.3135
▁auto	-9.31417
▁difference	-9.31636
▁morning	-9.31661
▁]	-9.31909
▁society	-9.32026
▁resources	-9.32284
ns	-9.32297
ver	-9.3232
▁currently	-9.32369
▁feature	-9.32397
▁king	-9.32493
▁acid	-9.32546
▁mass	-9.3256
iv	-9.32731
^	-9.32787
▁drop	-9.32835
▁parents	-9.32868
▁motor	-9.33186
▁percent	-9.33187
▁spring	-9.33201
▁values	-9.33277
▁details	-9.33277
▁match	-9.33281
▁payment	-9.3331
▁warm	-9.33385
▁multiple	-9.33481
▁pick	-9.33518
end	-9.33565
lan	-9.33584
ile	-9.33612
▁west	-9.33634
▁y	-9.33653
tin	-9.3372
▁reported	-9.33794
ec	-9.33955
▁extra	-9.33955
▁install	-9.33974
▁attack	-9.34026
ep	-9.34058
▁photos	-9.34117
▁mis	-9.34135
▁chance	-9.34231
▁hospital	-9.34361
▁affect	-9.34398
▁friend	-9.34409
▁respect	-9.34418
▁rights	-9.34434
▁maybe	-9.34582
▁soft	-9.34643
▁worth	-9.34649
▁op	-9.3469
▁directly	-9.34731
▁loss	-9.3481
▁turned	-9.34823
▁min	-9.34858
▁ti	-9.34886
▁sw	-9.34953
▁fresh	-9.34984
▁methods	-9.35128
ice	-9.35152
▁ru	-9.35178
▁mid	-9.35246
▁shop	-9.35362
▁bio	-9.35364
▁link	-9.35413
▁message	-9.3553
▁|	-9.35592
▁elements	-9.35633
ef	-9.35675
▁glass	-9.35719
▁traditional	-9.35738
▁rule	-9.3575
▁deep	-9.35798
▁window	-9.35959
▁tri	-9.36014
▁east	-9.36103
▁trans	-9.36135
▁tax	-9.36156
sion	-9.36158
▁requirements	-9.36193
▁output	-9.36239
ast	-9.36338
you	-9.36558
▁ci	-9.36607
▁voice	-9.36688
▁lack	-9.36819
▁ways	-9.36952
tu	-9.36976
▁limited	-9.36999
▁cur	-9.37052
pt	-9.37073
▁official	-9.37094
▁century	-9.37137
▁beginning	-9.37154
▁ph	-9.3717
izing	-9.37211
▁setting	-9.37332
}	-9.3736
▁previous	-9.37363
▁panel	-9.37373
▁dead	-9.37397
▁pen	-9.37522
▁favorite	-9.37549
▁pass	-9.37553
▁player	-9.37569
▁che	-9.37779
▁exchange	-9.37824
▁tu	-9.37838
▁hu	-9.37883
▁km	-9.37889
▁jo	-9.38
▁throughout	-9.38063
▁wa	-9.38157
▁fully	-9.38347
nic	-9.38485
▁frame	-9.38511
▁europe	-9.3856
▁maximum	-9.38649
▁produce	-9.38724
▁update	-9.38794
▁statement	-9.38796
▁sales	-9.38914
▁sta	-9.38992
▁document	-9.39056
▁internal	-9.39107
▁sent	-9.39207
▁wi	-9.3921
▁behavior	-9.39227
▁digital	-9.39238
▁decided	-9.39266
und	-9.39285
gen	-9.39312
▁learning	-9.39354
▁bag	-9.39462
▁google	-9.39484
▁patient	-9.39497
▁fl	-9.39505
▁isn	-9.39528
▁cold	-9.39654
▁dress	-9.39667
▁appear	-9.39699
▁attempt	-9.39748
▁excellent	-9.39834
▁custom	-9.39936
▁agreement	-9.39966
mar	-9.39978
▁distance	-9.40136
▁immediately	-9.40154
▁recent	-9.40207
work	-9.40228
▁memory	-9.40246
▁changed	-9.40301
▁former	-9.40314
▁firm	-9.40331
▁credit	-9.40336
▁exist	-9.40392
▁vo	-9.40436
▁menu	-9.40437
а	-9.40588
▁correct	-9.40658
▁transport	-9.40659
▁bed	-9.4068
based	-9.40735
che	-9.40977
▁train	-9.41005
▁installation	-9.41025
hu	-9.41031
ham	-9.41143
▁trust	-9.41306
▁military	-9.41325
board	-9.41329
▁filter	-9.41359
▁title	-9.41396
eg	-9.41474
▁settings	-9.41491
su	-9.41494
car	-9.41548
▁gave	-9.41608
▁daily	-9.41632
▁bright	-9.4179
▁movie	-9.41831
▁perform	-9.41939
▁march	-9.41939
▁purpose	-9.41957
▁eat	-9.41992
▁wait	-9.42046
▁devices	-9.42261
▁spot	-9.42313
▁associated	-9.42385
▁ga	-9.42457
ged	-9.42495
▁fo	-9.4252
▁expect	-9.4253
▁cable	-9.42566
▁goes	-9.42643
▁gift	-9.42668
▁felt	-9.4268
▁items	-9.42781
▁files	-9.43002
back	-9.43042
▁wind	-9.43047
▁variety	-9.43065
▁steel	-9.43114
tri	-9.43144
▁apply	-9.43151
▁trip	-9.43227
ction	-9.43279
ash	-9.43432
▁seat	-9.4345
▁wrong	-9.43485
mit	-9.43502
▁platform	-9.43542
▁kitchen	-9.43601
=	-9.43794
▁york	-9.43808
ose	-9.43942
▁recently	-9.44005
ob	-9.44069
▁seven	-9.44108
▁capacity	-9.44119
▁mu	-9.44206
▁fat	-9.44271
ven	-9.44318
▁committee	-9.44336
▁involved	-9.44392
ek	-9.44422
ably	-9.44428
▁foot	-9.44457
▁grow	-9.44514
▁born	-9.44681
ther	-9.4478
▁status	-9.44826
van	-9.45042
▁players	-9.45107
▁worked	-9.45117
▁nor	-9.45146
▁properties	-9.45203
▁described	-9.45212
▁wife	-9.45224
▁goal	-9.45286
ple	-9.453
▁bus	-9.45314
▁evidence	-9.45368
gan	-9.45371
▁tools	-9.45424
ze	-9.45455
▁operating	-9.45497
▁count	-9.45568
act	-9.45722
▁lock	-9.45736
▁bill	-9.45763
▁opportunity	-9.45792
▁highly	-9.45823
▁purchase	-9.45892
▁treat	-9.459
port	-9.4592
▁weeks	-9.45972
▁serve	-9.45973
▁wish	-9.45977
▁expected	-9.45999
▁writing	-9.46298
▁rules	-9.46398
▁vehicle	-9.46592
▁reading	-9.46606
bit	-9.46813
▁brother	-9.46824
▁written	-9.47101
▁balance	-9.47221
▁storage	-9.47282
▁reference	-9.47414
chi	-9.47471
▁<	-9.47495
ious	-9.47557
▁par	-9.47593
▁flat	-9.47693
▁scene	-9.47779
cc	-9.47813
fl	-9.47867
▁stone	-9.4793
ned	-9.4795
▁council	-9.48046
);	-9.48076
ase	-9.48121
▁fight	-9.48251
▁gives	-9.48429
▁ge	-9.48439
▁college	-9.48446
nch	-9.4848
▁pc	-9.48526
par	-9.48542
fer	-9.48627
▁pool	-9.48646
all	-9.48741
▁appropriate	-9.48774
az	-9.48843
▁costs	-9.48851
▁models	-9.48864
▁ri	-9.4896
▁determine	-9.48987
▁exercise	-9.49069
ct	-9.49081
▁email	-9.49104
▁stress	-9.49117
▁battle	-9.49125
use	-9.49162
▁fashion	-9.49262
▁radio	-9.49308
can	-9.4931
▁roll	-9.49345
é	-9.49515
▁strength	-9.49568
▁poor	-9.4957
ier	-9.49576
▁huge	-9.49622
bu	-9.49635
▁towards	-9.49705
▁drink	-9.49759
▁chi	-9.49802
ual	-9.49821
▁useful	-9.49895
▁fish	-9.49959
▁applications	-9.4996
▁explain	-9.49981
day	-9.50005
▁den	-9.50034
▁push	-9.50064
▁quick	-9.50095
▁winter	-9.50197
▁wheel	-9.50463
▁wave	-9.50489
▁tried	-9.50583
▁connected	-9.50633
▁fruit	-9.50664
▁draw	-9.50759
uk	-9.50765
▁established	-9.50774
▁connect	-9.50785
о	-9.50855
▁playing	-9.50933
▁handle	-9.50969
▁met	-9.50982
е	-9.51031
see	-9.51042
▁description	-9.51258
▁icon	-9.51271
▁input	-9.51292
▁projects	-9.51366
▁client	-9.51385
▁german	-9.51461
▁har	-9.5149
▁overall	-9.5151
ped	-9.51627
▁phase	-9.51894
▁commission	-9.51956
▁nu	-9.5197
▁looked	-9.51984
over	-9.52005
▁america	-9.52051
▁sports	-9.52072
▁task	-9.52084
▁ring	-9.521
▁mix	-9.52452
▁plate	-9.52606
▁error	-9.52653
her	-9.52709
▁district	-9.52888
▁carried	-9.52945
▁bottom	-9.53008
▁dog	-9.53026
▁perhaps	-9.53038
▁ch	-9.53094
▁selected	-9.53107
▁programs	-9.53175
▁greater	-9.5332
ea	-9.53391
▁tree	-9.53463
▁contains	-9.53472
▁starting	-9.53495
▁factors	-9.53505
▁mal	-9.53548
▁myself	-9.53636
▁element	-9.53737
▁battery	-9.53747
▁fuel	-9.53761
▁para	-9.53784
▁wear	-9.53804
▁prices	-9.53833
▁rich	-9.53866
ill	-9.53939
▁leading	-9.54123
▁village	-9.54158
▁external	-9.54183
▁knew	-9.54215
▁fig	-9.54234
▁skills	-9.54263
▁shot	-9.54281
▁performed	-9.54323
▁successful	-9.5437
▁poly	-9.54372
▁package	-9.54388
▁separate	-9.54519
ell	-9.54535
▁sleep	-9.54543
▁june	-9.54562
▁flight	-9.54575
▁hour	-9.54658
▁session	-9.54698
▁lines	-9.5474
▁hear	-9.54753
▁fear	-9.54769
▁sex	-9.54778
tr	-9.54809
▁sector	-9.54817
▁require	-9.5482
▁compared	-9.54824
net	-9.54856
▁pop	-9.54892
ding	-9.54895
▁sale	-9.54951
▁grand	-9.54965
▁brought	-9.55114
av	-9.55139
▁--	-9.5515
▁plus	-9.55174
▁lives	-9.55227
▁applied	-9.55291
dic	-9.55364
rn	-9.55455
▁cup	-9.55456
form	-9.55475
▁despite	-9.55483
▁tour	-9.55491
▁delivery	-9.55494
▁protein	-9.55547
▁pi	-9.55676
▁cho	-9.55729
▁fan	-9.55796
▁student	-9.55799
▁regular	-9.5582
▁rooms	-9.55864
▁drug	-9.55902
▁cra	-9.55978
ect	-9.56009
▁pump	-9.56071
▁log	-9.56078
▁career	-9.5617
▁pictures	-9.56232
▁female	-9.56287
pp	-9.563
▁combination	-9.56378
▁edge	-9.5639
".	-9.56405
▁ya	-9.56418
bar	-9.56515
▁symbol	-9.56626
▁brain	-9.56703
▁negative	-9.56715
ng	-9.56791
▁independent	-9.56811
▁india	-9.56847
▁components	-9.5685
▁conduct	-9.56999
fo	-9.57104
▁particularly	-9.5717
▁hall	-9.57201
▁girls	-9.57213
▁refer	-9.57233
▁daughter	-9.57235
▁pack	-9.57298
▁fair	-9.5733
▁pair	-9.57449
ai	-9.57523
istic	-9.57539
▁french	-9.57542
▁wasn	-9.5758
▁reaction	-9.57588
▁boy	-9.57631
▁race	-9.57639
▁solid	-9.57679
▁tea	-9.57722
▁ideal	-9.57724
▁sand	-9.57743
han	-9.57755
▁commercial	-9.57792
▁finish	-9.57858
▁comfortable	-9.57862
▁score	-9.57911
▁gun	-9.57939
▁pet	-9.57943
▁format	-9.57979
▁camp	-9.58122
▁secret	-9.58141
▁moscow	-9.58166
▁seem	-9.58191
▁song	-9.58219
▁sensor	-9.5824
▁union	-9.5825
▁speak	-9.58267
▁remain	-9.58273
ib	-9.58285
▁sort	-9.58305
▁te	-9.58331
▁bro	-9.58375
▁eight	-9.58514
▁square	-9.58556
▁played	-9.58556
▁cor	-9.58656
▁repair	-9.58672
▁generally	-9.58705
................	-9.58716
press	-9.58722
▁;	-9.58743
ble	-9.58824
”.	-9.58946
ery	-9.59015
▁sc	-9.59016
▁alone	-9.59053
▁lake	-9.59154
▁allowed	-9.59199
jo	-9.59207
ris	-9.59229
▁gain	-9.59254
▁heard	-9.59303
▁plastic	-9.59315
▁ur	-9.59365
point	-9.59528
ving	-9.59553
pl	-9.59561
▁mor	-9.59611
▁ukraine	-9.59679
▁restaurant	-9.59699
▁mac	-9.59745
▁cancer	-9.59761
▁piece	-9.59814
sha	-9.59826
▁notice	-9.59866
ach	-9.59909
▁reflect	-9.59948
▁tra	-9.60049
uff	-9.60187
ory	-9.60277
val	-9.60306
tain	-9.60347
▁feeling	-9.60431
▁mc	-9.60452
uch	-9.6047
▁powerful	-9.60655
▁paid	-9.60725
▁understanding	-9.60787
▁airport	-9.60801
▁april	-9.60846
▁scale	-9.60847
▁functions	-9.61017
▁exactly	-9.61017
▁sm	-9.61117
&	-9.61118
▁procedure	-9.61124
▁released	-9.61159
ay	-9.61253
▁processes	-9.61261
pped	-9.61336
▁factor	-9.61348
▁earlier	-9.61358
▁serious	-9.61407
ji	-9.61419
°	-9.61475
▁museum	-9.61829
▁degree	-9.61877
like	-9.61879
▁enterprise	-9.61883
▁progress	-9.62019
▁selection	-9.62039
rus	-9.62075
▁pattern	-9.62091
▁feet	-9.62131
▁begin	-9.62265
▁presence	-9.6229
▁suitable	-9.62317
▁equal	-9.6234
rd	-9.62445
▁cast	-9.62465
▁suit	-9.6253
▁award	-9.62532
▁mini	-9.62561
▁republic	-9.62562
▁joint	-9.6266
ches	-9.62666
▁ideas	-9.6269
▁opinion	-9.62728
ral	-9.62729
▁brown	-9.62866
row	-9.63112
▁opening	-9.63136
▁sl	-9.63202
▁spirit	-9.63287
▁primary	-9.63391
mic	-9.63399
▁species	-9.635
▁bri	-9.63586
▁electronic	-9.63591
ants	-9.63601
▁lord	-9.63626
▁happen	-9.63683
▁ice	-9.63804
don	-9.63812
▁farm	-9.63909
▁generation	-9.63958
ries	-9.6404
▁sky	-9.64098
▁chinese	-9.64116
▁thinking	-9.64123
▁competition	-9.64242
▁sal	-9.64287
▁amazing	-9.64319
▁operations	-9.64434
not	-9.64446
ren	-9.64488
▁holiday	-9.64634
▁healthy	-9.64672
▁moving	-9.64703
▁visual	-9.64713
▁ab	-9.64746
mat	-9.64852
term	-9.64898
▁steps	-9.64903
▁produced	-9.64962
▁conference	-9.64972
▁ke	-9.6507
▁sweet	-9.65079
▁electric	-9.65091
▁coffee	-9.65127
▁zone	-9.65129
▁print	-9.65185
▁letter	-9.65189
▁solutions	-9.65308
ff	-9.65332
▁animals	-9.6536
▁tank	-9.65368
▁famous	-9.65368
▁spread	-9.65402
ens	-9.65575
▁heavy	-9.65602
▁minister	-9.6562
▁liquid	-9.65666
▁os	-9.65666
▁arm	-9.65667
▁weather	-9.65673
▁profile	-9.65711
▁join	-9.65733
▁ce	-9.65737
▁growing	-9.65809
ou	-9.65883
▁died	-9.65902
light	-9.65991
▁initial	-9.66008
▁forest	-9.66078
▁creating	-9.66132
▁cal	-9.66164
du	-9.66244
▁height	-9.66252
▁comp	-9.66282
▁prior	-9.66297
▁recommend	-9.6636
serv	-9.6643
▁chapter	-9.66586
▁giving	-9.66629
▁mon	-9.66641
▁news	-9.66817
▁benefits	-9.66842
▁bal	-9.66991
▁whose	-9.67029
▁die	-9.6706
rt	-9.67136
▁smooth	-9.67175
cl	-9.67232
▁taste	-9.67241
▁employees	-9.67311
▁association	-9.67341
ification	-9.67427
▁slow	-9.67442
▁books	-9.67627
▁interface	-9.67723
▁planning	-9.67845
▁mission	-9.6788
▁chemical	-9.67886
oid	-9.67898
zi	-9.67917
▁root	-9.67985
▁id	-9.68023
▁happened	-9.68025
▁interview	-9.68037
▁channel	-9.68159
▁plans	-9.68201
▁item	-9.68323
▁kill	-9.68324
▁deliver	-9.68547
▁caused	-9.686
▁presented	-9.68825
qui	-9.68842
▁distribution	-9.6889
▁ref	-9.68908
▁recommended	-9.68925
▁existing	-9.68944
▁bas	-9.68973
▁requires	-9.68976
box	-9.69082
▁ear	-9.69106
▁annual	-9.69239
▁budget	-9.69303
▁placed	-9.69358
и	-9.69419
▁alternative	-9.69442
▁wine	-9.6946
▁cru	-9.69573
▁license	-9.69641
▁units	-9.69785
▁extremely	-9.69793
▁colors	-9.69805
▁iron	-9.69808
▁male	-9.6984
▁forms	-9.69929
▁cm	-9.69934
▁topic	-9.69939
ological	-9.6999
▁).	-9.70024
▁labor	-9.70094
ists	-9.701
▁saying	-9.70159
▁traffic	-9.70196
▁smart	-9.70263
ade	-9.70272
▁remains	-9.70303
ue	-9.70324
tan	-9.70328
▁cook	-9.70367
▁july	-9.70416
▁sample	-9.70418
▁pull	-9.70451
▁meaning	-9.70452
▁monitor	-9.70597
▁essential	-9.70623
gue	-9.70682
▁gr	-9.7074
▁husband	-9.70785
▁sch	-9.70816
▁plants	-9.70906
▁followed	-9.70918
▁expression	-9.71004
▁measures	-9.71026
▁apple	-9.71058
tar	-9.71096
▁depending	-9.71206
top	-9.71214
▁places	-9.71299
▁economy	-9.71309
rk	-9.71368
▁spend	-9.71465
▁module	-9.71545
▁largest	-9.71554
▁truth	-9.71584
▁fla	-9.71598
▁rose	-9.71681
pre	-9.71813
].	-9.71827
▁closed	-9.71913
▁peace	-9.71982
▁animal	-9.72043
▁implementation	-9.72142
zo	-9.72226
log	-9.72317
ear	-9.72327
▁interested	-9.7235
▁army	-9.72406
▁bathroom	-9.72416
▁failure	-9.72458
▁installed	-9.72484
▁respond	-9.72555
»	-9.72582
▁county	-9.72609
▁van	-9.72624
▁flu	-9.72653
▁gi	-9.72677
tel	-9.72689
▁pin	-9.72715
▁chain	-9.72821
▁scar	-9.72826
▁talking	-9.72873
▁core	-9.72882
▁wonder	-9.7289
▁regional	-9.72919
▁illustration	-9.72976
▁achieve	-9.73014
▁eu	-9.7302
▁beauty	-9.73052
▁regard	-9.73133
▁beyond	-9.73144
win	-9.73186
▁rise	-9.7324
but	-9.73273
▁partner	-9.73298
▁comment	-9.73298
▁collect	-9.73313
har	-9.73325
▁reasons	-9.73352
ik	-9.73441
▁relevant	-9.7345
▁developing	-9.73515
▁campaign	-9.73596
▁parties	-9.73764
▁processing	-9.73798
cul	-9.7381
▁latest	-9.73832
▁appearance	-9.74074
dis	-9.74099
▁cloud	-9.74143
▁august	-9.74251
wn	-9.74279
cal	-9.74306
▁wild	-9.7433
▁industrial	-9.7433
▁driver	-9.7435
▁highest	-9.74422
sky	-9.74436
▁ac	-9.7444
▁interior	-9.74446
ari	-9.7445
gy	-9.74542
fr	-9.74544
pri	-9.74649
▁gar	-9.74667
ole	-9.74668
▁published	-9.74728
▁becomes	-9.74729
cha	-9.74758
▁appears	-9.74787
▁leg	-9.74832
▁accept	-9.74852
▁relax	-9.74857
right	-9.74891
▁determined	-9.74925
▁clearly	-9.74925
vent	-9.74979
▁lose	-9.75017
▁income	-9.75044
▁named	-9.75047
ments	-9.75144
▁environmental	-9.75148
▁responsible	-9.75153
▁providing	-9.75184
hel	-9.75194
▁dynamic	-9.75209
ult	-9.75443
▁ser	-9.75463
▁sold	-9.75515
▁obtained	-9.75522
▁adjust	-9.75527
ew	-9.75582
▁standards	-9.75592
▁claim	-9.75616
▁pur	-9.75635
wi	-9.7565
▁upper	-9.75666
ku	-9.75671
▁forces	-9.75674
▁strategy	-9.75701
▁characters	-9.7571
down	-9.75765
▁maintain	-9.75778
▁documents	-9.75888
▁fill	-9.75938
▁organizations	-9.7596
▁opened	-9.76007
▁fixed	-9.76011
▁advantage	-9.76013
▁hill	-9.76027
▁ii	-9.76095
gar	-9.7611
▁paint	-9.76165
▁horse	-9.76179
▁profit	-9.7619
shi	-9.76199
▁october	-9.76236
▁carry	-9.7628
ates	-9.76347
cu	-9.76351
▁sell	-9.76372
▁december	-9.76536
▁facilities	-9.76536
▁experiment	-9.76551
▁dance	-9.76611
len	-9.76612
▁yellow	-9.76623
▁london	-9.76631
▁convert	-9.76639
▁database	-9.76693
▁context	-9.76737
▁september	-9.7675
▁remote	-9.76758
▁express	-9.76763
str	-9.76764
▁helps	-9.76821
▁identify	-9.76839
▁challenge	-9.76884
▁kit	-9.77045
▁rain	-9.77059
▁guarantee	-9.77076
▁stream	-9.77109
▁christ	-9.77118
▁diet	-9.77173
▁january	-9.77195
ore	-9.7723
ken	-9.77262
▁finger	-9.77373
▁burn	-9.77423
▁broad	-9.77443
▁disc	-9.77478
▁sin	-9.77492
ise	-9.77567
▁easier	-9.7761
▁promote	-9.77613
play	-9.7766
▁guests	-9.77693
nce	-9.77805
▁trial	-9.77864
▁christian	-9.77899
▁secure	-9.77903
▁billion	-9.77907
▁participants	-9.77936
▁benefit	-9.78013
▁mill	-9.78097
sis	-9.78162
▁fix	-9.78188
head	-9.78202
kh	-9.78206
▁mod	-9.7821
▁pla	-9.78211
▁http	-9.78236
▁showed	-9.7824
▁reduced	-9.78259
cy	-9.78288
▁larger	-9.78288
▁indian	-9.78299
▁route	-9.78394
▁edit	-9.78443
nn	-9.78561
▁fund	-9.78618
▁wrote	-9.7864
▁medium	-9.78641
▁shift	-9.78649
▁drawing	-9.78683
▁maintenance	-9.78712
▁continued	-9.78714
▁reports	-9.78721
▁crime	-9.78726
▁sit	-9.78766
▁critical	-9.78793
▁instance	-9.78821
▁wo	-9.78839
▁straight	-9.78856
▁objects	-9.78881
▁marketing	-9.789
free	-9.78904
://	-9.7892
▁moved	-9.78931
▁sport	-9.79043
▁wedding	-9.79132
▁launch	-9.7914
▁cycle	-9.79196
▁listen	-9.79204
▁holding	-9.79223
▁clients	-9.79232
▁automatically	-9.79252
▁corner	-9.79258
▁painting	-9.793
▁copy	-9.79465
▁snow	-9.79485
oma	-9.795
▁«	-9.79573
▁measurement	-9.79765
▁cent	-9.79922
▁honor	-9.79959
part	-9.79974
▁valid	-9.80035
▁foundation	-9.80089
?”	-9.8019
name	-9.80193
▁leaves	-9.80227
▁oh	-9.80231
▁sat	-9.80297
ette	-9.80329
▁coach	-9.80445
▁testing	-9.80446
▁evening	-9.80455
▁cla	-9.80504
▁lip	-9.80567
mate	-9.80604
▁advanced	-9.8061
▁resistance	-9.80658
▁throw	-9.80744
▁effort	-9.80817
▁nearly	-9.80824
▁actions	-9.80855
▁british	-9.8097
▁western	-9.81003
▁germany	-9.81042
ane	-9.81079
▁spent	-9.81099
▁defense	-9.81112
▁minimum	-9.81194
well	-9.81197
▁mountain	-9.81239
▁sh	-9.81289
ome	-9.81298
▁couldn	-9.81348
app	-9.81356
house	-9.81365
sen	-9.81467
▁increasing	-9.81514
▁parameters	-9.81521
▁kept	-9.81563
art	-9.81582
▁definitely	-9.8165
▁meters	-9.81759
bra	-9.81845
▁contain	-9.81851
▁spin	-9.8189
▁reality	-9.81892
▁vote	-9.81899
field	-9.81912
▁prepared	-9.81971
▁tend	-9.81985
▁chief	-9.82005
▁configuration	-9.82135
▁cash	-9.82186
▁soul	-9.82229
pon	-9.82265
▁default	-9.82269
▁exp	-9.82325
▁resolution	-9.82394
▁blog	-9.82395
▁describe	-9.82416
▁counter	-9.8252
▁agree	-9.82577
▁observed	-9.82616
▁manage	-9.82741
▁gene	-9.82782
ular	-9.8284
▁label	-9.82843
lam	-9.82897
▁otherwise	-9.83064
▁offered	-9.83083
▁quarter	-9.83119
▁fee	-9.83156
▁ran	-9.83177
▁objective	-9.8322
▁spa	-9.83265
▁numbers	-9.8329
▁waste	-9.83418
ency	-9.83419
▁insurance	-9.83517
rate	-9.83523
▁album	-9.83535
▁ter	-9.83558
▁constant	-9.83569
▁export	-9.83597
▁rear	-9.83713
▁invest	-9.83738
▁judge	-9.83748
uc	-9.83773
sp	-9.83801
ye	-9.83818
book	-9.8387
▁ip	-9.83885
▁detail	-9.83894
[	-9.83956
▁classic	-9.83963
▁guy	-9.83996
▁creative	-9.84002
▁formation	-9.8401
▁removed	-9.84015
▁lift	-9.84024
▁miss	-9.84037
▁attend	-9.84047
▁administration	-9.84087
▁ven	-9.84148
▁ski	-9.84186
▁soil	-9.84208
▁hole	-9.84233
ino	-9.84332
▁conflict	-9.84352
▁flash	-9.84396
med	-9.84414
ara	-9.84439
▁obtain	-9.84475
▁frequency	-9.84516
ran	-9.84655
▁gen	-9.84739
▁discussion	-9.84837
▁workers	-9.84876
▁sources	-9.8491
▁covered	-9.84918
▁cultural	-9.8498
wo	-9.85005
▁actual	-9.85009
pping	-9.85023
▁completed	-9.85048
▁gone	-9.85059
▁manual	-9.8511
▁composition	-9.8513
▁milk	-9.8518
▁passed	-9.852
▁coast	-9.85219
nc	-9.85247
▁ancient	-9.85258
▁border	-9.85271
▁studio	-9.85343
oo	-9.85347
▁sam	-9.85376
▁hd	-9.85377
ign	-9.85384
▁bur	-9.85411
▁salt	-9.85507
kov	-9.85511
▁defined	-9.8553
▁vol	-9.85565
nu	-9.85572
▁jump	-9.85632
▁wallpaper	-9.85662
▁flower	-9.85732
▁welcome	-9.8587
ez	-9.85924
vis	-9.85996
▁fre	-9.86113
burg	-9.86127
▁depends	-9.86132
▁cream	-9.86165
▁comfort	-9.86168
▁occur	-9.8618
▁learned	-9.86211
▁infection	-9.86219
ject	-9.86231
▁explore	-9.86273
▁wonderful	-9.86294
▁angle	-9.86301
force	-9.86307
▁certainly	-9.86335
din	-9.86345
▁ku	-9.86356
▁slightly	-9.86502
▁leader	-9.8652
ever	-9.86571
▁net	-9.86612
▁wire	-9.86652
▁equipped	-9.86658
cer	-9.86746
with	-9.8676
ax	-9.86851
▁uk	-9.86953
this	-9.86982
▁theory	-9.87012
▁origin	-9.87019
▁ram	-9.87046
▁efficient	-9.87049
▁audio	-9.87053
lon	-9.87103
▁creation	-9.87133
table	-9.87213
▁bridge	-9.87221
▁sim	-9.87259
▁boot	-9.8726
mor	-9.8728
▁federal	-9.87349
nal	-9.87372
▁gra	-9.87398
▁audience	-9.87423
▁william	-9.8746
▁november	-9.8749
▁mental	-9.87548
rit	-9.87549
▁advance	-9.87698
▁reached	-9.87718
▁solve	-9.87801
ography	-9.87858
▁division	-9.8797
▁png	-9.8799
▁sheet	-9.87996
berg	-9.88086
▁views	-9.88101
▁sto	-9.88123
ture	-9.88198
pr	-9.88274
▁medicine	-9.88395
▁rank	-9.8846
ify	-9.88476
gra	-9.88504
▁hydro	-9.88521
▁whi	-9.88524
▁stick	-9.886
▁flowers	-9.88608
star	-9.88646
▁mentioned	-9.8871
▁symptoms	-9.88756
▁birth	-9.888
air	-9.88838
she	-9.88906
▁column	-9.88931
▁rates	-9.88976
▁relative	-9.89125
▁fabric	-9.89137
▁improvement	-9.89203
▁sn	-9.89271
bel	-9.89292
▁seed	-9.89387
int	-9.89441
▁ste	-9.89533
▁fans	-9.8958
▁measure	-9.89623
iz	-9.89631
▁beat	-9.89638
▁sum	-9.89643
uit	-9.89664
ura	-9.89741
lia	-9.8975
▁stuff	-9.89764
stan	-9.89894
▁feed	-9.89928
nes	-9.90008
lar	-9.9005
ju	-9.90068
cor	-9.90069
?"	-9.90073
▁france	-9.90194
▁outdoor	-9.90203
▁mine	-9.90232
▁efforts	-9.90253
▁scientific	-9.90257
▁individuals	-9.90371
tter	-9.90384
\	-9.90518
▁je	-9.90556
▁served	-9.90608
▁operator	-9.90609
▁hy	-9.90628
▁sister	-9.90681
▁indicator	-9.9075
▁sexual	-9.90761
cycl	-9.90873
load	-9.90878
▁formed	-9.90889
▁changing	-9.90945
▁goals	-9.90975
▁assembly	-9.90977
▁families	-9.90995
▁com	-9.91085
▁provision	-9.91103
▁silver	-9.91105
tom	-9.91109
▁cities	-9.91123
lt	-9.91206
zh	-9.91288
▁institute	-9.91387
▁characteristics	-9.91394
▁waiting	-9.91501
▁driving	-9.91527
▁technologies	-9.91554
▁bond	-9.91595
▁historical	-9.91751
▁tre	-9.91785
▁except	-9.9179
▁survey	-9.91821
▁wash	-9.91885
▁row	-9.91928
▁encourage	-9.91978
▁civil	-9.91993
▁christmas	-9.92165
▁breath	-9.92258
▁jesus	-9.92295
▁interaction	-9.92372
▁domain	-9.92389
cut	-9.92395
sc	-9.92442
▁sites	-9.92506
▁del	-9.92514
▁smile	-9.92527
▁chair	-9.92575
▁circuit	-9.92618
▁preparation	-9.92636
▁cu	-9.92654
▁bor	-9.927
▁valve	-9.92732
▁bear	-9.92762
▁tele	-9.92766
▁artist	-9.92799
bc	-9.92811
ix	-9.92848
▁gray	-9.92879
▁concentration	-9.93046
ties	-9.93081
▁component	-9.93114
ola	-9.93117
some	-9.93179
▁advice	-9.9318
ica	-9.93199
▁deposit	-9.93227
▁alcohol	-9.93242
▁importance	-9.9333
▁aim	-9.93367
cent	-9.93382
▁significantly	-9.93418
▁loved	-9.93475
▁gear	-9.93484
▁forget	-9.9362
▁th	-9.93664
$	-9.93664
▁bath	-9.93666
yn	-9.93688
▁older	-9.93713
tur	-9.93716
phy	-9.93733
ene	-9.93771
yan	-9.93824
type	-9.93826
▁reserve	-9.93888
room	-9.93894
flow	-9.9391
▁opportunities	-9.93918
▁owner	-9.93963
▁actor	-9.94015
▁paul	-9.94048
▁bottle	-9.9408
▁tro	-9.94091
osis	-9.94093
▁threat	-9.94111
▁expensive	-9.94154
fu	-9.94154
▁smaller	-9.9417
▁teacher	-9.9431
amp	-9.94321
▁yu	-9.94337
▁pipe	-9.94339
▁transaction	-9.94362
tric	-9.94372
▁boat	-9.9442
▁decide	-9.94421
eva	-9.94436
▁efficiency	-9.94475
▁doubt	-9.94477
▁ride	-9.94497
▁{	-9.94515
▁pl	-9.9471
▁desire	-9.9472
▁previously	-9.94724
ox	-9.94757
▁represent	-9.94766
▁sugar	-9.94909
▁discuss	-9.94915
▁seal	-9.94936
take	-9.95001
lie	-9.95018
▁sad	-9.9504
▁accident	-9.95047
▁prison	-9.95051
▁ye	-9.95102
▁nations	-9.95119
▁david	-9.9513
oli	-9.95187
▁stories	-9.95214
▁clinical	-9.9525
▁finished	-9.95292
▁executive	-9.95293
▁tissue	-9.95302
▁pieces	-9.95313
▁import	-9.95497
▁belong	-9.95584
▁appeared	-9.95627
▁truck	-9.95647
▁decrease	-9.95747
▁assessment	-9.95796
tes	-9.95846
▁comments	-9.95902
▁happens	-9.9591
▁offering	-9.95936
low	-9.96024
bin	-9.9605
▁gets	-9.96158
▁operate	-9.9634
▁festival	-9.96377
▁married	-9.96446
▁ok	-9.9656
▁tube	-9.96641
▁fail	-9.9666
▁strip	-9.96675
▁loan	-9.96682
▁participate	-9.96687
new	-9.96756
hood	-9.96856
▁android	-9.97002
xi	-9.97044
▁catch	-9.9707
▁indeed	-9.97079
▁monitoring	-9.97116
▁prop	-9.97134
▁shared	-9.97144
▁onto	-9.97219
cus	-9.97252
▁cas	-9.97262
gh	-9.97263
▁increases	-9.97313
▁library	-9.97338
▁causes	-9.97465
ins	-9.97583
▁whom	-9.97673
▁implement	-9.97687
▁supported	-9.9769
cur	-9.97748
▁weak	-9.97799
▁insert	-9.97814
ick	-9.97821
▁voltage	-9.97836
▁establish	-9.97873
▁rep	-9.97882
▁whatever	-9.97896
▁str	-9.97908
ray	-9.98013
matic	-9.9802
▁follows	-9.98065
▁proper	-9.98114
wood	-9.98117
▁agency	-9.98132
how	-9.9814
▁senior	-9.98169
▁mouth	-9.98182
▁freedom	-9.98218
▁majority	-9.98249
▁breakfast	-9.98277
▁february	-9.98277
▁promise	-9.98311
▁carbon	-9.9835
▁replace	-9.98392
▁approximately	-9.98393
▁automatic	-9.98409
▁rev	-9.98489
▁inform	-9.98503
с	-9.98608
▁bay	-9.98721
▁quiet	-9.98723
▁authorities	-9.98737
▁tag	-9.98862
▁arch	-9.98886
▁killed	-9.98898
cle	-9.98919
▁victim	-9.98948
ung	-9.98994
▁pr	-9.99028
▁circle	-9.9914
af	-9.99148
▁laws	-9.99184
▁announced	-9.99219
®	-9.99296
▁thin	-9.99367
▁contribute	-9.99525
hop	-9.99538
ack	-9.99544
▁investigation	-9.99564
▁japan	-9.99729
▁miles	-9.99748
▁highlight	-9.99767
▁detailed	-9.99779
sign	-9.99785
▁football	-9.99798
ically	-9.9983
▁bone	-9.99858
iti	-9.9987
▁therapy	-9.99901
▁string	-9.99951
▁vision	-9.9997
▁kar	-10
▁japanese	-10.0001
▁cleaning	-10.0003
▁substance	-10.0004
▁hotels	-10.0007
wise	-10.0009
▁transform	-10.0015
ski	-10.0021
▁sing	-10.0022
▁regarding	-10.0027
н	-10.0029
▁severe	-10.0031
▁compound	-10.0036
▁pure	-10.0037
▁pot	-10.0037
▁minor	-10.0037
▁dec	-10.0054
py	-10.0063
▁appeal	-10.0066
war	-10.0077
▁novel	-10.0078
▁cooperation	-10.0079
water	-10.0082
▁fer	-10.0087
▁schedule	-10.009
▁classes	-10.0091
▁neuro	-10.0109
rr	-10.011
▁mask	-10.011
▁instructions	-10.0124
▁toward	-10.0127
▁reduction	-10.0128
▁dar	-10.0131
▁index	-10.0131
▁ec	-10.0133
▁ben	-10.0134
▁james	-10.0134
▁meat	-10.0136
vin	-10.0137
▁pu	-10.0147
ware	-10.0152
▁meal	-10.0153
ii	-10.0154
р	-10.0155
▁returned	-10.0157
ani	-10.017
▁combined	-10.0173
▁cards	-10.0176
ero	-10.0182
▁skill	-10.0185
▁thousand	-10.0185
▁eventually	-10.0187
▁agent	-10.0192
▁epi	-10.02
▁accurate	-10.02
▁guard	-10.0203
uring	-10.0204
▁criminal	-10.0205
bal	-10.0205
▁africa	-10.0209
▁league	-10.0213
▁domestic	-10.0218
▁adult	-10.0219
sta	-10.0221
~	-10.0224
▁teaching	-10.0227
",	-10.0231
▁mono	-10.0235
▁tab	-10.0236
▁ratio	-10.0238
▁noise	-10.0241
▁relations	-10.0252
▁wouldn	-10.0253
▁episode	-10.0258
▁motion	-10.0262
▁hat	-10.0275
▁ban	-10.0283
▁helped	-10.0285
mal	-10.0285
▁nine	-10.0288
▁names	-10.0292
▁cars	-10.0293
▁roman	-10.0298
▁schools	-10.0302
dra	-10.0306
▁za	-10.0317
▁trouble	-10.0325
▁continuous	-10.0332
▁strange	-10.0335
▁specified	-10.0336
▁sharp	-10.0337
▁purposes	-10.0338
▁uses	-10.034
▁managed	-10.0342
▁friendly	-10.0344
eng	-10.035
pm	-10.0365
ong	-10.0373
▁dan	-10.0377
▁max	-10.0377
▁walking	-10.0386
▁formula	-10.0392
pha	-10.0392
▁ 	-10.0399
mail	-10.0401
ition	-10.0406
▁cr	-10.0408
▁haven	-10.0412
▁category	-10.0413
iness	-10.0413
▁seemed	-10.0415
▁mad	-10.0416
▁bedroom	-10.0424
▁screw	-10.043
▁unfortunately	-10.0432
▁drugs	-10.0439
▁abstract	-10.0444
▁mixture	-10.0446
mir	-10.0451
▁qui	-10.0452
▁tests	-10.0454
▁conclusion	-10.0455
▁goods	-10.0456
▁shock	-10.0458
list	-10.0459
▁gather	-10.0459
ming	-10.0467
onic	-10.0467
▁mistake	-10.0467
▁imagine	-10.0471
▁usb	-10.0473
▁roof	-10.0474
▁manner	-10.0476
▁possibility	-10.0477
tern	-10.0483
▁identified	-10.0486
▁improved	-10.0487
▁convenient	-10.0492
▁proposed	-10.0511
what	-10.0514
▁soviet	-10.0516
pan	-10.0527
▁framework	-10.0534
▁introduced	-10.0535
▁blow	-10.0536
▁furniture	-10.0537
▁sur	-10.0539
▁ministry	-10.0541
▁crystal	-10.0544
▁election	-10.055
itis	-10.055
▁bought	-10.0552
▁delay	-10.0555
▁responsibility	-10.0561
▁thick	-10.0563
▁nation	-10.0564
▁estate	-10.0567
▁definition	-10.0571
▁terminal	-10.0572
▁lay	-10.0578
▁assist	-10.0582
spect	-10.0584
▁flag	-10.0585
▁bell	-10.0593
ker	-10.0595
▁sequence	-10.0597
▁expand	-10.0597
▁certificate	-10.0598
▁truly	-10.0598
▁raised	-10.0607
ville	-10.0615
▁guys	-10.0617
▁canada	-10.062
▁thread	-10.0626
▁talent	-10.0626
▁clothes	-10.063
▁colon	-10.0635
▁leaving	-10.0639
▁consists	-10.0658
▁experienced	-10.0658
▁youth	-10.0659
▁bodies	-10.0669
mu	-10.0672
▁cd	-10.0672
▁outcome	-10.0672
that	-10.0675
▁bl	-10.068
rac	-10.0686
▁planet	-10.0686
tch	-10.0692
nov	-10.0692
▁fell	-10.0698
▁cheap	-10.0699
▁hung	-10.0703
▁pal	-10.0705
▁password	-10.0706
metric	-10.0706
▁conversation	-10.0709
▁brief	-10.0712
qu	-10.0717
▁climate	-10.0726
bus	-10.0729
reg	-10.0731
▁instrument	-10.0732
▁editor	-10.0736
ient	-10.0736
▁authority	-10.0737
ancy	-10.0738
▁mag	-10.0739
▁parking	-10.0749
▁engineering	-10.0749
▁entry	-10.075
▁records	-10.0756
▁finding	-10.0756
▁relatively	-10.0762
sur	-10.0762
▁consistent	-10.0767
▁exceed	-10.0771
▁consumption	-10.0773
▁gre	-10.0775
▁laugh	-10.0776
duct	-10.0778
▁fiber	-10.0779
▁predict	-10.078
▁examples	-10.0784
arch	-10.0788
▁aid	-10.0788
▁impossible	-10.079
▁typically	-10.0793
▁transition	-10.08
▁enable	-10.0802
▁friday	-10.0802
oper	-10.0812
ney	-10.0817
▁mom	-10.0822
▁guess	-10.0822
▁parent	-10.0827
▁differences	-10.083
uck	-10.0831
▁marriage	-10.0845
▁hol	-10.0852
loc	-10.0854
▁trees	-10.0855
▁rein	-10.0875
gb	-10.0876
▁wal	-10.0876
▁rating	-10.0877
▁treated	-10.0884
otic	-10.0907
▁assess	-10.0909
bol	-10.0912
path	-10.0916
▁regions	-10.0922
▁conducted	-10.0935
▁speaker	-10.0936
▁fly	-10.094
▁seek	-10.0941
▁officer	-10.0949
▁honest	-10.0954
▁reader	-10.0955
▁lesson	-10.0955
▁era	-10.0962
в	-10.0964
▁sk	-10.0965
▁transmission	-10.0967
▁diseases	-10.0967
▁plane	-10.0967
ress	-10.0968
▁calls	-10.0971
▁theater	-10.0971
read	-10.0977
▁ahead	-10.0981
than	-10.0984
▁candidate	-10.0987
ulation	-10.099
lum	-10.0992
comp	-10.0992
eth	-10.0993
▁sufficient	-10.0995
▁adapt	-10.0997
graph	-10.1
▁intended	-10.1004
▁attract	-10.1009
▁ocean	-10.101
▁scheme	-10.1011
▁practical	-10.1011
▁leads	-10.1016
gn	-10.1019
▁paris	-10.1022
▁depth	-10.1023
▁notes	-10.1023
▁pra	-10.1029
▁tap	-10.1034
inter	-10.1034
▁walls	-10.1038
▁container	-10.1039
▁mil	-10.104
▁contrast	-10.1044
▁wants	-10.1047
▁funds	-10.1047
vert	-10.1048
▁prepare	-10.1049
▁filled	-10.105
т	-10.1064
▁raise	-10.1067
▁pink	-10.1068
▁none	-10.107
og	-10.1074
ks	-10.1075
▁absolutely	-10.1084
▁arab	-10.1085
▁arms	-10.1087
▁fu	-10.1091
▁lived	-10.1104
▁register	-10.1105
▁experts	-10.1106
▁saving	-10.1108
▁faster	-10.1108
▁prime	-10.1124
▁housing	-10.1125
▁properly	-10.1134
▁weekend	-10.1136
▁standing	-10.1137
▁kid	-10.1138
▁comparison	-10.114
▁magic	-10.114
▁assistance	-10.1141
ova	-10.1142
ese	-10.1144
roll	-10.1144
▁rh	-10.1147
lk	-10.1151
▁numerous	-10.1151
▁retail	-10.1153
▁logo	-10.1155
▁shoot	-10.1156
▁…	-10.116
▁landscape	-10.1166
▁tradition	-10.1171
▁lan	-10.1172
▁ep	-10.1173
▁spec	-10.1174
duc	-10.1176
▁writer	-10.119
▁noted	-10.1191
hr	-10.1196
▁minute	-10.1198
▁translation	-10.1202
▁joy	-10.1203
▁dinner	-10.1205
ode	-10.1207
▁define	-10.1212
▁factory	-10.1212
▁tower	-10.1215
▁affected	-10.1216
▁audit	-10.122
▁discount	-10.1222
▁mg	-10.1224
▁principle	-10.1225
▁occurs	-10.123
▁heating	-10.1239
ria	-10.1241
▁shoes	-10.1247
▁pages	-10.1254
▁becoming	-10.1258
hand	-10.1262
▁tasks	-10.1265
▁peter	-10.127
▁moreover	-10.1272
▁delete	-10.1272
▁electrical	-10.1287
▁pm	-10.129
▁enhance	-10.1299
▁sunday	-10.1305
▁sight	-10.1306
hal	-10.1309
▁resort	-10.1309
▁atmosphere	-10.131
▁fluid	-10.132
▁robert	-10.132
▁trend	-10.1325
cept	-10.1338
▁leather	-10.1342
▁rec	-10.1347
▁surgery	-10.1352
nia	-10.1353
▁cutting	-10.1356
logical	-10.136
▁michael	-10.1363
▁leaders	-10.1364
eur	-10.1367
cap	-10.1368
▁recovery	-10.1374
pho	-10.1374
▁segment	-10.1375
▁recording	-10.1375
▁grade	-10.1377
des	-10.1378
▁tur	-10.1381
▁template	-10.1386
▁institutions	-10.1388
til	-10.1389
▁extend	-10.1389
▁journey	-10.1391
▁faith	-10.1391
▁designer	-10.1393
ford	-10.1397
▁grant	-10.1401
▁mary	-10.1403
▁bat	-10.1403
▁gal	-10.1408
vel	-10.1412
▁adding	-10.1413
▁disorder	-10.1415
position	-10.1418
▁exhibition	-10.142
▁pat	-10.1422
pu	-10.1425
▁prefer	-10.1427
▁mainly	-10.1429
verse	-10.1437
▁registration	-10.1438
▁craft	-10.1438
▁specialist	-10.1438
▁biggest	-10.144
▁aware	-10.1452
▁signs	-10.1457
▁rare	-10.1457
▁justice	-10.1461
▁shr	-10.1469
▁argument	-10.1469
▁provider	-10.147
▁recognized	-10.1473
▁facebook	-10.1477
”,	-10.1479
▁dose	-10.1483
▁techniques	-10.1487
▁extract	-10.149
▁mechanism	-10.1495
▁rent	-10.1496
▁comm	-10.1496
ators	-10.1496
▁worse	-10.1498
▁quote	-10.15
▁apart	-10.1503
▁golden	-10.1509
▁unless	-10.1517
▁sitting	-10.1517
ration	-10.1518
▁moon	-10.1519
ulated	-10.152
▁tim	-10.1528
▁turns	-10.1528
▁vehicles	-10.1532
▁partners	-10.1537
▁shower	-10.1539
▁mostly	-10.1544
▁reveal	-10.1544
▁euro	-10.1544
▁vitamin	-10.1545
▁jack	-10.1546
print	-10.1547
▁exclusive	-10.1548
▁speech	-10.155
thy	-10.1552
▁realize	-10.1554
aries	-10.1558
▁religious	-10.1561
▁procedures	-10.1563
▁native	-10.1564
к	-10.1566
oh	-10.157
even	-10.1575
▁discover	-10.1576
▁remind	-10.1577
▁vary	-10.1578
▁royal	-10.1579
▁muscle	-10.1581
▁char	-10.1582
▁virtual	-10.1587
▁ros	-10.159
▁shut	-10.159
lip	-10.1592
▁aircraft	-10.1596
▁stra	-10.1598
▁accordance	-10.1601
▁architecture	-10.1606
▁attribute	-10.1609
▁permanent	-10.1613
there	-10.1621
ml	-10.1622
▁showing	-10.1626
mes	-10.1626
▁corporate	-10.163
▁spoke	-10.1634
▁technique	-10.1638
illa	-10.1638
▁rub	-10.1642
▁mention	-10.1648
▁extension	-10.1653
▁react	-10.1654
▁tight	-10.1654
col	-10.1655
▁yo	-10.166
▁broken	-10.167
lock	-10.1673
):	-10.1678
▁persons	-10.1682
▁shopping	-10.1686
▁displayed	-10.1692
▁seeing	-10.1699
▁decisions	-10.17
!!!	-10.1701
▁sla	-10.1703
▁george	-10.1713
▁strengthen	-10.1714
quality	-10.1714
▁gla	-10.1718
▁trading	-10.1718
cm	-10.1721
iff	-10.1722
▁carefully	-10.1723
▁mail	-10.1723
pers	-10.1726
mark	-10.1727
▁developer	-10.1733
▁territory	-10.1735
▁plot	-10.1736
▁buildings	-10.1738
▁virus	-10.1743
stone	-10.1743
oon	-10.1749
▁resource	-10.1754
▁sounds	-10.1755
▁entered	-10.177
▁fuck	-10.1774
atic	-10.1777
▁tourist	-10.1778
▁depend	-10.1787
link	-10.1788
▁fields	-10.179
▁hyper	-10.1795
▁arc	-10.1797
▁branch	-10.18
▁consist	-10.1805
▁mirror	-10.1807
▁microsoft	-10.1808
▁australia	-10.1813
▁draft	-10.1814
▁trump	-10.1815
▁recorded	-10.1816
▁stretch	-10.1822
ened	-10.1826
rin	-10.1833
▁journal	-10.1837
▁perspective	-10.1838
▁hero	-10.1842
▁contribution	-10.185
dr	-10.186
▁por	-10.1862
▁fourth	-10.1864
▁nuclear	-10.1868
▁integrated	-10.1874
▁revenue	-10.1883
ala	-10.1883
▁teachers	-10.1883
▁typical	-10.1885
▁plug	-10.1891
▁passenger	-10.1894
▁usa	-10.1898
dia	-10.1905
▁urban	-10.1906
▁incident	-10.1909
▁cro	-10.191
▁temple	-10.1914
▁raw	-10.1916
▁spiritual	-10.1919
ivity	-10.192
▁italian	-10.192
▁random	-10.1927
▁vessel	-10.1929
je	-10.1933
▁consideration	-10.1938
clu	-10.1943
pc	-10.1944
▁bike	-10.1947
org	-10.1949
▁manufacturing	-10.195
bed	-10.1951
▁revealed	-10.1959
▁debt	-10.1962
▁seconds	-10.1968
meter	-10.1968
itation	-10.197
▁col	-10.1972
▁reliable	-10.1972
▁zero	-10.1972
ita	-10.1973
▁folder	-10.1973
▁prove	-10.1977
▁graduate	-10.198
▁northern	-10.1989
▁stopped	-10.1991
▁watching	-10.1992
▁controller	-10.1998
▁queen	-10.2
▁ap	-10.2002
▁der	-10.2007
▁cl	-10.201
▁estimate	-10.201
▁asia	-10.2013
▁dangerous	-10.2013
▁crowd	-10.2018
ace	-10.2022
met	-10.2023
cro	-10.2024
▁frank	-10.2025
▁stated	-10.2025
▁reform	-10.2029
ough	-10.2032
grad	-10.2036
▁royalty	-10.2037
▁stars	-10.2041
▁starts	-10.2042
▁detect	-10.2042
minate	-10.2043
▁»	-10.2044
▁arrived	-10.2051
▁accessories	-10.2053
▁recipe	-10.2053
▁rod	-10.2056
▁ml	-10.2057
▁gl	-10.2059
▁semi	-10.207
▁signed	-10.207
▁aren	-10.2073
▁presentation	-10.2076
▁organic	-10.2077
▁brush	-10.2077
▁neck	-10.2079
▁achieved	-10.2091
%)	-10.2091
▁protocol	-10.2098
▁keeping	-10.2103
ama	-10.2106
▁educational	-10.2111
vic	-10.2112
▁universal	-10.2114
▁dia	-10.2115
lay	-10.2118
▁script	-10.2119
▁functional	-10.2126
▁analyze	-10.2126
▁sentence	-10.2129
direct	-10.2135
▁twice	-10.2137
aw	-10.2142
▁emergency	-10.2143
▁expert	-10.2147
▁leadership	-10.2152
are	-10.2158
▁syn	-10.2162
▁lamp	-10.2171
cin	-10.2175
▁emerge	-10.2181
▁organized	-10.2181
▁isolated	-10.2185
▁saturday	-10.2189
▁guest	-10.2189
▁television	-10.2193
▁aspects	-10.2196
ili	-10.2204
▁meant	-10.2207
▁constantly	-10.2212
wear	-10.2213
▁tested	-10.2214
pass	-10.2218
▁challenges	-10.2224
vers	-10.2226
▁restore	-10.2228
nk	-10.223
put	-10.2232
▁iphone	-10.2234
last	-10.2241
▁hurt	-10.2241
▁missing	-10.2242
cular	-10.2242
▁favor	-10.2242
ric	-10.2249
pol	-10.225
made	-10.2252
rm	-10.2255
▁desired	-10.2255
▁meta	-10.2265
▁messages	-10.227
▁tablet	-10.2272
▁invention	-10.2275
▁structures	-10.2277
▁bu	-10.2278
▁innovation	-10.2284
oph	-10.2286
▁teams	-10.2287
▁clo	-10.2288
▁fault	-10.2292
quest	-10.2293
▁adults	-10.2293
▁emotional	-10.2296
▁infrastructure	-10.2298
▁specifically	-10.2299
▁texture	-10.2302
▁concrete	-10.2304
phi	-10.2305
▁weapons	-10.2312
▁manufacturer	-10.2314
▁repeat	-10.2315
▁portion	-10.2317
▁fra	-10.2318
▁angel	-10.2321
ibility	-10.2322
▁bre	-10.2322
acy	-10.2328
▁familiar	-10.2334
▁stable	-10.234
▁england	-10.2344
▁bull	-10.2345
▁videos	-10.2346
▁lady	-10.2362
lit	-10.2373
ott	-10.2376
▁struggle	-10.238
▁stored	-10.238
▁engineer	-10.2381
▁begins	-10.2385
▁chart	-10.2391
▁fri	-10.2393
▁shi	-10.2398
▁forced	-10.24
▁monday	-10.24
▁smoke	-10.2401
▁lit	-10.2406
atory	-10.241
▁earn	-10.2413
▁professor	-10.2414
▁alter	-10.2416
▁belt	-10.2422
▁failed	-10.2424
▁southern	-10.2425
▁principles	-10.2432
ius	-10.2438
▁photograph	-10.2441
▁dust	-10.2445
▁discussed	-10.2445
stand	-10.2446
▁explained	-10.245
hor	-10.2451
▁ham	-10.2452
▁peak	-10.2452
ella	-10.2455
▁coll	-10.2457
▁agreed	-10.2459
▁ir	-10.246
▁occasion	-10.2461
▁differ	-10.2469
▁african	-10.2471
▁curve	-10.2475
▁finance	-10.2477
▁organ	-10.2478
▁corresponding	-10.2479
▁mat	-10.2481
uri	-10.2481
▁kick	-10.2482
▁alarm	-10.2484
ved	-10.2485
▁producer	-10.2488
▁diameter	-10.249
▁stu	-10.2502
▁eating	-10.2503
▁samples	-10.2505
▁mechanical	-10.2508
▁magazine	-10.2513
▁purchased	-10.2518
▁containing	-10.2519
▁confirm	-10.2522
▁accepted	-10.2523
▁shares	-10.2524
lat	-10.2529
vid	-10.2531
▁ms	-10.2531
▁sy	-10.2532
▁sym	-10.2532
▁empty	-10.2536
ttle	-10.2539
▁exposure	-10.2541
circ	-10.2549
▁remained	-10.255
▁wooden	-10.255
▁orange	-10.2555
▁powder	-10.2555
▁introduction	-10.2559
▁vertical	-10.2562
ua	-10.2565
▁boys	-10.2566
▁shell	-10.2568
▁continues	-10.2572
ural	-10.2577
▁neighbor	-10.2583
▁chip	-10.2588
▁divided	-10.2592
▁clock	-10.2594
▁appreciate	-10.2595
▁correspond	-10.2602
▁villa	-10.2605
▁relationships	-10.2607
long	-10.2611
▁crisis	-10.2614
▁worry	-10.2623
nne	-10.2626
ets	-10.2637
▁mont	-10.2638
▁cake	-10.2639
pet	-10.264
▁wing	-10.2647
▁pad	-10.265
▁instant	-10.2651
▁dedicated	-10.2655
▁recognize	-10.2657
rie	-10.266
▁perfectly	-10.266
▁latter	-10.2661
▁assets	-10.2664
bl	-10.267
ett	-10.2671
▁crack	-10.2672
service	-10.2672
▁birthday	-10.2675
▁bomb	-10.2679
▁graphics	-10.2683
lor	-10.2683
▁murder	-10.2685
▁shoulder	-10.2687
▁transportation	-10.2688
▁policies	-10.2688
ky	-10.2689
▁lots	-10.2691
▁coat	-10.2691
▁upgrade	-10.2695
▁thousands	-10.2696
▁measured	-10.27
▁consumer	-10.2701
▁variable	-10.2702
▁chosen	-10.2703
▁listed	-10.271
▁machines	-10.2712
▁han	-10.2715
nie	-10.2717
▁interests	-10.2719
▁holy	-10.2719
▁gate	-10.2727
▁remaining	-10.2738
▁replaced	-10.274
▁resulting	-10.274
▁survive	-10.2743
▁indicate	-10.2743
▁businesses	-10.2745
vy	-10.2746
real	-10.2746
▁cy	-10.2748
gre	-10.2753
east	-10.2759
aging	-10.2761
cial	-10.2762
▁attitude	-10.2763
screen	-10.2764
▁citizens	-10.2765
▁planned	-10.2767
▁lens	-10.277
▁recover	-10.2774
▁ken	-10.2777
▁slowly	-10.2777
ddle	-10.278
▁capable	-10.2783
▁cre	-10.2785
▁claims	-10.2787
▁feedback	-10.2788
▁supplier	-10.2788
▁supposed	-10.279
▁inner	-10.2791
▁enemy	-10.2795
▁songs	-10.2797
▁concerned	-10.2803
▁initiative	-10.2805
▁hundred	-10.2808
▁advise	-10.2812
▁visitors	-10.2819
<	-10.2819
▁mess	-10.2821
key	-10.2824
▁forum	-10.2826
▁photography	-10.2829
▁suite	-10.2833
▁repeated	-10.2834
▁speaking	-10.2836
▁disk	-10.2841
▁advertising	-10.2844
▁chamber	-10.2848
▁teach	-10.2849
state	-10.285
▁flavor	-10.2853
gent	-10.2855
▁hearing	-10.2857
place	-10.2859
▁extensive	-10.286
▁identity	-10.2868
lash	-10.2868
▁surrounding	-10.287
▁winner	-10.287
▁fulfill	-10.2872
▁cute	-10.2873
▁escape	-10.2874
▁realized	-10.2874
▁literature	-10.2877
▁chest	-10.2877
ock	-10.2882
card	-10.2895
▁herself	-10.2895
ulate	-10.2902
ym	-10.2904
▁rail	-10.2905
▁concern	-10.2911
ians	-10.2918
▁dad	-10.2924
▁proceed	-10.2927
▁convention	-10.2934
▁steam	-10.2934
ished	-10.2938
▁supplement	-10.2939
▁generate	-10.2939
▁browser	-10.2939
▁plenty	-10.2941
▁bowl	-10.2945
▁cri	-10.2945
▁israel	-10.2946
▁split	-10.2947
▁ended	-10.2947
▁registered	-10.2954
▁expense	-10.2957
▁expressed	-10.2957
▁witness	-10.2962
▁reward	-10.2963
▁trigger	-10.2967
▁edition	-10.2969
▁cartoon	-10.2974
ush	-10.2974
▁kn	-10.2984
▁kingdom	-10.2988
▁mineral	-10.2995
word	-10.3
▁sorry	-10.3001
▁restaurants	-10.3002
▁eastern	-10.3009
€	-10.3019
▁clothing	-10.302
▁markets	-10.3024
pen	-10.3028
▁fundamental	-10.303
▁italy	-10.3039
▁disappear	-10.3047
▁hum	-10.305
ologist	-10.3051
▁mixed	-10.3051
▁promotion	-10.3055
▁hypo	-10.3056
▁discovered	-10.3057
▁replacement	-10.306
▁defend	-10.306
▁breast	-10.306
vari	-10.3066
mus	-10.3067
▁legs	-10.307
▁observation	-10.3072
omy	-10.3073
▁jobs	-10.3075
▁sir	-10.3076
▁valley	-10.3076
▁kazakhstan	-10.3076
▁opposite	-10.3078
▁anyway	-10.3082
▁def	-10.3089
▁lab	-10.3089
▁accommodation	-10.3102
▁teeth	-10.3106
▁parameter	-10.3107
▁widely	-10.3107
▁indicated	-10.3108
ich	-10.3112
ae	-10.312
▁controlled	-10.312
▁sar	-10.3121
@	-10.3124
zy	-10.3126
▁lighting	-10.3127
▁violence	-10.3127
▁circumstances	-10.3132
▁@	-10.3137
▁injury	-10.3145
aff	-10.3149
arian	-10.3149
▁celebrate	-10.3157
▁religion	-10.3157
code	-10.3158
л	-10.3158
▁ingredients	-10.3163
▁grass	-10.3167
gro	-10.318
▁academic	-10.3182
▁confirmed	-10.3187
▁studied	-10.3187
▁secondary	-10.3191
▁scholar	-10.3193
▁evaluation	-10.3196
▁yield	-10.3197
▁frequently	-10.3198
▁retain	-10.3198
▁laser	-10.3204
▁rap	-10.3207
▁gap	-10.3207
▁surprise	-10.3208
▁california	-10.3211
▁defeat	-10.3212
▁practices	-10.3213
▁focused	-10.3214
▁lie	-10.3214
▁chronic	-10.3216
▁sets	-10.3217
▁polish	-10.3218
▁bow	-10.3218
▁tear	-10.3219
ening	-10.322
pel	-10.3222
tech	-10.3226
▁wireless	-10.3229
radi	-10.323
▁rid	-10.3232
cp	-10.3234
▁approved	-10.3251
▁warning	-10.3254
▁calculation	-10.3259
▁tough	-10.3267
▁extended	-10.3276
▁hardware	-10.3278
▁extent	-10.3279
▁bacteria	-10.328
▁restrict	-10.3285
▁artists	-10.3288
non	-10.3291
▁sole	-10.3296
▁shade	-10.3297
▁hence	-10.33
▁kg	-10.33
▁tape	-10.3301
▁tip	-10.3302
▁closer	-10.3302
char	-10.3303
pir	-10.3305
cho	-10.3305
▁combat	-10.3306
▁neither	-10.3308
rated	-10.3316
ele	-10.3316
power	-10.3317
▁mari	-10.332
▁cancel	-10.3322
▁greatest	-10.3322
▁suggested	-10.3325
▁shooting	-10.3328
class	-10.3329
▁successfully	-10.333
▁pig	-10.333
mination	-10.3333
▁residents	-10.3333
▁channels	-10.3334
▁competitive	-10.3339
▁chat	-10.3342
▁mer	-10.3345
▁aluminum	-10.3348
▁smell	-10.3349
▁tips	-10.335
▁mur	-10.3354
▁hip	-10.3355
▁issued	-10.3355
bling	-10.3356
▁patterns	-10.3357
▁scan	-10.3358
▁lunch	-10.336
▁categories	-10.3361
▁federation	-10.3362
▁shipping	-10.3366
▁destination	-10.3368
▁wearing	-10.3369
▁liver	-10.337
▁solar	-10.3371
▁moral	-10.3375
▁strategic	-10.3375
▁existence	-10.3376
▁wound	-10.3379
▁obvious	-10.3388
▁employee	-10.3408
▁evil	-10.3411
▁sides	-10.3413
▁believed	-10.3415
▁representative	-10.3421
related	-10.3422
▁selling	-10.3425
gon	-10.3428
▁obviously	-10.343
▁argue	-10.3431
▁participation	-10.3433
▁runs	-10.3434
▁examination	-10.3441
ave	-10.3444
▁hal	-10.3455
▁knows	-10.3456
▁fur	-10.3461
▁strike	-10.3464
fully	-10.3469
del	-10.3473
▁configure	-10.348
bor	-10.3488
▁helpful	-10.3491
ature	-10.3494
▁saint	-10.35
wing	-10.35
▁nut	-10.3501
▁eliminate	-10.3502
▁node	-10.3504
▁officials	-10.3507
▁secretary	-10.3512
▁rat	-10.3512
▁clip	-10.3515
▁bla	-10.3516
▁gender	-10.3516
▁fighting	-10.3517
▁turning	-10.3518
▁harm	-10.352
▁narrow	-10.3527
▁buying	-10.3529
▁suddenly	-10.3532
▁adventure	-10.3533
▁exception	-10.3537
▁allowing	-10.3537
▁accomplish	-10.354
▁glad	-10.3542
▁sharing	-10.3542
▁communities	-10.355
▁normally	-10.3553
▁slide	-10.3557
▁tire	-10.3558
▁prompt	-10.3559
pad	-10.3559
▁drain	-10.3562
▁visible	-10.3566
▁trail	-10.3569
▁climb	-10.357
born	-10.357
lation	-10.3574
▁usual	-10.3574
▁launched	-10.3575
▁chicken	-10.3582
lateral	-10.3585
▁geo	-10.3592
▁extreme	-10.3596
▁facility	-10.3602
▁consult	-10.3605
▁vice	-10.3612
▁officers	-10.3613
▁stability	-10.3616
gor	-10.3618
▁boost	-10.3619
lies	-10.3624
▁crew	-10.3627
▁nail	-10.3627
▁breed	-10.3633
▁encounter	-10.3633
▁fold	-10.3637
▁caught	-10.3637
▁banks	-10.3641
▁£	-10.3643
▁strict	-10.3644
▁gro	-10.3644
▁relation	-10.3649
▁sick	-10.3653
clo	-10.3653
▁besides	-10.3657
▁respectively	-10.3665
▁prince	-10.3673
hen	-10.3676
▁champion	-10.3679
▁formal	-10.3682
▁absorb	-10.3683
ati	-10.3683
▁combine	-10.3685
▁smartphone	-10.3686
▁dev	-10.3687
▁bread	-10.3695
▁referred	-10.3696
▁cop	-10.3701
gene	-10.3701
chan	-10.3707
▁washington	-10.3709
chem	-10.371
▁dogs	-10.3712
▁receiving	-10.3714
▁pilot	-10.3718
avi	-10.3719
▁sil	-10.3723
▁asking	-10.3724
▁evaluate	-10.3725
▁pocket	-10.3727
▁assume	-10.3728
▁calm	-10.3732
sure	-10.3742
most	-10.3745
equ	-10.3753
fc	-10.3754
▁owners	-10.3755
▁estimated	-10.3756
▁attached	-10.3761
▁proposal	-10.3761
▁anywhere	-10.3767
▁compare	-10.3774
▁loop	-10.3785
rc	-10.3787
▁luxury	-10.3787
▁resolve	-10.3787
▁georgia	-10.3793
ban	-10.3796
continu	-10.3799
▁uni	-10.3816
▁cry	-10.3821
▁premium	-10.3824
▁tan	-10.3829
▁joined	-10.3833
▁publication	-10.3835
▁household	-10.3836
▁acts	-10.3841
▁cheese	-10.3846
▁yeah	-10.3851
▁tall	-10.3854
▁partnership	-10.3858
▁helping	-10.386
▁tech	-10.3863
▁advantages	-10.387
▁bird	-10.3879
▁funny	-10.388
▁hang	-10.3882
▁cher	-10.3893
▁adjustment	-10.3902
▁shadow	-10.3913
▁ze	-10.3917
▁trick	-10.3921
▁algorithm	-10.3921
▁decline	-10.3928
zar	-10.3929
▁accounts	-10.393
▁ray	-10.3936
ographic	-10.3949
now	-10.3952
▁doors	-10.3957
▁entertainment	-10.3957
bul	-10.3959
▁confidence	-10.3961
▁delivered	-10.3964
▁array	-10.3969
▁observe	-10.3973
▁occurred	-10.3981
▁thoughts	-10.3988
▁entirely	-10.3989
active	-10.3991
▁personnel	-10.3995
uv	-10.4
▁smith	-10.4004
▁drawn	-10.4011
▁snap	-10.4012
▁emb	-10.4013
pin	-10.4016
▁situations	-10.4018
▁constitution	-10.4022
ada	-10.4022
ami	-10.4025
▁concert	-10.4026
▁wealth	-10.4026
▁attractive	-10.4027
dom	-10.4032
conscious	-10.4033
▁collected	-10.4034
ender	-10.4038
▁prize	-10.4046
▁putting	-10.4056
▁setup	-10.4056
▁compact	-10.4059
pot	-10.4062
utter	-10.4066
‐	-10.4072
oy	-10.4077
▁belief	-10.4078
▁thermal	-10.4081
▁coin	-10.4083
tz	-10.4085
▁trace	-10.4085
▁regulations	-10.409
▁letters	-10.4095
▁destroy	-10.4096
static	-10.4103
▁commitment	-10.4103
▁stores	-10.4105
ena	-10.4109
▁pic	-10.4112
▁exact	-10.4113
▁employment	-10.4114
oz	-10.4115
▁slip	-10.4116
level	-10.4116
trac	-10.4119
ei	-10.4121
run	-10.4125
fold	-10.4126
▁represents	-10.4128
▁charged	-10.4133
gal	-10.4133
▁networks	-10.4133
▁pp	-10.4133
▁drill	-10.4134
▁mount	-10.4134
▁effectively	-10.4148
▁reviews	-10.415
▁blend	-10.4154
▁greek	-10.4156
▁tit	-10.4158
▁links	-10.4159
▁duration	-10.4169
▁lights	-10.4172
nge	-10.4179
glo	-10.4179
▁distinguish	-10.4181
teen	-10.4181
morph	-10.4187
▁championship	-10.4188
▁afraid	-10.419
law	-10.4192
▁width	-10.4194
▁adopted	-10.4196
▁hell	-10.4197
urge	-10.4198
▁pol	-10.4201
get	-10.4201
hur	-10.4201
▁rapid	-10.4204
▁fellow	-10.4205
▁reject	-10.4206
▁render	-10.4209
lov	-10.4212
▁houses	-10.4214
▁chocolate	-10.4216
▁agents	-10.4218
▁indicates	-10.422
ute	-10.4221
▁arrangement	-10.423
maker	-10.4236
liter	-10.4237
▁kinds	-10.4241
“	-10.4243
▁exhibit	-10.4246
▁unknown	-10.4248
▁comprehensive	-10.4251
▁val	-10.4251
▁till	-10.4253
▁specify	-10.4256
mod	-10.426
▁variation	-10.4261
▁electro	-10.4275
▁strategies	-10.4278
▁hidden	-10.4286
▁delicious	-10.4288
▁uniform	-10.4288
▁expansion	-10.4291
><	-10.4292
view	-10.4297
▁revolution	-10.4307
▁abuse	-10.4307
▁crop	-10.4307
▁cam	-10.4308
▁intelligence	-10.4315
▁pour	-10.4322
▁construct	-10.4327
fall	-10.4332
▁awesome	-10.4332
cast	-10.4336
▁sec	-10.4339
dict	-10.434
unk	-10.4341
▁crash	-10.4342
▁ultra	-10.4342
▁spanish	-10.4343
▁satellite	-10.4348
itu	-10.4349
▁decor	-10.4353
▁equation	-10.4353
▁twenty	-10.4355
▁thomas	-10.4362
▁tar	-10.4366
▁nearby	-10.4367
▁dc	-10.4373
▁carrier	-10.4377
▁www	-10.4378
astic	-10.439
▁buyer	-10.4393
▁saved	-10.4394
ident	-10.4396
▁correctly	-10.4402
plan	-10.4405
▁hor	-10.4406
▁printer	-10.4409
post	-10.4411
▁mp	-10.4412
▁degrees	-10.4412
▁feelings	-10.4413
lf	-10.4416
▁movies	-10.4417
▁tie	-10.4418
stream	-10.442
▁acc	-10.4425
▁proud	-10.4425
▁entrance	-10.4425
▁suspect	-10.4435
▁false	-10.4438
▁totally	-10.4439
▁recall	-10.4443
▁parallel	-10.4444
▁figures	-10.4451
▁prospect	-10.4455
▁unable	-10.4456
▁criteria	-10.446
▁updated	-10.4461
▁integration	-10.4464
▁capture	-10.4474
▁settlement	-10.4477
▁flo	-10.4481
▁heaven	-10.4483
▁^	-10.4484
▁positions	-10.4485
▁©	-10.4495
color	-10.4501
hl	-10.4505
ano	-10.4509
▁scenario	-10.4516
rog	-10.4519
▁pleasure	-10.4519
poli	-10.4522
м	-10.4524
▁pit	-10.4527
▁storm	-10.4529
`	-10.453
▁diagnosis	-10.4537
rick	-10.4537
▁researchers	-10.4538
▁hide	-10.454
cat	-10.4548
▁nick	-10.455
▁teen	-10.4551
▁absence	-10.4557
▁experiences	-10.4558
▁blade	-10.4559
▁castle	-10.4564
▁knee	-10.4565
aid	-10.4566
▁gram	-10.4568
chin	-10.4568
!"	-10.4569
▁workshop	-10.458
▁proportion	-10.4589
late	-10.4592
▁marked	-10.4594
▁vital	-10.4596
▁representatives	-10.4597
▁portrait	-10.4603
▁generated	-10.4604
▁sca	-10.4605
love	-10.4607
</	-10.4608
liber	-10.4611
▁swimming	-10.4611
they	-10.4617
▁kh	-10.462
▁regularly	-10.4625
▁info	-10.4626
▁unlike	-10.4634
▁represented	-10.4635
▁stages	-10.4645
▁calling	-10.4651
▁films	-10.4654
▁exhaust	-10.4659
cher	-10.4669
▁removal	-10.4675
▁poll	-10.4676
▁aspect	-10.4678
▁apparently	-10.4684
▁tion	-10.4686
which	-10.4687
▁turkey	-10.4688
▁twin	-10.4688
#	-10.469
▁possibly	-10.4692
▁robot	-10.4692
ith	-10.4693
ula	-10.4694
▁tumor	-10.4694
▁worldwide	-10.4694
▁possess	-10.4695
▁shirt	-10.4697
▁considering	-10.47
▁duty	-10.4701
▁intention	-10.4705
▁len	-10.471
▁languages	-10.4714
▁gran	-10.4715
▁understood	-10.4716
▁decoration	-10.4722
▁valuable	-10.4724
▁congress	-10.4727
▁academy	-10.4729
trans	-10.4731
▁folk	-10.4732
▁oxygen	-10.4734
▁corporation	-10.4735
▁bearing	-10.4738
▁dear	-10.4739
▁carrying	-10.4741
▁genetic	-10.4742
▁okay	-10.4743
▁brake	-10.4749
▁massive	-10.4762
▁priority	-10.4774
ement	-10.4775
piece	-10.4775
▁articles	-10.4776
hn	-10.4789
▁linked	-10.4792
▁keyboard	-10.4794
ora	-10.4795
hydr	-10.4797
▁hook	-10.4799
▁victory	-10.4799
▁concerns	-10.48
▁mouse	-10.4803
▁grew	-10.4805
▁printing	-10.4805
more	-10.4808
▁slot	-10.4818
▁leaf	-10.4824
gri	-10.4825
gie	-10.4829
stein	-10.4843
▁cooling	-10.4843
▁permit	-10.4846
▁province	-10.4847
▁belarus	-10.485
▁dollars	-10.4851
▁jam	-10.4852
rp	-10.4856
▁cluster	-10.486
▁lovely	-10.4865
▁committed	-10.4869
▁grain	-10.4881
▁rob	-10.4881
organ	-10.4882
▁universe	-10.4885
resistant	-10.489
▁statistics	-10.4891
bri	-10.4891
ean	-10.4893
▁diamond	-10.4896
bell	-10.4897
▁phil	-10.49
▁desk	-10.4902
▁substantial	-10.4907
▁spray	-10.4907
▁desktop	-10.4909
▁protected	-10.491
▁pleasant	-10.4911
▁ourselves	-10.4912
▁cooking	-10.4913
dar	-10.4917
stat	-10.4923
▁musical	-10.4925
▁recommendations	-10.4925
▁palm	-10.4927
▁protest	-10.493
▁giant	-10.493
▁grown	-10.4936
▁tuesday	-10.494
▁medication	-10.494
▁analog	-10.4943
▁rubber	-10.4947
oth	-10.4947
▁nurse	-10.4947
vol	-10.4951
script	-10.4955
▁ordered	-10.4961
▁innovative	-10.4966
rant	-10.4966
ility	-10.4967
▁habit	-10.4969
▁thursday	-10.4969
cit	-10.497
▁recruit	-10.4973
▁furthermore	-10.4976
▁lawyer	-10.498
eu	-10.4984
▁reporting	-10.4986
▁primarily	-10.4996
▁regulation	-10.4996
▁egg	-10.4998
▁danger	-10.5
▁calculated	-10.5003
sql	-10.5005
▁yard	-10.5006
▁acting	-10.5009
▁implemented	-10.501
▁loose	-10.5012
▁ill	-10.5016
▁massage	-10.5017
▁blind	-10.5018
▁coal	-10.5019
▁assistant	-10.502
qua	-10.5023
rl	-10.5024
▁jean	-10.5033
▁sco	-10.5034
▁thermo	-10.5034
xx	-10.5035
▁density	-10.5036
▁kiss	-10.5036
▁scr	-10.5039
▁drag	-10.5047
▁scientists	-10.5051
cker	-10.5052
▁feels	-10.5053
▁hate	-10.5055
▁grab	-10.5055
▁macro	-10.5057
▁leak	-10.5058
▁regime	-10.506
▁connector	-10.5067
ific	-10.507
▁pregnancy	-10.507
▁honey	-10.5071
ught	-10.5072
media	-10.5075
▁reasonable	-10.5077
▁lies	-10.5077
▁mus	-10.5077
▁explanation	-10.5079
▁tomorrow	-10.5082
ester	-10.5085
ridge	-10.5089
▁martin	-10.5089
▁rush	-10.509
▁achievement	-10.5092
pack	-10.5096
▁dimensions	-10.51
▁richard	-10.5102
▁parliament	-10.5104
▁engaged	-10.5105
▁unusual	-10.5107
▁bound	-10.511
▁strain	-10.5113
▁superior	-10.5114
▁reducing	-10.5115
▁corn	-10.5115
▁principal	-10.5119
eb	-10.5119
immer	-10.5125
rov	-10.5131
▁ticket	-10.5131
▁tells	-10.5131
▁flexible	-10.5134
▁ger	-10.5134
erie	-10.5137
zz	-10.5137
▁scope	-10.5139
▁hp	-10.514
▁percentage	-10.5141
▁gel	-10.5145
▁sensitive	-10.5147
▁bru	-10.5148
▁evolution	-10.515
▁kan	-10.5154
▁reverse	-10.5154
▁mold	-10.5157
▁volunteer	-10.5159
dan	-10.5167
att	-10.5169
▁enjoyed	-10.5169
▁accuracy	-10.5171
▁arrive	-10.5174
▁plain	-10.5183
▁younger	-10.5183
!”	-10.5187
▁exit	-10.5197
▁returns	-10.5198
▁serving	-10.52
▁mountains	-10.5202
▁stem	-10.5211
▁drinking	-10.5211
▁versions	-10.5213
yo	-10.5216
▁complaint	-10.5216
▁commonly	-10.5223
▁obligation	-10.5224
▁currency	-10.5228
▁happening	-10.5228
▁affairs	-10.523
▁graphic	-10.5231
from	-10.5231
www	-10.5232
ense	-10.5237
▁initially	-10.524
break	-10.524
num	-10.5242
bro	-10.5244
zu	-10.5244
▁horizontal	-10.5249
arm	-10.525
▁busy	-10.5253
just	-10.5255
▁birds	-10.5257
▁winning	-10.5258
▁pound	-10.5261
▁loud	-10.5261
craft	-10.5261
▁lee	-10.5262
hol	-10.5265
▁asian	-10.5266
▁infant	-10.5268
zer	-10.5269
▁dam	-10.5272
▁nobody	-10.5286
▁iii	-10.5293
▁legislation	-10.5296
▁muslim	-10.5304
▁stir	-10.5305
▁dna	-10.5308
▁newspaper	-10.5314
▁attacks	-10.5317
aya	-10.5318
▁laboratory	-10.5324
ﬁ	-10.5324
▁investors	-10.5325
▁minimal	-10.5326
▁nik	-10.533
▁communicate	-10.5331
▁adequate	-10.5331
fig	-10.5331
ida	-10.5332
sum	-10.5334
▁margin	-10.5334
▁pri	-10.5336
▁interval	-10.5342
▁demonstrate	-10.5349
▁marine	-10.535
▁dual	-10.5352
▁brings	-10.5354
▁drivers	-10.5356
▁mood	-10.5359
▁radiation	-10.536
logy	-10.5363
▁decades	-10.5365
▁bigger	-10.5371
▁answers	-10.5372
▁palace	-10.5376
▁juice	-10.5381
▁spark	-10.5384
▁clinic	-10.5386
▁funding	-10.5388
▁experimental	-10.5398
activ	-10.5398
▁contest	-10.5399
▁norm	-10.5399
▁ukrainian	-10.54
anda	-10.5403
▁manufacturers	-10.5406
▁preserve	-10.5406
▁connections	-10.5413
ux	-10.5413
etic	-10.5414
▁closely	-10.5417
▁iran	-10.5417
▁consumers	-10.5421
▁tile	-10.5421
▁contemporary	-10.5422
▁cle	-10.5423
high	-10.5424
▁bug	-10.5427
▁routine	-10.5431
▁basically	-10.5434
▁exam	-10.5435
▁stands	-10.5437
▁personality	-10.5437
â	-10.5441
▁cord	-10.545
▁naturally	-10.5454
▁odd	-10.5456
▁guitar	-10.5458
▁corp	-10.546
▁magnetic	-10.5461
▁lar	-10.5462
▁tam	-10.5462
▁wednesday	-10.5463
▁investigate	-10.5464
▁hire	-10.5469
person	-10.547
umble	-10.547
▁agencies	-10.5472
▁errors	-10.5475
▁withdraw	-10.5476
▁laptop	-10.5477
▁programme	-10.548
▁instruments	-10.5481
▁charm	-10.5481
life	-10.5482
empt	-10.5484
▁recognition	-10.5484
▁supporting	-10.5487
▁submit	-10.5488
▁captain	-10.5494
▁porn	-10.5496
section	-10.5498
any	-10.5499
▁impression	-10.5511
rom	-10.5513
▁mel	-10.552
▁careful	-10.5523
▁ordinary	-10.5526
▁proof	-10.5527
▁ps	-10.5529
▁intervention	-10.5531
mini	-10.5532
▁stood	-10.5532
ule	-10.5537
▁suffer	-10.5538
▁prayer	-10.554
ential	-10.5543
och	-10.5545
▁centre	-10.555
vision	-10.5551
▁defect	-10.5559
▁posted	-10.5575
▁cav	-10.5581
▁assigned	-10.5586
▁consequences	-10.559
▁pitch	-10.5593
▁spell	-10.5597
▁improving	-10.5599
▁stack	-10.56
▁knowing	-10.5601
ulating	-10.5604
▁choosing	-10.5604
▁qua	-10.5604
▁yesterday	-10.5606
▁noticed	-10.5608
ison	-10.5608
▁originally	-10.5608
▁toilet	-10.5609
▁iso	-10.5611
enko	-10.5613
▁barrier	-10.5615
after	-10.5615
▁comprise	-10.5619
inch	-10.563
▁tickets	-10.5633
▁weapon	-10.5635
▁processor	-10.5637
oe	-10.5641
▁sail	-10.5643
▁bonus	-10.5646
▁personally	-10.5653
▁charles	-10.5654
▁directed	-10.5655
▁tail	-10.5655
▁ceiling	-10.5657
▁inspection	-10.5657
▁taught	-10.5659
▁crown	-10.566
▁gym	-10.5668
▁nose	-10.5674
rous	-10.5674
▁coverage	-10.5676
▁gentle	-10.5685
crea	-10.5686
▁beam	-10.5696
▁electricity	-10.5699
▁contained	-10.5704
▁approaches	-10.572
▁passion	-10.5721
▁regardless	-10.5727
▁ignore	-10.5728
▁elder	-10.5729
▁cow	-10.5733
▁hundreds	-10.5733
▁singer	-10.5735
▁exciting	-10.5736
▁ky	-10.5737
▁dish	-10.5737
▁nutrition	-10.5747
▁spending	-10.5752
▁spain	-10.5753
yard	-10.5753
▁jacket	-10.5763
▁critic	-10.5769
▁fairly	-10.5769
▁fishing	-10.577
▁elegant	-10.5771
cub	-10.5772
▁performing	-10.578
ched	-10.5789
erson	-10.5793
emia	-10.5793
▁nevertheless	-10.5794
▁insight	-10.5795
▁azerbaijan	-10.5797
▁excited	-10.5802
▁seriously	-10.5802
awa	-10.5803
▁graph	-10.5804
bir	-10.5806
▁translate	-10.5809
▁chan	-10.5809
▁discharge	-10.5814
▁arrival	-10.5815
▁coating	-10.5827
™	-10.5828
rid	-10.5831
mann	-10.5831
▁temp	-10.5835
▁ease	-10.5837
▁tourism	-10.5838
rich	-10.5839
temp	-10.5842
▁employer	-10.585
mel	-10.5855
oxy	-10.5856
▁reg	-10.5858
▁tattoo	-10.586
▁divide	-10.586
▁chairman	-10.5864
page	-10.5866
control	-10.5867
▁subsequent	-10.5869
▁succeed	-10.5869
▁supplies	-10.5871
▁empire	-10.5873
▁arise	-10.5875
▁louis	-10.5879
▁bud	-10.5881
▁tournament	-10.5882
▁dragon	-10.5883
▁prevention	-10.5886
▁rental	-10.5888
▁optimal	-10.5892
space	-10.5893
▁flying	-10.5895
▁detection	-10.59
ache	-10.5903
▁alive	-10.5904
▁scott	-10.5914
▁grace	-10.5917
▁administrative	-10.5918
▁permission	-10.5918
▁patch	-10.5923
▁sew	-10.5924
▁telephone	-10.5927
tional	-10.5929
nder	-10.5931
▁preference	-10.5936
rian	-10.5948
▁sustainable	-10.5954
kar	-10.5962
▁interpret	-10.5963
▁terrace	-10.5965
wan	-10.5968
▁somewhere	-10.5968
▁introduce	-10.5968
▁illustrate	-10.597
▁armor	-10.5972
▁linear	-10.5975
▁tone	-10.5976
▁thickness	-10.5978
▁quantity	-10.5978
amine	-10.5979
▁adam	-10.5981
▁gallery	-10.5982
▁emission	-10.5985
▁packaging	-10.599
▁facilitate	-10.599
▁walked	-10.5993
under	-10.5998
▁findings	-10.6001
▁absolute	-10.6001
▁soldiers	-10.6017
when	-10.6023
▁butter	-10.6028
▁violation	-10.6029
gle	-10.6029
face	-10.6034
test	-10.6034
▁characterized	-10.6036
px	-10.604
▁handling	-10.6041
ending	-10.6044
▁bob	-10.6053
edit	-10.6055
quar	-10.6057
▁passing	-10.6061
▁kra	-10.6065
▁directory	-10.6066
▁mechanisms	-10.6067
▁paragraph	-10.6068
▁residence	-10.6069
▁colleague	-10.6073
▁membrane	-10.6074
▁suffering	-10.6076
cia	-10.6077
▁chu	-10.6079
▁founded	-10.6081
chlor	-10.6082
ifying	-10.6083
▁vast	-10.6083
▁characteristic	-10.6084
▁dining	-10.6086
▁pubmed	-10.609
▁gor	-10.609
lumin	-10.609
▁thi	-10.6092
troph	-10.6093
▁broadcast	-10.6094
á	-10.6097
▁div	-10.6098
▁equivalent	-10.61
▁strongly	-10.6111
▁\	-10.6112
▁harry	-10.6113
have	-10.6119
iya	-10.6126
▁compliance	-10.6126
▁forever	-10.6126
▁fitness	-10.6131
▁tha	-10.6132
▁everywhere	-10.6133
▁alex	-10.6135
▁incorporate	-10.6135
▁backup	-10.6135
▁cata	-10.6136
▁eggs	-10.6142
▁cabinet	-10.6142
▁relief	-10.6146
aunt	-10.615
scale	-10.6152
▁transformation	-10.6153
▁judgment	-10.6154
▁slave	-10.6154
▁steve	-10.6156
gate	-10.6157
gr	-10.6157
▁happiness	-10.6161
▁wholesale	-10.6169
▁operational	-10.6173
▁transparent	-10.618
▁awareness	-10.6181
▁vacation	-10.6186
▁sweat	-10.6192
▁arrow	-10.6198
▁rice	-10.6203
▁everybody	-10.6203
other	-10.6203
▁luc	-10.6208
▁visited	-10.6211
▁coordinate	-10.6213
▁alexander	-10.6213
▁impressive	-10.6215
align	-10.6215
commun	-10.6216
band	-10.6221
▁facing	-10.6229
▁knock	-10.6232
▁melt	-10.6237
▁creature	-10.6238
▁causing	-10.6239
▁gh	-10.6257
▁weigh	-10.626
▁traveling	-10.626
▁tension	-10.6262
▁tin	-10.627
▁anymore	-10.6271
▁shin	-10.6273
▁surprising	-10.6279
▁preferred	-10.6285
▁attraction	-10.6285
▁°	-10.6286
ended	-10.6287
▁establishment	-10.6291
▁rural	-10.6291
▁fantastic	-10.6294
▁boil	-10.6298
▁bun	-10.6299
count	-10.63
▁flood	-10.6301
▁programming	-10.6302
▁sauce	-10.6304
▁availability	-10.6307
▁luck	-10.6315
▁particles	-10.6316
hear	-10.6318
▁neutral	-10.6318
▁childhood	-10.6321
▁surprised	-10.6323
fect	-10.6324
▁conversion	-10.633
▁boss	-10.6336
rum	-10.6342
▁gall	-10.6343
ulator	-10.635
▁debate	-10.6352
▁execution	-10.6356
▁worst	-10.6363
▁concentrate	-10.6365
west	-10.6367
▁bringing	-10.6368
▁increasingly	-10.637
▁laid	-10.6376
▁losing	-10.638
▁situated	-10.6384
▁everyday	-10.6387
▁diver	-10.6391
▁resist	-10.6398
▁athlete	-10.6399
▁costume	-10.6402
{	-10.6403
▁concerning	-10.6404
▁somewhat	-10.6406
▁polymer	-10.6407
▁interpretation	-10.6407
posed	-10.6408
▁deck	-10.6411
ised	-10.6411
hold	-10.6417
▁jan	-10.6417
gin	-10.6419
▁nano	-10.642
▁exposed	-10.6422
▁agricultural	-10.6424
▁crazy	-10.6427
▁illness	-10.643
▁enables	-10.6431
▁usage	-10.6436
▁railway	-10.6437
▁inspired	-10.6442
▁kim	-10.6445
▁examine	-10.6446
▁complicated	-10.6449
▁structural	-10.6449
▁drum	-10.6451
▁vegetables	-10.6453
ü	-10.6455
station	-10.6455
mond	-10.6457
▁additionally	-10.6459
claim	-10.646
▁var	-10.6465
▁immediate	-10.6465
een	-10.6466
▁whereas	-10.6467
minute	-10.6467
town	-10.6467
pur	-10.6468
▁representation	-10.6484
▁holder	-10.6491
▁colorful	-10.6494
lot	-10.6495
▁layout	-10.6496
▁informed	-10.6498
posing	-10.6499
▁actress	-10.6504
▁telling	-10.6505
▁autumn	-10.6506
ching	-10.6507
▁delight	-10.651
▁emotions	-10.6511
▁applicable	-10.6512
akh	-10.6512
html	-10.6515
▁disappoint	-10.652
▁muscles	-10.6522
у	-10.6523
▁opponent	-10.6523
д	-10.6529
▁casual	-10.6535
▁transmit	-10.6542
uz	-10.6542
▁politics	-10.6543
▁ultimately	-10.6549
▁meanwhile	-10.6549
▁depression	-10.6552
▁diagnostic	-10.6556
itch	-10.6557
elli	-10.6561
▁trends	-10.6562
drive	-10.6563
scope	-10.6566
▁protective	-10.6566
▁filling	-10.6566
▁solo	-10.6569
phen	-10.6571
▁cotton	-10.6578
▁broke	-10.6584
!!	-10.6584
▁twitter	-10.6585
▁ferr	-10.6586
phone	-10.6587
note	-10.6601
▁patent	-10.6602
▁wrap	-10.6611
▁dial	-10.6611
▁temporary	-10.6612
▁artificial	-10.6622
▁forecast	-10.6622
▁thr	-10.6624
▁notification	-10.6625
▁float	-10.6631
berry	-10.6633
kb	-10.6633
▁eli	-10.6634
п	-10.6636
▁console	-10.6642
rating	-10.6642
▁lifestyle	-10.6642
▁conventional	-10.6648
▁falling	-10.6653
known	-10.6654
▁wake	-10.6662
▁involves	-10.6668
▁afternoon	-10.6669
ball	-10.667
▁counsel	-10.6671
▁rapidly	-10.6672
▁trim	-10.6676
▁attorney	-10.6676
▁documentation	-10.6697
▁korea	-10.6706
style	-10.6708
duction	-10.6709
▁industries	-10.6712
tribu	-10.6714
agon	-10.6715
▁variables	-10.6715
▁largely	-10.6722
▁measuring	-10.6727
▁biological	-10.6729
▁nar	-10.673
▁lung	-10.6732
▁pray	-10.6736
▁identification	-10.6737
▁grave	-10.6739
▁logic	-10.6739
▁proved	-10.6743
▁bush	-10.6745
▁bolt	-10.6753
operative	-10.6754
rain	-10.6755
▁merc	-10.6765
▁whenever	-10.6771
fusion	-10.6775
▁diagram	-10.6777
▁neo	-10.6781
▁stronger	-10.6783
▁latin	-10.6784
▁guidelines	-10.6785
lc	-10.6787
▁jim	-10.6788
▁reset	-10.6794
▁calendar	-10.68
▁dishes	-10.6803
where	-10.6804
▁pulse	-10.6806
▁brazil	-10.6812
chen	-10.6813
▁olive	-10.6816
▁sho	-10.6823
ui	-10.6823
ctu	-10.6824
hin	-10.6824
▁approval	-10.6826
▁jet	-10.6827
▁privacy	-10.6832
emi	-10.6833
▁expectations	-10.6834
ika	-10.6838
▁sleeve	-10.684
▁sup	-10.684
nate	-10.6842
▁appointment	-10.6852
▁gradually	-10.686
▁injection	-10.686
uzz	-10.6863
▁sexy	-10.6863
▁copper	-10.6864
▁brick	-10.6865
▁deserve	-10.6868
bank	-10.6878
▁neighborhood	-10.6882
slav	-10.6895
▁stainless	-10.6899
body	-10.6901
▁lever	-10.6904
▁romantic	-10.6907
▁painted	-10.6909
▁prohibit	-10.6915
rank	-10.6916
ook	-10.6918
▁engage	-10.6929
▁moisture	-10.6929
iva	-10.693
▁citizen	-10.6939
▁connecting	-10.6939
▁interact	-10.6947
▁capabilities	-10.6947
▁kat	-10.695
cip	-10.6954
bound	-10.6954
▁admit	-10.6956
▁hr	-10.6958
▁listening	-10.6964
▁dropped	-10.6965
para	-10.6967
▁balcony	-10.6975
▁tw	-10.6978
▁const	-10.6978
▁destroyed	-10.6986
▁premier	-10.6988
bert	-10.699
▁managing	-10.6992
▁suspension	-10.6994
▁pulled	-10.7
▁excess	-10.7001
▁indoor	-10.7009
▁comic	-10.7011
▁fifth	-10.702
▁twist	-10.702
core	-10.7023
▁distributed	-10.7025
agin	-10.7025
▁manufacture	-10.7027
ously	-10.7028
▁tooth	-10.703
cover	-10.7032
▁shield	-10.7032
▁golf	-10.7032
vor	-10.7035
▁emphasize	-10.7036
▁retro	-10.704
▁statistical	-10.7042
▁vintage	-10.7048
▁drama	-10.7051
▁grid	-10.7053
▁transferred	-10.7053
▁meter	-10.7053
▁signature	-10.7054
making	-10.7056
▁matt	-10.7063
▁visa	-10.7065
▁acute	-10.7066
ogen	-10.7068
▁producing	-10.707
▁tiny	-10.7073
▁paying	-10.7074
▁decent	-10.7075
▁legend	-10.7076
▁outfit	-10.7077
▁outline	-10.7081
nz	-10.7083
▁oven	-10.7091
▁iv	-10.7092
▁consume	-10.7096
▁instruction	-10.7099
▁sav	-10.7104
▁armed	-10.7104
▁disturb	-10.7115
▁accounting	-10.7116
▁dun	-10.7121
dding	-10.7122
mobil	-10.7124
▁optical	-10.7148
une	-10.7159
▁hiv	-10.7162
▁youtube	-10.7163
▁outlet	-10.7163
rio	-10.7166
▁loading	-10.7175
grav	-10.718
▁reception	-10.7181
▁requirement	-10.7182
▁featuring	-10.7183
▁dealing	-10.7186
▁airline	-10.7192
▁cylinder	-10.7193
▁wifi	-10.7197
▁convince	-10.7199
▁stroke	-10.7201
wall	-10.7202
▁optional	-10.7203
▁illegal	-10.7203
▁compete	-10.7205
▁nervous	-10.7209
▁losses	-10.7215
▁abandon	-10.722
▁jewish	-10.7222
▁pregnant	-10.7224
▁mutual	-10.7225
▁trained	-10.7225
▁intense	-10.7231
called	-10.7235
▁instagram	-10.7238
▁guidance	-10.7242
▁supplied	-10.7244
▁incredible	-10.7255
▁institution	-10.7256
▁toxic	-10.7257
▁joke	-10.7258
▁utilize	-10.7259
▁oct	-10.726
mov	-10.7262
▁desert	-10.7265
▁damaged	-10.7266
plication	-10.7268
▁fed	-10.7271
▁buck	-10.7275
▁cave	-10.728
▁monster	-10.7286
▁glu	-10.7295
▁psycho	-10.7298
▁uncle	-10.7298
▁accessible	-10.7305
▁functionality	-10.7306
▁administrator	-10.7309
nan	-10.7311
▁vacuum	-10.7311
▁passage	-10.7311
condition	-10.7312
▁colour	-10.7313
▁printed	-10.7316
▁tune	-10.7322
round	-10.7323
function	-10.7327
▁tired	-10.7328
▁sphere	-10.7331
chrom	-10.7332
▁cinema	-10.7332
▁monument	-10.7336
▁decade	-10.7336
gui	-10.7338
▁font	-10.7339
▁texas	-10.7346
▁rome	-10.735
▁stomach	-10.735
▁maintained	-10.7351
stimul	-10.7352
▁dispute	-10.7355
▁supreme	-10.7359
▁nerve	-10.7379
▁physician	-10.7382
▁olympic	-10.7386
▁phrase	-10.7386
▁philosophy	-10.7394
▁flame	-10.7397
▁troops	-10.7401
▁charging	-10.7413
▁perceive	-10.7417
▁entering	-10.7418
▁rarely	-10.7419
▁seller	-10.7421
open	-10.7423
▁collaboration	-10.7424
▁applies	-10.7429
▁:)	-10.7432
elle	-10.7434
▁cock	-10.7438
▁separately	-10.7439
▁collective	-10.7439
▁sd	-10.7444
▁necessarily	-10.7445
▁perception	-10.7448
▁barb	-10.745
who	-10.745
▁rip	-10.7451
▁granted	-10.7452
▁bid	-10.7457
▁regulate	-10.7457
▁myth	-10.7462
ground	-10.7464
▁mexico	-10.7472
turn	-10.7473
▁mut	-10.7475
▁sponsor	-10.7478
▁washing	-10.7484
▁submitted	-10.749
▁ltd	-10.7497
train	-10.7499
▁dependent	-10.75
▁bible	-10.7503
▁ultimate	-10.7503
lb	-10.7506
oxid	-10.7507
▁embodiment	-10.7508
▁modification	-10.7525
▁pace	-10.7525
▁harvest	-10.7525
▁psychological	-10.7525
▁gang	-10.7528
▁pepper	-10.7529
▁blo	-10.7534
▁demonstrated	-10.7535
▁sending	-10.7541
git	-10.7547
gram	-10.7551
▁deputy	-10.7553
▁outstanding	-10.7553
▁affordable	-10.7555
▁declared	-10.7558
▁kir	-10.7559
tail	-10.7563
via	-10.757
▁chose	-10.7593
▁immune	-10.7593
▁wage	-10.7594
▁intensity	-10.76
▁diverse	-10.7601
▁reflection	-10.7601
▁diploma	-10.7602
▁span	-10.7603
vir	-10.7608
▁satisfied	-10.7617
▁technological	-10.7617
conf	-10.7619
▁healing	-10.7627
wick	-10.7629
▁ash	-10.7629
▁historic	-10.7634
▁catalog	-10.7635
▁adapter	-10.7646
▁zh	-10.7649
▁rough	-10.7653
▁claimed	-10.7656
▁flour	-10.7656
▁reliability	-10.766
▁kha	-10.767
data	-10.7672
▁upload	-10.7673
▁detected	-10.7674
escent	-10.7675
▁electron	-10.7676
▁radical	-10.768
▁optimize	-10.7681
lux	-10.7683
uous	-10.7684
▁inspiration	-10.7686
▁covering	-10.7693
▁bang	-10.7694
▁survival	-10.7696
▁bon	-10.7698
▁sword	-10.7704
▁missed	-10.7705
▁acquired	-10.7706
▁stain	-10.7708
far	-10.7709
▁crucial	-10.771
▁governor	-10.7715
config	-10.7716
▁demo	-10.7718
▁intellectual	-10.7718
▁adopt	-10.7726
▁dig	-10.7734
×	-10.7735
▁silent	-10.7736
▁fragment	-10.7738
▁spare	-10.7738
centr	-10.7739
▁seeking	-10.774
▁mild	-10.7744
▁bot	-10.7745
▁specialized	-10.7747
▁visiting	-10.7749
▁journalist	-10.7751
ö	-10.7755
▁burning	-10.7756
▁invited	-10.7765
▁toys	-10.7765
▁modified	-10.7771
▁henry	-10.7775
▁subscribe	-10.7776
▁dozen	-10.7781
▁frequent	-10.7786
▁cli	-10.7786
▁scheduled	-10.7788
▁abroad	-10.7802
▁applicant	-10.7805
▁lucky	-10.7806
▁fox	-10.7808
▁celebration	-10.7809
()	-10.781
▁sketch	-10.7812
spire	-10.7819
▁greatly	-10.782
charge	-10.7826
▁enabled	-10.7829
▁dash	-10.7831
▁picked	-10.7833
front	-10.7835
nik	-10.7835
struc	-10.7838
step	-10.7843
▁difficulty	-10.785
▁driven	-10.7851
▁joseph	-10.7851
▁afford	-10.7853
▁effectiveness	-10.786
asse	-10.7861
▁scratch	-10.7862
▁rescue	-10.7864
▁applying	-10.7872
▁appointed	-10.7873
▁injuries	-10.7873
▁considerable	-10.7877
▁tale	-10.7883
▁hack	-10.7896
▁preparing	-10.7906
▁boxes	-10.7908
▁phenomenon	-10.7908
▁pod	-10.791
▁enemies	-10.791
▁anxiety	-10.7913
▁reputation	-10.7913
▁aimed	-10.7918
▁rotation	-10.7924
▁matrix	-10.7926
▁monthly	-10.7929
▁advisor	-10.793
connect	-10.7937
▁bend	-10.7939
▁hub	-10.794
▁killing	-10.7941
▁portfolio	-10.7941
▁literally	-10.7941
▁metro	-10.7946
▁democratic	-10.7947
▁generator	-10.795
▁spacious	-10.7955
max	-10.7958
each	-10.796
▁polar	-10.7962
▁endo	-10.7963
▁pose	-10.7965
▁moderate	-10.7969
▁binding	-10.7971
cellular	-10.7972
▁consciousness	-10.7975
▁pier	-10.7983
shaped	-10.7985
▁arrested	-10.7986
lysis	-10.799
▁distinct	-10.7991
▁lean	-10.7998
▁syndrome	-10.7999
▁dialogue	-10.8
▁poster	-10.8003
▁shore	-10.8003
▁proven	-10.8004
▁digest	-10.8006
roid	-10.801
kha	-10.8012
▁debut	-10.8013
▁tub	-10.8015
▁attended	-10.8018
road	-10.8023
▁grip	-10.8026
▁lion	-10.8031
▁yoga	-10.8033
▁variant	-10.8035
▁convey	-10.8037
▁equally	-10.8038
▁britain	-10.8039
▁sul	-10.8041
▁archive	-10.8051
▁confident	-10.8055
▁alleged	-10.8064
▁relate	-10.8065
▁hazard	-10.8066
▁spectrum	-10.8073
▁refresh	-10.8073
▁rising	-10.8078
▁summary	-10.8086
▁trap	-10.8087
▁municipal	-10.8091
▁independence	-10.8098
▁makeup	-10.8098
▁dealer	-10.8102
▁entrepreneur	-10.8105
odor	-10.8107
▁branches	-10.8111
rest	-10.8113
▁swim	-10.8115
var	-10.8115
izer	-10.8117
▁ceo	-10.812
cam	-10.8131
care	-10.8131
▁rack	-10.8132
▁ruin	-10.8133
▁associate	-10.8133
▁jar	-10.8134
▁acknowledge	-10.8136
▁alert	-10.8137
▁priest	-10.814
▁mounted	-10.8144
▁customize	-10.8148
will	-10.8151
▁canadian	-10.8152
▁genuine	-10.8154
▁agriculture	-10.8161
▁bulk	-10.8161
±	-10.8165
▁kil	-10.8166
▁taxes	-10.8166
group	-10.8169
hour	-10.817
▁tender	-10.8176
exe	-10.8177
tell	-10.818
kan	-10.819
▁gained	-10.819
▁heritage	-10.8197
tone	-10.8202
▁actively	-10.8202
▁compatible	-10.8203
▁watched	-10.8208
▁resume	-10.821
▁receiver	-10.8218
▁addict	-10.8219
▁complement	-10.8236
▁fighter	-10.8238
▁hybrid	-10.8243
▁cafe	-10.8247
▁mah	-10.8253
▁asset	-10.8255
▁axis	-10.8256
▁sustain	-10.8257
▁employed	-10.8263
▁accompanied	-10.8263
▁pole	-10.8264
iev	-10.8267
▁joe	-10.8277
▁jewelry	-10.8289
▁founder	-10.8289
worthy	-10.8297
▁cab	-10.83
▁complain	-10.8302
▁disaster	-10.8302
▁entity	-10.8308
▁chris	-10.8309
▁knife	-10.8311
▁essentially	-10.8315
kon	-10.8319
ception	-10.8328
▁catholic	-10.8337
leg	-10.8337
▁qualified	-10.8341
▁eco	-10.8342
▁maintaining	-10.8343
▁similarly	-10.8344
▁matches	-10.8345
▁theoretical	-10.8348
▁cloth	-10.8352
stock	-10.8354
▁residential	-10.8361
guard	-10.8361
▁conditioning	-10.8372
▁crush	-10.8377
range	-10.8378
▁mining	-10.8379
jun	-10.8379
▁depict	-10.8379
mph	-10.8384
▁fitting	-10.8391
▁overcome	-10.8391
▁authentic	-10.8393
|	-10.8395
optim	-10.8397
▁ensuring	-10.8401
▁ceremony	-10.8404
▁equi	-10.8404
ister	-10.8406
▁shu	-10.8406
г	-10.8411
▁assumption	-10.8411
aire	-10.8412
▁acquisition	-10.8413
▁engagement	-10.8416
▁shaft	-10.843
▁productivity	-10.8443
▁completion	-10.8443
eller	-10.8444
▁−	-10.8445
mount	-10.8445
▁appliance	-10.845
▁worship	-10.8457
▁korean	-10.846
▁ongoing	-10.846
case	-10.8462
▁centuries	-10.8464
▁borrow	-10.847
▁chicago	-10.8473
▁suffered	-10.8477
▁constructed	-10.8479
▁decreased	-10.8482
▁refine	-10.8482
ould	-10.8484
▁simultaneously	-10.8485
eff	-10.849
▁indication	-10.8491
▁santa	-10.8491
▁navigation	-10.8497
▁ethnic	-10.8497
▁lev	-10.8507
▁australian	-10.851
▁fleet	-10.8511
▁samsung	-10.8516
aver	-10.8516
▁terrible	-10.8518
▁daniel	-10.8521
▁mounting	-10.8524
▁discipline	-10.8544
▁homo	-10.8544
miss	-10.8545
▁poland	-10.8548
fire	-10.8551
▁gil	-10.8552
iii	-10.8556
▁memories	-10.8558
sensi	-10.8558
▁compensation	-10.856
▁dollar	-10.8562
▁medal	-10.8571
▁destruction	-10.8572
▁cargo	-10.8574
▁campus	-10.8577
▁consent	-10.8581
▁mile	-10.8582
α	-10.8584
▁slice	-10.8585
▁greet	-10.8587
ambi	-10.8588
▁kur	-10.8591
▁franc	-10.8596
▁plasma	-10.8598
▁anniversary	-10.86
▁closing	-10.8604
▁junior	-10.861
▁pixel	-10.8614
▁johnson	-10.8615
▁excessive	-10.8616
▁undergo	-10.8617
▁hug	-10.8619
▁db	-10.8624
▁featured	-10.8628
▁lac	-10.8628
▁gonna	-10.8631
▁difficulties	-10.8634
▁inhibit	-10.8638
mag	-10.8645
▁removing	-10.865
▁calculate	-10.8652
ogram	-10.8652
order	-10.8657
▁classical	-10.8657
▁hardly	-10.8663
ifier	-10.8666
▁aggressive	-10.8671
▁somehow	-10.8674
▁stuck	-10.8679
{/	-10.8681
lv	-10.8685
▁amazon	-10.8691
▁dresses	-10.8694
▁syria	-10.8707
▁slo	-10.8715
posit	-10.8716
▁awarded	-10.8716
solv	-10.8721
file	-10.8732
▁pursue	-10.8732
▁purple	-10.8736
▁serial	-10.8737
▁nest	-10.8741
▁constitute	-10.8743
▁diagnose	-10.8746
▁poison	-10.875
▁hydrogen	-10.8751
▁hormone	-10.8753
▁utility	-10.876
▁motivation	-10.8765
▁needle	-10.8766
▁tomato	-10.877
▁lecture	-10.8772
specific	-10.878
▁stereo	-10.878
rink	-10.878
commerce	-10.8784
▁highway	-10.8788
▁shit	-10.8803
▁stylish	-10.8806
crypt	-10.8814
gest	-10.8816
wide	-10.8817
▁cruise	-10.882
▁organism	-10.8827
fill	-10.883
▁florida	-10.883
write	-10.8832
▁lemon	-10.8832
▁bluetooth	-10.8835
▁ker	-10.8839
▁potentially	-10.8842
▁casino	-10.8844
▁dvd	-10.8847
▁earned	-10.885
▁bullet	-10.8854
▁glasses	-10.8856
▁irre	-10.8862
▁competitor	-10.8864
boy	-10.8865
hara	-10.8866
▁consultation	-10.8867
▁challenging	-10.8878
rang	-10.8888
▁mun	-10.8892
▁suck	-10.8897
▁remark	-10.8897
▁diabetes	-10.8903
▁grill	-10.8904
▁demon	-10.8905
▁racing	-10.8909
▁identical	-10.891
psych	-10.8915
itz	-10.8925
▁satisfy	-10.8927
▁poverty	-10.893
▁elastic	-10.8932
ovo	-10.8933
▁batteries	-10.8934
ounce	-10.8936
▁durable	-10.8939
▁admitted	-10.894
blo	-10.8942
ancing	-10.8944
▁foam	-10.8944
▁derived	-10.8957
▁govern	-10.8958
cell	-10.8962
▁kri	-10.8966
shot	-10.8967
▁enforcement	-10.8969
zen	-10.8971
occu	-10.898
▁mice	-10.8982
▁migration	-10.8986
▁insect	-10.8986
▁silence	-10.8986
▁opera	-10.8987
including	-10.8987
▁hydraulic	-10.8988
▁commit	-10.8992
▁horn	-10.8996
▁exploit	-10.9001
world	-10.9007
izz	-10.9009
▁divine	-10.902
▁peer	-10.9027
▁venture	-10.903
▁commander	-10.9032
▁correction	-10.9034
▁smoking	-10.9035
▁strap	-10.9039
▁minimize	-10.9046
▁mike	-10.9046
tum	-10.9052
▁mature	-10.9056
shire	-10.9057
speed	-10.9057
▁determination	-10.9058
cie	-10.9058
mill	-10.9058
▁assumed	-10.9058
▁unlock	-10.906
itude	-10.9061
▁cad	-10.9066
�	-10.9067
shirt	-10.9068
▁bloom	-10.907
▁copies	-10.907
install	-10.907
cious	-10.9075
▁opposition	-10.9079
▁intelligent	-10.908
jan	-10.9081
▁exclude	-10.9085
▁activation	-10.9087
▁hunting	-10.9087
▁brew	-10.9089
▁gaming	-10.9091
▁arrest	-10.9094
▁rad	-10.9096
▁deploy	-10.9102
▁slight	-10.9106
weight	-10.911
▁flexibility	-10.9115
▁gay	-10.9117
▁jen	-10.9119
▁swing	-10.9121
▁enhanced	-10.9128
ovich	-10.9134
▁galaxy	-10.9135
▁essence	-10.9137
▁rational	-10.9138
pop	-10.9139
▁surrounded	-10.9143
▁jones	-10.9144
▁initiate	-10.915
unc	-10.9152
▁discovery	-10.9152
▁fraction	-10.9156
▁plea	-10.9163
encies	-10.9165
▁separated	-10.9166
dimensional	-10.9174
▁tract	-10.9175
flu	-10.9177
▁alien	-10.9178
▁invite	-10.9183
▁possibilities	-10.9187
▁sensitivity	-10.919
▁sought	-10.9191
▁organize	-10.9195
▁merely	-10.9197
▁manually	-10.9201
▁oak	-10.9202
▁alloy	-10.9204
▁pine	-10.9205
▁refused	-10.9212
▁deeply	-10.9212
▁plum	-10.9212
▁passes	-10.9214
▁lane	-10.9216
▁dub	-10.9218
▁iraq	-10.9222
▁simulation	-10.9223
▁fate	-10.9226
course	-10.9229
▁princess	-10.9232
▁sel	-10.924
▁steering	-10.924
▁dialog	-10.9244
stick	-10.9245
▁composed	-10.9246
▁restrictions	-10.925
▁occupation	-10.9252
▁modify	-10.9253
▁sleeping	-10.9256
▁fiction	-10.9256
▁brilliant	-10.9258
▁animation	-10.9258
▁attach	-10.9265
plo	-10.9265
▁expertise	-10.9266
ifies	-10.927
▁venue	-10.9272
then	-10.9275
▁knight	-10.9282
▁suppress	-10.9286
▁exceptional	-10.9297
▁stamp	-10.9302
▁poet	-10.9311
▁involving	-10.9313
▁collapse	-10.9314
error	-10.9319
▁wolf	-10.9325
▁surf	-10.9327
▁manifest	-10.9329
→	-10.9339
▁fitted	-10.934
▁poem	-10.9344
▁musician	-10.9346
▁bubble	-10.9354
▁angeles	-10.9368
▁lying	-10.9368
▁gross	-10.9375
μ	-10.9377
▁jews	-10.9378
▁reply	-10.9385
▁classification	-10.9385
▁mol	-10.9385
▁diversity	-10.9387
▁egypt	-10.9388
▁unexpected	-10.939
▁sticker	-10.9391
▁beneficial	-10.9395
▁descend	-10.9395
▁assignment	-10.9395
▁negotiation	-10.9397
▁edward	-10.9406
▁ceramic	-10.9415
▁furnish	-10.9415
▁tang	-10.9437
▁expanded	-10.9438
▁thor	-10.9441
▁warranty	-10.9442
▁hunt	-10.9445
holder	-10.9448
gam	-10.9453
quin	-10.9453
▁cum	-10.9455
▁relay	-10.9456
system	-10.9458
▁stake	-10.9461
▁abilities	-10.9462
▁treasure	-10.9467
▁genre	-10.9467
▁riding	-10.9474
▁praise	-10.9475
friendly	-10.9479
▁turkish	-10.948
▁authorized	-10.9482
▁fool	-10.9483
▁coronavirus	-10.9488
▁blu	-10.9492
▁incredibly	-10.9493
▁verify	-10.9493
▁silk	-10.9499
▁cosmetic	-10.95
▁analyzed	-10.9501
sync	-10.9511
▁java	-10.9515
▁sink	-10.9516
▁interrupt	-10.9516
▁bureau	-10.9516
▁blank	-10.9525
▁dental	-10.9527
▁wil	-10.9528
▁pakistan	-10.9529
▁petersburg	-10.9529
▁ghost	-10.9532
away	-10.9534
▁faculty	-10.9537
▁petro	-10.9542
▁farmers	-10.9546
·	-10.955
▁pale	-10.9556
▁enzyme	-10.9557
▁bump	-10.9565
▁stupid	-10.9565
▁angry	-10.9569
▁dried	-10.9577
▁alliance	-10.9584
general	-10.9584
grade	-10.959
fish	-10.9592
▁friendship	-10.9594
▁mall	-10.9596
▁maria	-10.9597
lau	-10.9607
▁diesel	-10.9608
▁surgical	-10.9612
▁portal	-10.9617
▁liberal	-10.9621
▁clay	-10.9623
í	-10.9628
▁salad	-10.963
▁lowest	-10.9635
▁steal	-10.9636
induced	-10.9636
bble	-10.9638
▁banner	-10.9639
skaya	-10.9644
hole	-10.9648
▁navy	-10.9652
▁socio	-10.9657
▁suspend	-10.966
▁feeding	-10.967
▁precisely	-10.9672
▁continuing	-10.9672
▁captured	-10.9672
▁tray	-10.9675
▁examined	-10.9675
▁satisfaction	-10.9675
▁breathing	-10.9677
▁mega	-10.968
▁certification	-10.9686
▁magnet	-10.9686
▁cabin	-10.9688
▁shake	-10.9688
▁cuisine	-10.9694
▁blame	-10.9697
▁addresses	-10.9698
▁seamless	-10.9699
▁aroma	-10.9699
▁ownership	-10.9702
▁evident	-10.9707
▁possession	-10.972
▁darkness	-10.9728
▁andrew	-10.9743
▁entitled	-10.9744
▁hello	-10.9746
▁grind	-10.9746
foot	-10.9747
▁kiev	-10.9751
▁duties	-10.9758
▁roller	-10.9763
▁maker	-10.9766
▁healthcare	-10.9768
wit	-10.9773
▁marker	-10.9777
fix	-10.9778
▁prim	-10.9782
▁warrior	-10.9784
▁compile	-10.9785
▁bake	-10.9787
▁pride	-10.9791
▁threshold	-10.9792
raz	-10.9793
▁evolve	-10.9797
publish	-10.9799
▁sofa	-10.9803
▁sap	-10.9804
through	-10.9809
▁administer	-10.981
▁marsh	-10.9811
▁assault	-10.9813
▁assemble	-10.9816
▁decorative	-10.9818
▁lend	-10.9822
good	-10.9822
look	-10.9825
▁dimension	-10.983
▁vibration	-10.9837
▁aesthetic	-10.984
▁rust	-10.9843
▁weakness	-10.9846
▁activate	-10.9853
▁rival	-10.9854
yev	-10.9857
▁operated	-10.9859
quir	-10.9865
▁cookies	-10.9866
▁tongue	-10.9871
▁separation	-10.9872
oriented	-10.9872
▁peaceful	-10.9874
▁significance	-10.9877
▁stunning	-10.9877
▁chill	-10.9878
▁math	-10.988
▁adverse	-10.9888
▁hunter	-10.9891
▁veteran	-10.9899
▁agenda	-10.9899
▁lifetime	-10.99
▁jr	-10.9905
▁barrel	-10.9914
fore	-10.9915
▁universities	-10.9915
▁ireland	-10.9916
▁jackson	-10.9926
▁receptor	-10.9931
game	-10.9934
▁membership	-10.9935
ometer	-10.9936
▁pie	-10.9953
▁fisher	-10.9955
▁tries	-10.9958
▁deeper	-10.996
▁elite	-10.9962
▁jeff	-10.9962
▁sodium	-10.9964
▁motorcycle	-10.9967
▁employ	-10.9967
master	-10.9969
ocyte	-10.997
kel	-10.9971
▁insist	-10.9972
▁declaration	-10.9972
▁statue	-10.9975
▁arranged	-10.9977
▁orientation	-10.9977
▁vendor	-10.998
bury	-10.9981
▁accused	-10.9998
inflammatory	-11.0005
▁puzzle	-11.0005
change	-11.0007
▁injured	-11.0007
▁subsequently	-11.0013
metry	-11.0013
▁lag	-11.0015
▁respective	-11.0015
ceiv	-11.0015
▁precise	-11.0016
▁disadvantage	-11.0021
«	-11.0021
▁alongside	-11.0027
▁realistic	-11.003
lute	-11.0031
▁scrap	-11.0035
▁regulatory	-11.0038
▁consequently	-11.0043
▁involvement	-11.0044
▁garage	-11.0044
▁hanging	-11.0045
▁decorated	-11.0045
▁concluded	-11.0049
▁squad	-11.0058
▁entities	-11.006
▁armenia	-11.0062
▁disconnect	-11.0062
▁chrome	-11.007
***	-11.0078
▁vocal	-11.0083
prov	-11.0086
building	-11.0088
phon	-11.0088
▁architect	-11.0093
▁overview	-11.0095
▁dancing	-11.0096
▁correlation	-11.0098
▁calcium	-11.0106
▁refuse	-11.0109
▁popularity	-11.0112
click	-11.0113
▁conform	-11.0115
agger	-11.0116
▁towel	-11.0116
▁trait	-11.0124
▁bold	-11.0129
▁classroom	-11.0129
▁prominent	-11.0133
▁sig	-11.0136
▁heavily	-11.0136
▁bunch	-11.0139
▁acceptable	-11.014
ffle	-11.0141
unit	-11.0147
▁linux	-11.0147
▁loving	-11.0147
▁worn	-11.0153
▁settle	-11.0158
ā	-11.0158
▁obstacle	-11.0158
▁kidney	-11.0162
▁disrupt	-11.0166
▁partial	-11.0167
▁probe	-11.0168
▁divorce	-11.0169
quot	-11.0169
▁flip	-11.0173
▁implant	-11.0178
▁avenue	-11.0186
▁thoroughly	-11.0191
▁dirt	-11.0191
▁hay	-11.0193
current	-11.0194
▁contrary	-11.0197
▁offense	-11.0198
▁cyto	-11.0199
▁fake	-11.0201
▁scream	-11.0208
▁wisdom	-11.0214
▁burden	-11.0214
▁workout	-11.0218
▁basketball	-11.0219
methyl	-11.0227
▁trailer	-11.0231
▁slope	-11.0231
▁scatter	-11.0231
▁involve	-11.0237
▁stadium	-11.0239
▁elected	-11.024
▁activated	-11.024
integra	-11.024
▁brun	-11.024
▁anime	-11.0247
▁upcoming	-11.0248
▁coil	-11.025
▁glow	-11.0251
▁qualities	-11.0255
▁gru	-11.0256
▁privilege	-11.0258
▁settled	-11.0261
▁certified	-11.0264
▁soap	-11.0276
heat	-11.0281
▁austria	-11.0283
▁scroll	-11.0288
national	-11.0292
▁pacific	-11.0295
burn	-11.0298
cient	-11.0298
▁mul	-11.0306
design	-11.0312
abil	-11.0315
▁missile	-11.0315
clar	-11.0317
▁incorrect	-11.0317
▁reaches	-11.0325
▁kaz	-11.0328
▁attachment	-11.0329
▁essay	-11.0331
▁profession	-11.0332
▁immuno	-11.0334
about	-11.0337
▁creator	-11.0339
▁determining	-11.0342
▁weird	-11.0345
▁dismiss	-11.0351
▁pension	-11.0351
▁digit	-11.0352
▁fortunate	-11.0353
▁pipeline	-11.0354
▁elizabeth	-11.0385
▁underlying	-11.0388
▁lymph	-11.0391
store	-11.0391
▁carpet	-11.0391
▁fantasy	-11.0393
▁buffer	-11.0393
▁physics	-11.0396
text	-11.0396
▁quad	-11.04
▁tunnel	-11.0404
▁placing	-11.0405
generation	-11.0405
▁assert	-11.0408
nova	-11.0411
▁adv	-11.0412
▁precision	-11.0416
▁analyst	-11.0416
plus	-11.0425
▁horror	-11.0427
▁integrity	-11.043
▁victoria	-11.0434
▁merge	-11.0439
self	-11.044
▁dating	-11.0442
▁stimulate	-11.0443
▁accu	-11.0447
▁suppose	-11.0449
▁overlook	-11.0453
▁executed	-11.0453
▁pun	-11.0455
▁hoping	-11.0455
▁probability	-11.0455
pher	-11.0458
▁memorial	-11.0458
▁esc	-11.0474
▁tribe	-11.0477
 	-11.0484
▁wipe	-11.0485
▁typ	-11.0486
▁fro	-11.0487
▁molecular	-11.0496
▁query	-11.0496
photo	-11.0499
▁worried	-11.0501
▁painful	-11.0512
carbon	-11.0515
▁punch	-11.0522
▁acquire	-11.0523
▁pants	-11.0525
▁contractor	-11.0525
▁excel	-11.0529
found	-11.053
▁hint	-11.0539
▁sacrifice	-11.0541
▁candle	-11.0542
▁republican	-11.0542
▁berlin	-11.0552
pillar	-11.0563
▁convenience	-11.0564
▁reservation	-11.0564
▁coefficient	-11.0566
▁behalf	-11.0567
▁financing	-11.0579
▁entertain	-11.0579
▁wishes	-11.0581
▁forgive	-11.0582
▁gently	-11.0592
▁czech	-11.0593
▁antenna	-11.0593
▁rug	-11.0595
▁pdf	-11.0598
▁dirty	-11.0598
▁lace	-11.06
▁victor	-11.0602
▁liability	-11.0602
▁resident	-11.0606
▁ladies	-11.0611
▁complexity	-11.0612
▁manufactured	-11.0615
▁circulation	-11.0616
▁hind	-11.0619
▁hose	-11.062
▁integral	-11.0622
▁blast	-11.0623
▁shoe	-11.0623
б	-11.0625
gio	-11.064
▁raising	-11.0651
▁raid	-11.0654
▁vladimir	-11.066
▁shine	-11.0663
▁mcc	-11.0666
▁zip	-11.0671
▁jail	-11.0675
▁taxi	-11.0676
▁admission	-11.0679
▁lease	-11.068
▁lav	-11.0683
▁explicit	-11.0683
school	-11.0686
▁rhythm	-11.0689
figure	-11.07
▁snack	-11.0702
▁thirty	-11.0703
▁fence	-11.0705
▁creativity	-11.0706
▁portable	-11.0706
▁grateful	-11.0712
▁rifle	-11.0712
▁tru	-11.0717
▁inventory	-11.0718
▁partition	-11.0718
▁adjustable	-11.0728
▁underground	-11.073
▁somebody	-11.0737
▁departure	-11.0744
▁interactive	-11.0746
▁cathedral	-11.075
▁inflammation	-11.075
▁emperor	-11.075
product	-11.0755
▁synthetic	-11.0756
▁molecules	-11.0768
▁dump	-11.0768
▁virtually	-11.0768
▁disabled	-11.0771
▁prophet	-11.0774
base	-11.0776
▁shelter	-11.0777
▁bias	-11.0777
bacter	-11.0789
▁progressive	-11.0792
dale	-11.0796
▁emphasis	-11.0806
β	-11.0809
▁kara	-11.0819
▁facial	-11.082
▁confront	-11.0823
▁wool	-11.0826
▁gig	-11.0833
▁pizza	-11.0836
▁gorgeous	-11.0838
ä	-11.0853
▁inherit	-11.0857
▁anchor	-11.0858
sphere	-11.0859
▁apparent	-11.0865
harmon	-11.0866
▁sudden	-11.0871
▁vietnam	-11.0874
▁artistic	-11.0876
▁packet	-11.0882
▁islamic	-11.0886
▁charter	-11.0895
▁violent	-11.0898
▁delegation	-11.0898
plat	-11.0903
▁skirt	-11.0903
▁bracket	-11.0904
vig	-11.0904
▁preferably	-11.0906
▁cease	-11.091
qual	-11.0913
▁bride	-11.0913
prop	-11.0919
frame	-11.0919
▁bai	-11.0919
▁curious	-11.092
▁router	-11.0921
▁recreation	-11.0922
▁regret	-11.0922
drop	-11.0928
▁jane	-11.093
▁rope	-11.0932
▁organizational	-11.0938
▁narrative	-11.094
▁thumb	-11.094
length	-11.0946
▁guilty	-11.0946
▁spar	-11.0948
▁hopefully	-11.0948
▁vegetable	-11.0948
▁triple	-11.0964
rose	-11.0974
▁devoted	-11.0979
▁horizon	-11.098
▁restoration	-11.0985
illus	-11.0985
▁lounge	-11.0995
▁llc	-11.0995
▁warehouse	-11.1
▁comb	-11.1
spec	-11.1001
▁amendment	-11.1012
▁maxim	-11.102
▁invitation	-11.1021
▁heroes	-11.1034
▁receipt	-11.1036
▁erect	-11.1039
▁enormous	-11.1042
▁jewel	-11.1042
▁tennis	-11.1042
‘	-11.1044
▁tutorial	-11.1045
▁humor	-11.1051
▁foster	-11.1053
▁singapore	-11.106
▁harmful	-11.1061
▁insulation	-11.1061
▁rig	-11.1067
▁copyright	-11.1071
▁lamb	-11.1083
▁knit	-11.1085
я	-11.1087
■	-11.1087
▁promoting	-11.1087
▁cau	-11.1087
▁amino	-11.1088
▁synthesis	-11.109
▁pathway	-11.1098
viv	-11.11
▁sensation	-11.1102
▁rocket	-11.1106
tree	-11.1115
▁seminar	-11.1116
▁roughly	-11.1118
▁flaw	-11.1118
white	-11.1121
▁armenian	-11.1126
▁antibiotic	-11.1127
▁suicide	-11.1127
therapy	-11.1129
▁photographer	-11.113
▁accommodate	-11.1133
hawk	-11.114
▁devil	-11.1145
▁pap	-11.1145
▁struck	-11.1146
eau	-11.1149
roy	-11.1155
corn	-11.1157
▁therapeutic	-11.1157
▁occasionally	-11.1158
▁refugee	-11.1163
▁lind	-11.1167
value	-11.1168
▁unlikely	-11.1169
▁thrill	-11.1171
▁oldest	-11.1171
▁piano	-11.1174
▁vaccine	-11.1175
▁hollywood	-11.1185
▁fraud	-11.1187
▁auction	-11.1191
▁companion	-11.1197
▁cult	-11.1212
▁coordination	-11.1215
▁substitute	-11.1215
month	-11.1219
▁intensive	-11.1224
▁announcement	-11.1227
▁socket	-11.1237
▁practically	-11.1244
▁relating	-11.1253
▁cheaper	-11.1255
volu	-11.1258
zel	-11.1261
▁exterior	-11.1261
▁varieties	-11.1265
▁dough	-11.1266
▁occupied	-11.1268
▁boast	-11.127
▁pond	-11.1272
▁chef	-11.1274
▁jersey	-11.1277
▁temper	-11.1277
▁accelerate	-11.128
▁startup	-11.128
▁prediction	-11.1296
▁pub	-11.1297
▁humanity	-11.1303
▁velocity	-11.1305
▁dick	-11.1313
▁boundary	-11.1316
▁vulnerable	-11.1317
▁robust	-11.1317
▁gps	-11.1318
proof	-11.132
▁greece	-11.132
▁spider	-11.1321
▁lightweight	-11.1321
▁adoption	-11.1322
sulf	-11.1328
▁embrace	-11.1333
▁curtain	-11.1334
▁bulb	-11.1336
▁slim	-11.1343
▁frozen	-11.1345
▁fame	-11.1346
▁equity	-11.1349
▁courage	-11.1355
▁disney	-11.1356
▁canvas	-11.1356
▁replied	-11.1367
▁echo	-11.1368
▁shame	-11.1369
▁marvel	-11.1369
▁begun	-11.1371
▁terrorist	-11.1373
▁imperial	-11.1383
▁firmware	-11.1391
▁proceedings	-11.1399
▁precious	-11.1402
▁dissolve	-11.141
green	-11.1413
valent	-11.1421
▁caution	-11.1421
▁adhere	-11.1427
▁neu	-11.1428
▁taylor	-11.1433
lift	-11.1433
▁steady	-11.1439
▁burst	-11.1441
▁rubles	-11.1443
▁compression	-11.1451
▁purchasing	-11.1455
▁conservative	-11.1461
▁sunset	-11.1464
▁tropical	-11.1471
▁motivate	-11.1472
▁defendant	-11.148
▁opposed	-11.1481
walk	-11.1485
▁pharmaceutical	-11.1486
▁corruption	-11.1486
track	-11.1492
ó	-11.1496
▁boundaries	-11.15
▁prosecutor	-11.1502
▁glance	-11.1503
▁subscription	-11.1505
▁alpha	-11.1511
▁explosion	-11.1511
worm	-11.1517
▁abnormal	-11.1525
▁hong	-11.1534
**	-11.1535
▁classified	-11.1538
▁bind	-11.1541
▁kilometers	-11.1549
▁fallen	-11.1552
▁refrigerator	-11.1553
▁democracy	-11.1556
▁restart	-11.1559
▁girlfriend	-11.1563
▁rumor	-11.1563
▁trunk	-11.1575
▁cyber	-11.1584
▁solvent	-11.1586
▁stitch	-11.1587
▁globe	-11.1591
▁ritual	-11.1594
▁subtle	-11.1599
strong	-11.1606
▁baking	-11.1607
▁ornament	-11.1608
▁damn	-11.161
▁transit	-11.161
▁sculpture	-11.162
chemical	-11.1638
▁wheat	-11.1643
▁emerging	-11.1645
▁cognitive	-11.1648
though	-11.1652
▁pill	-11.1652
▁absorption	-11.1655
▁relieve	-11.1659
▁advocate	-11.1661
▁boston	-11.1662
plex	-11.167
▁obama	-11.1674
▁dutch	-11.1675
▁complications	-11.1677
▁circum	-11.1681
▁cpu	-11.1683
▁infected	-11.1688
▁remarkable	-11.169
▁imagination	-11.1693
▁servant	-11.1695
▁coincide	-11.1697
▁elsewhere	-11.1698
▁compromise	-11.17
▁welding	-11.17
▁spice	-11.1705
▁shout	-11.1706
escence	-11.1708
▁intend	-11.1709
▁pricing	-11.171
▁barely	-11.1717
▁damp	-11.1719
▁downtown	-11.1723
▁dense	-11.1725
▁eternal	-11.1726
▁psychology	-11.1726
process	-11.1727
▁philip	-11.1735
▁glue	-11.1738
▁compress	-11.1742
▁machinery	-11.1743
▁clark	-11.1745
▁bitcoin	-11.1745
▁mole	-11.175
▁tighten	-11.1751
▁clipart	-11.1754
▁fasci	-11.1759
mission	-11.1772
▁salary	-11.1777
▁supervisor	-11.1781
benz	-11.1785
▁participating	-11.1791
▁passport	-11.1799
▁mystery	-11.1801
▁peel	-11.1802
▁accent	-11.181
▁educate	-11.1811
▁automated	-11.1813
▁bitter	-11.1814
▁snake	-11.1823
▁kong	-11.1824
▁specimen	-11.1826
subsid	-11.1834
source	-11.1845
▁lcd	-11.1849
▁owe	-11.1857
▁versus	-11.1858
▁throat	-11.1859
▁waist	-11.1861
▁robb	-11.1861
▁magical	-11.1866
▁login	-11.187
▁ecosystem	-11.1876
▁composite	-11.1882
▁accumulate	-11.1882
←	-11.1885
▁compartment	-11.1885
▁amateur	-11.1886
▁contradict	-11.1889
▁extraordinary	-11.1889
▁politician	-11.1889
▁glory	-11.1897
▁torque	-11.1898
▁vein	-11.19
▁consultant	-11.1901
why	-11.1909
▁recipient	-11.1912
▁spoil	-11.1915
▁adaptation	-11.1915
rock	-11.1917
▁cartridge	-11.1918
▁confused	-11.1922
▁electrode	-11.1924
▁uzbekistan	-11.1925
▁boiler	-11.1926
▁capability	-11.1926
▁whilst	-11.1938
▁irish	-11.1947
▁sneak	-11.1948
▁confirmation	-11.1949
▁tiger	-11.195
▁beverage	-11.1955
▁optimization	-11.1958
▁babies	-11.1961
▁fuse	-11.1965
▁anybody	-11.1968
genesis	-11.1969
▁floral	-11.1973
▁microphone	-11.1973
▁partially	-11.1973
▁grape	-11.1976
▁varied	-11.1977
▁basket	-11.1981
▁zealand	-11.1981
▁fought	-11.1986
▁delicate	-11.1988
▁fasten	-11.199
▁blonde	-11.1992
▁intermediate	-11.2004
▁pearl	-11.2008
▁khan	-11.201
udge	-11.2012
cele	-11.2014
▁twelve	-11.2014
▁dramatic	-11.2017
▁silhouette	-11.2034
▁zoom	-11.204
factor	-11.2048
▁fever	-11.2052
▁israeli	-11.2054
▁conclude	-11.2057
▁automation	-11.2068
▁ooo	-11.2072
▁frost	-11.2074
▁harbor	-11.2078
▁bicycle	-11.2081
▁criticism	-11.2082
▁rotate	-11.2085
dynamic	-11.2087
▁zoo	-11.2092
▁batch	-11.2094
home	-11.2099
▁execute	-11.2101
▁tailor	-11.2103
ovsky	-11.2104
clock	-11.2106
▁disagree	-11.2108
▁arrange	-11.2115
▁recommendation	-11.2118
responsibilities	-11.2125
watch	-11.2127
▁systematic	-11.2128
▁gland	-11.2132
▁cement	-11.2136
▁drew	-11.2137
▁helicopter	-11.2138
▁boom	-11.214
worth	-11.2147
▁mechanic	-11.2147
▁bulgaria	-11.2148
▁civilian	-11.2156
▁triangle	-11.2158
▁particle	-11.2167
▁substrate	-11.2172
▁conservation	-11.2172
▁distort	-11.2179
stru	-11.2188
sheet	-11.2191
market	-11.2196
▁cozy	-11.2196
▁pencil	-11.2206
▁controlling	-11.2206
▁exci	-11.2207
▁striking	-11.2213
trust	-11.2213
▁penalty	-11.2216
▁pollution	-11.2223
▁salon	-11.2226
▁headquarters	-11.223
▁varies	-11.2233
▁flesh	-11.2233
▁distract	-11.2241
▁latvia	-11.2247
▁tyr	-11.2249
scopic	-11.225
▁pile	-11.2253
▁lime	-11.2267
▁inhibitor	-11.2268
check	-11.227
▁cigarette	-11.227
▁stiff	-11.2271
▁respiratory	-11.2281
▁favorable	-11.2284
▁summit	-11.2287
▁freeze	-11.2287
▁rib	-11.229
▁permitted	-11.2292
▁preliminary	-11.2294
▁cache	-11.2296
▁sunlight	-11.2296
▁plugin	-11.2297
ogenic	-11.2298
▁denied	-11.2306
▁discrimination	-11.2308
▁witch	-11.2308
▁buried	-11.2312
toxic	-11.2318
augh	-11.232
▁mushroom	-11.2322
lou	-11.2324
▁clamp	-11.2329
▁tasty	-11.233
▁architectural	-11.2332
▁dye	-11.2336
▁forgotten	-11.2343
▁acceptance	-11.2349
black	-11.2356
▁spoken	-11.2362
▁securities	-11.2366
chair	-11.2373
virus	-11.2376
second	-11.2376
▁refund	-11.2377
▁dying	-11.2399
ь	-11.2404
▁replica	-11.2406
▁afterwards	-11.2407
▁sacred	-11.2408
vac	-11.2415
model	-11.2416
▁institutional	-11.2418
▁hammer	-11.2425
▁miracle	-11.2425
▁teenager	-11.2439
▁persist	-11.2447
▁qualification	-11.246
▁bleeding	-11.246
▁achieving	-11.2467
▁nitrogen	-11.2467
▁switzerland	-11.2467
▁gloss	-11.2468
▁funeral	-11.2474
▁virginia	-11.2476
▁adjacent	-11.2481
▁ventilation	-11.2481
▁dominant	-11.2481
▁sept	-11.2487
▁eligible	-11.2495
▁drove	-11.2496
▁hetero	-11.2502
▁smiling	-11.2505
impl	-11.2507
▁prescribed	-11.2509
▁detach	-11.2509
soft	-11.2519
▁eric	-11.2529
▁aviation	-11.2531
▁jordan	-11.2533
▁infinite	-11.2533
▁drunk	-11.2534
▁punishment	-11.2534
▁presidential	-11.2536
▁orchestra	-11.2537
▁pupil	-11.2537
▁outlook	-11.2542
▁tackle	-11.2547
▁transmitted	-11.2548
▁capsule	-11.2554
▁cocktail	-11.2555
▁kyrgyz	-11.2558
▁shelf	-11.2564
▁anticipate	-11.2565
▁bronze	-11.2565
▁baker	-11.2569
▁comedy	-11.2573
▁broker	-11.2574
▁harsh	-11.2579
▁warrant	-11.2587
boo	-11.2588
▁workplace	-11.2588
ы	-11.2589
▁inclusion	-11.259
patriot	-11.2592
▁ussr	-11.2598
▁merchant	-11.26
▁brave	-11.2606
▁disclose	-11.2607
▁scent	-11.2608
▁carries	-11.2609
▁mortgage	-11.2611
▁spatial	-11.2611
▁nigeria	-11.2611
▁considerably	-11.2614
▁athletic	-11.2614
▁confess	-11.2614
▁enthusiast	-11.2618
▁phenomena	-11.2621
▁sake	-11.2626
▁spectra	-11.263
pression	-11.263
▁stephen	-11.2633
▁solving	-11.2637
▁esp	-11.2643
▁gotten	-11.2644
▁submission	-11.2645
▁soldier	-11.265
▁affiliate	-11.2657
▁retirement	-11.2657
▁widespread	-11.2664
▁dawn	-11.2666
▁sweden	-11.2667
▁fade	-11.268
▁distinction	-11.2691
motiv	-11.2693
▁sophisticated	-11.2699
▁detector	-11.2701
▁replacing	-11.2703
▁dwell	-11.2703
▁nearest	-11.2706
▁residue	-11.271
▁governance	-11.2717
develop	-11.2726
▁tobacco	-11.2735
▁ribbon	-11.2735
▁duck	-11.2736
▁flex	-11.2741
wheel	-11.2742
▁fatigue	-11.2749
▁thailand	-11.2749
▁publishing	-11.2751
▁chase	-11.2752
▁microwave	-11.2757
version	-11.2762
▁constraint	-11.2764
▁occurrence	-11.2764
▁eagle	-11.2771
▁disposal	-11.2782
▁nowadays	-11.2789
▁catalyst	-11.2789
▁harris	-11.2789
▁organizer	-11.2794
▁scholarship	-11.2795
▁publisher	-11.2802
§	-11.2803
▁surgeon	-11.2803
▁incentive	-11.2803
economic	-11.2804
▁francisco	-11.2807
▁ryan	-11.2811
▁mysterious	-11.2814
▁cottage	-11.2821
▁gauge	-11.2829
▁glucose	-11.2836
▁petition	-11.2842
▁poetry	-11.2845
▁jurisdiction	-11.2857
▁ortho	-11.2859
▁clutch	-11.2861
▁squa	-11.2862
▁consequence	-11.2862
meric	-11.2864
▁portray	-11.2865
▁wallet	-11.2866
▁advertise	-11.2879
▁sunny	-11.2881
▁skull	-11.289
▁waterproof	-11.2896
▁premises	-11.2898
▁wildlife	-11.2906
}{	-11.2911
▁compressor	-11.2911
▁await	-11.2913
▁fracture	-11.2915
▁indicating	-11.2916
▁pioneer	-11.2919
▁soccer	-11.2919
▁isolation	-11.2921
▁donald	-11.2923
▁humidity	-11.2923
▁empower	-11.2926
й	-11.2926
▁aggregate	-11.2926
peptide	-11.2937
▁michel	-11.2939
▁beneath	-11.2945
▁urgent	-11.295
▁metabolism	-11.2956
corpora	-11.2957
▁compliment	-11.2959
▁turbo	-11.296
▁instructor	-11.296
profit	-11.296
........	-11.2961
while	-11.2962
▁deployment	-11.2967
natural	-11.2968
з	-11.297
▁participant	-11.2975
▁jacob	-11.2978
▁thunder	-11.2983
▁admire	-11.299
▁headache	-11.2996
▁dhgate	-11.3
▁promising	-11.3
▁mammal	-11.3
▁mentor	-11.3003
▁regulator	-11.3007
balance	-11.301
▁nursing	-11.3011
arbitr	-11.3014
vocation	-11.3018
▁vapor	-11.3018
▁expenditure	-11.3029
▁ambassador	-11.3055
▁bishop	-11.3059
▁naked	-11.3063
▁simon	-11.3064
▁transcript	-11.3066
▁fridge	-11.3068
▁tick	-11.3074
▁practitioner	-11.3081
▁sarah	-11.3081
▁imaging	-11.3085
ologies	-11.3085
▁trauma	-11.3088
▁tremendous	-11.3088
http	-11.3091
▁albert	-11.3093
▁emotion	-11.3098
▁gaze	-11.3103
▁civilization	-11.311
▁pillow	-11.3112
▁dependence	-11.3119
▁circular	-11.3125
▁overnight	-11.3125
first	-11.3127
▁retrieve	-11.3133
▁charity	-11.3133
▁legacy	-11.3138
borne	-11.3146
▁confusion	-11.3148
▁defensive	-11.3155
▁serum	-11.3161
complete	-11.3168
▁blessing	-11.317
▁orthodox	-11.3174
▁offensive	-11.3177
plasm	-11.3178
▁afghanistan	-11.3181
▁implications	-11.3181
▁rigid	-11.3182
people	-11.3191
▁oxide	-11.3192
▁wander	-11.3194
▁landmark	-11.3202
▁cheek	-11.3202
▁desperate	-11.3207
▁communist	-11.3216
government	-11.3217
▁lodge	-11.3218
▁apparatus	-11.323
▁unlimited	-11.3234
▁fortune	-11.3235
▁silicone	-11.3237
▁guardian	-11.3242
▁netherlands	-11.3252
crim	-11.3254
▁philippine	-11.3256
effective	-11.3263
▁artwork	-11.3269
▁balloon	-11.327
keeper	-11.3279
▁meaningful	-11.3285
▁tractor	-11.3304
trud	-11.3307
▁impressed	-11.3309
▁beginner	-11.3313
▁embedded	-11.3317
▁excuse	-11.3317
▁habitat	-11.332
▁mobility	-11.3321
▁tweet	-11.3332
▁spectacular	-11.3336
▁ranging	-11.3342
▁automobile	-11.3343
▁beloved	-11.3344
▁leisure	-11.3347
▁marble	-11.3348
science	-11.3349
▁demonstration	-11.3358
▁blur	-11.3364
▁punish	-11.3364
american	-11.3364
▁schema	-11.337
▁transplant	-11.3374
▁mandatory	-11.3377
▁mathematical	-11.3381
▁dessert	-11.3381
▁exploration	-11.3385
▁virgin	-11.3387
▁automotive	-11.3389
▁indonesia	-11.3389
vascular	-11.339
▁potatoes	-11.3394
▁pause	-11.3398
▁wilson	-11.3404
watt	-11.3412
sexual	-11.3414
▁mortality	-11.3416
▁resin	-11.3419
▁indigenous	-11.3427
▁clause	-11.3439
▁torture	-11.344
electric	-11.3447
▁corrosion	-11.345
▁tolerance	-11.3451
▁reservoir	-11.3454
▁gravity	-11.3454
▁annex	-11.3476
▁respondents	-11.3478
▁qualify	-11.3482
▁wizard	-11.3485
▁alternate	-11.3486
▁meditation	-11.3493
girl	-11.3498
▁insulin	-11.3501
▁verification	-11.3506
▁baseball	-11.3511
▁logistics	-11.3524
▁intent	-11.3524
▁resemble	-11.3527
▁throne	-11.3531
▁textile	-11.3542
▁announce	-11.3554
▁cuba	-11.3558
▁analytics	-11.3562
▁inflation	-11.3563
▁gospel	-11.3567
▁harmony	-11.3567
▁jazz	-11.3568
▁wanna	-11.3582
▁confidential	-11.3585
▁investigator	-11.3586
▁runner	-11.3594
▁distant	-11.3598
▁greg	-11.3602
▁extraction	-11.3604
▁enabling	-11.3613
▁lyrics	-11.3617
cogni	-11.362
▁earnings	-11.3622
▁quo	-11.3623
▁fifty	-11.3625
▁authentication	-11.3627
select	-11.363
▁acoustic	-11.3632
▁bundle	-11.3637
▁passionate	-11.3648
▁stairs	-11.3653
▁derivative	-11.3656
▁absent	-11.3657
▁halloween	-11.3675
▁formulation	-11.3682
▁supervision	-11.3682
▁preach	-11.3687
▁hypothesis	-11.3687
▁mutation	-11.3688
▁covid	-11.3693
▁hydra	-11.37
&#	-11.3706
build	-11.3714
▁swiss	-11.3732
▁helmet	-11.3735
▁potter	-11.3735
pharma	-11.3744
▁gdp	-11.3745
▁cube	-11.3746
▁calibration	-11.3754
▁conquer	-11.3755
▁additive	-11.377
▁wrist	-11.3771
▁bmw	-11.3782
▁welfare	-11.3798
▁mandate	-11.3799
▁unnecessary	-11.3802
▁literary	-11.3814
▁stabilize	-11.3822
▁marina	-11.3823
▁steep	-11.3835
▁lewis	-11.3838
▁enrich	-11.3839
▁franchise	-11.3842
▁accompany	-11.3846
▁davis	-11.3849
▁interference	-11.385
dependent	-11.3853
▁hatch	-11.3858
▁generous	-11.3863
evich	-11.3866
▁wiring	-11.3867
▁tendency	-11.3868
▁carolina	-11.387
▁swift	-11.3871
▁requiring	-11.3878
▁mediterranean	-11.3882
▁engaging	-11.3882
▁entries	-11.3886
▁peculiar	-11.3894
▁feather	-11.391
▁integrate	-11.3911
▁sauna	-11.3914
stead	-11.3924
▁adhesive	-11.3926
▁gesture	-11.3926
▁generic	-11.3929
▁elect	-11.393
▁flush	-11.3938
▁experiencing	-11.3946
▁michigan	-11.3946
▁overlap	-11.3949
▁terminate	-11.3956
▁prototype	-11.3962
consuming	-11.3964
▁fascinating	-11.3966
▁finland	-11.3971
▁geographical	-11.3975
▁boyfriend	-11.3975
▁thorough	-11.3976
▁consistency	-11.398
▁geometric	-11.3984
▁ohio	-11.3985
▁lithuania	-11.3987
▁rehabilitation	-11.4015
▁inhabitants	-11.4019
▁sampling	-11.4019
▁nutrients	-11.402
▁inherent	-11.4023
▁cheat	-11.4024
▁surveillance	-11.4027
▁legendary	-11.4028
▁manifestation	-11.4031
−	-11.4032
▁magnitude	-11.4039
▁trademark	-11.4043
▁distinctive	-11.4044
▁competent	-11.4054
▁durability	-11.406
▁necessity	-11.408
▁reconstruction	-11.4088
▁shareholders	-11.4089
physio	-11.4096
title	-11.4098
▁spouse	-11.4101
▁sweep	-11.4109
▁instruct	-11.411
▁immigrant	-11.4113
▁romance	-11.4115
▁garlic	-11.4119
▁transparency	-11.4121
▁advertisement	-11.4138
▁neglect	-11.4142
▁blessed	-11.4147
▁comparative	-11.4162
▁organizing	-11.4165
▁uncertainty	-11.4177
▁propose	-11.4185
▁eager	-11.4188
▁collar	-11.4191
▁enlarge	-11.4191
▁lobby	-11.4204
▁revolutionary	-11.4207
▁python	-11.4208
▁deviation	-11.4216
▁versatile	-11.422
▁dentist	-11.4221
▁pathogen	-11.4223
▁breach	-11.4224
▁amplifier	-11.4225
▁monkey	-11.4227
▁analytical	-11.4229
▁precede	-11.4231
▁radius	-11.4238
▁matthew	-11.4249
▁notebook	-11.4253
▁estonia	-11.4259
▁retreat	-11.4262
▁preview	-11.4269
▁scanner	-11.427
▁dumb	-11.4272
▁timber	-11.4275
▁sovereign	-11.4287
saturated	-11.4287
▁clue	-11.4291
▁medieval	-11.43
▁priorities	-11.4306
▁navigate	-11.4308
▁bracelet	-11.4312
▁exploring	-11.4316
▁judicial	-11.4325
▁declare	-11.4331
▁calories	-11.4333
▁completing	-11.4346
health	-11.4349
▁pretend	-11.4357
▁creep	-11.4358
▁desirable	-11.4362
▁stakeholders	-11.4371
▁pyr	-11.4376
▁asleep	-11.4379
▁referring	-11.4383
▁jerusalem	-11.4383
▁mexican	-11.4383
▁threw	-11.4385
▁fragrance	-11.4388
▁swallow	-11.4388
▁aliexpress	-11.4396
▁libraries	-11.4405
▁virtue	-11.4405
▁sandwich	-11.4405
▁historian	-11.4409
▁legislative	-11.4413
▁cliff	-11.4418
▁prevail	-11.4426
▁julia	-11.4427
▁spill	-11.4433
▁qualitative	-11.4434
▁cattle	-11.4451
▁atlantic	-11.4451
▁maximize	-11.4457
▁wardrobe	-11.4464
▁ethical	-11.4475
▁overwhelming	-11.4477
▁dairy	-11.4477
communication	-11.4477
▁bucket	-11.4478
▁drift	-11.4486
scribe	-11.449
▁faithful	-11.4492
▁elevator	-11.4502
▁gateway	-11.4506
▁norway	-11.4507
children	-11.4509
▁uncomfortable	-11.4511
▁locate	-11.4519
▁barcelona	-11.4519
▁magnificent	-11.4524
ethylene	-11.4524
▁intimate	-11.4532
▁tilt	-11.4534
▁comparing	-11.4537
▁quantities	-11.4542
▁closure	-11.4542
▁creek	-11.4543
▁doctrine	-11.4554
▁malaysia	-11.4554
▁queue	-11.4554
▁dubai	-11.4555
▁shark	-11.4558
▁egyptian	-11.4566
▁ecological	-11.4574
article	-11.4579
▁optimum	-11.4579
▁crisp	-11.4584
▁phosphor	-11.4592
▁airplane	-11.4601
▁radar	-11.4605
▁occurring	-11.4607
▁territories	-11.4614
▁moldova	-11.4633
structure	-11.4638
tropic	-11.4647
▁combining	-11.4653
▁scanning	-11.4661
▁antioxidant	-11.4661
▁theories	-11.467
▁violate	-11.4677
▁quant	-11.468
▁strand	-11.469
▁mathematics	-11.4692
▁quantum	-11.4703
▁implies	-11.4704
▁osteo	-11.4709
ennial	-11.471
▁legitimate	-11.4714
▁summarize	-11.4718
▁profound	-11.4723
categori	-11.4725
▁insufficient	-11.4735
mouth	-11.4736
construct	-11.4739
▁activist	-11.4741
▁counterpart	-11.4743
▁showcase	-11.4745
▁elephant	-11.4748
▁inquiry	-11.4758
▁poker	-11.4763
▁rinse	-11.477
▁readily	-11.4771
▁wrapped	-11.4777
▁excitement	-11.4779
create	-11.4783
▁nozzle	-11.4784
▁fond	-11.4794
punctu	-11.4796
▁blanket	-11.4797
glass	-11.4807
▁monastery	-11.4819
•	-11.4824
▁prescription	-11.4828
▁induce	-11.4831
▁audi	-11.4832
▁symptom	-11.4835
▁persistent	-11.4853
▁coconut	-11.4854
▁animated	-11.4854
▁perfume	-11.4859
▁computing	-11.4863
▁immigration	-11.4872
▁loyalty	-11.4879
▁thou	-11.488
▁humanitarian	-11.4881
▁fireplace	-11.489
▁elevated	-11.4894
▁innocent	-11.4894
▁comparable	-11.4898
▁patience	-11.4903
soluble	-11.4903
▁breakdown	-11.4919
▁geometry	-11.4921
▁cousin	-11.4926
▁grandmother	-11.4929
▁liberty	-11.493
▁patron	-11.4938
▁fifteen	-11.4938
▁composer	-11.4943
▁struggling	-11.4956
▁kevin	-11.4966
▁corona	-11.4981
defined	-11.4983
cultural	-11.4992
▁introducing	-11.501
▁peripheral	-11.501
▁invasion	-11.501
▁fertilizer	-11.5014
▁overseas	-11.5024
▁hindu	-11.5036
▁scotland	-11.5037
▁tariff	-11.5038
▁alignment	-11.5051
▁zinc	-11.5053
▁hairstyle	-11.5058
throp	-11.5064
▁earthquake	-11.5077
▁compassion	-11.5082
▁consensus	-11.5082
▁frequencies	-11.5082
▁buffet	-11.5082
blue	-11.5088
season	-11.5089
▁mercury	-11.5096
built	-11.5098
▁regiment	-11.5099
▁whisper	-11.5101
▁generating	-11.512
„	-11.5123
▁gradient	-11.5123
▁distill	-11.5123
▁stolen	-11.5126
▁survivor	-11.5127
▁binary	-11.5128
▁forgot	-11.5144
´	-11.5146
▁senate	-11.5146
▁monetary	-11.515
present	-11.5158
▁saudi	-11.517
▁corridor	-11.5173
µ	-11.5173
▁migrant	-11.5173
▁[...]	-11.5182
▁restrain	-11.5195
▁fibro	-11.5196
▁hollow	-11.52
▁scientist	-11.5212
▁luxurious	-11.5219
▁delhi	-11.5233
▁hockey	-11.5237
ovsk	-11.5239
ç	-11.5246
▁registry	-11.5251
▁shuttle	-11.5256
▁grandfather	-11.526
▁ethics	-11.526
▁assured	-11.5262
▁deliberate	-11.5265
▁threatened	-11.5267
на	-11.5268
filtration	-11.5269
▁secretariat	-11.5269
▁laundry	-11.5269
▁banana	-11.5274
▁interfere	-11.5277
▁loyal	-11.5281
▁crawl	-11.529
▁gulf	-11.5292
▁condemn	-11.5292
▁distributor	-11.5297
▁scripture	-11.5305
▁acceleration	-11.5315
▁dictionary	-11.532
▁democrat	-11.5328
▁nonetheless	-11.5329
▁contour	-11.533
▁terrain	-11.5331
patient	-11.5342
▁easiest	-11.5348
▁simplicity	-11.5348
▁clever	-11.5353
▁elaborate	-11.5366
è	-11.5371
▁anonymous	-11.5371
▁fiscal	-11.5381
oscopy	-11.5382
▁quantitative	-11.5385
ро	-11.5393
▁accumulation	-11.5399
protect	-11.54
▁valentine	-11.5404
▁mercedes	-11.5404
▁severity	-11.5408
▁brutal	-11.5418
▁dramatically	-11.542
▁chassis	-11.5423
▁compute	-11.5424
▁screenshot	-11.5425
▁yacht	-11.5427
▁swedish	-11.5436
▁pedal	-11.5444
▁conceal	-11.5446
▁silicon	-11.5451
δ	-11.5455
х	-11.5455
▁termination	-11.5457
▁abundance	-11.546
▁bachelor	-11.546
▁encouraging	-11.546
▁squeeze	-11.546
▁explosive	-11.5465
▁deficit	-11.5465
lapse	-11.5465
▁questionnaire	-11.5469
▁miami	-11.5473
▁headphones	-11.5474
immun	-11.5485
▁palette	-11.5486
▁compatibility	-11.5488
▁supermarket	-11.549
▁intuitive	-11.5493
▁collision	-11.5502
▁expedition	-11.5507
▁allocation	-11.5507
▁decay	-11.552
▁pirate	-11.5527
ñ	-11.5531
▁friction	-11.5534
▁affirm	-11.5535
▁temporarily	-11.5549
graduate	-11.5577
ст	-11.5589
▁toronto	-11.5605
▁reproduction	-11.5606
▁unnamed	-11.5611
▁potassium	-11.5616
▁delegate	-11.5616
▁spike	-11.5623
▁visibility	-11.5626
▁sliding	-11.563
▁suburb	-11.5632
▁undertaken	-11.564
▁distress	-11.564
▁illusion	-11.564
▁patrick	-11.5641
▁recess	-11.5647
▁pseudo	-11.5649
▁adolescent	-11.5654
▁grasp	-11.5655
▁ignition	-11.5659
▁cardiac	-11.5669
▁inspector	-11.5679
▁rainbow	-11.5683
keeping	-11.569
▁combustion	-11.5693
▁connectivity	-11.57
▁invisible	-11.5707
▁coupling	-11.5717
▁envelope	-11.5731
▁endorse	-11.5731
think	-11.5733
▁scoring	-11.574
ч	-11.5755
▁terrorism	-11.576
▁atmospheric	-11.5765
▁describing	-11.577
▁pronounced	-11.5784
▁computation	-11.5789
▁correlate	-11.5791
▁surround	-11.5791
▁technician	-11.5809
▁blockchain	-11.5809
▁paradise	-11.5814
▁turbine	-11.5818
▁deficiency	-11.5823
▁tokyo	-11.5824
▁kelly	-11.583
▁sustainability	-11.5835
і	-11.5848
▁zombie	-11.5857
▁deemed	-11.5858
▁hygiene	-11.5867
▁disclosure	-11.5872
▁organisation	-11.5872
▁societies	-11.5882
access	-11.5883
▁clarity	-11.5897
▁abdominal	-11.5911
▁pussy	-11.5911
▁pvc	-11.5917
▁vampire	-11.5921
▁residual	-11.5926
▁sydney	-11.5926
▁occupy	-11.5936
▁therapist	-11.5936
▁fixture	-11.5939
▁consecutive	-11.5941
▁negotiate	-11.5941
▁amenities	-11.5941
▁carriage	-11.5951
▁ancestor	-11.5956
▁assassin	-11.5961
▁ingredient	-11.5961
£	-12.1557
©	-13.223
