<unk>	0
<s>	0
</s>	0
<0x00>	0
<0x01>	0
<0x02>	0
<0x03>	0
<0x04>	0
<0x05>	0
<0x06>	0
<0x07>	0
<0x08>	0
<0x09>	0
<0x0A>	0
<0x0B>	0
<0x0C>	0
<0x0D>	0
<0x0E>	0
<0x0F>	0
<0x10>	0
<0x11>	0
<0x12>	0
<0x13>	0
<0x14>	0
<0x15>	0
<0x16>	0
<0x17>	0
<0x18>	0
<0x19>	0
<0x1A>	0
<0x1B>	0
<0x1C>	0
<0x1D>	0
<0x1E>	0
<0x1F>	0
<0x20>	0
<0x21>	0
<0x22>	0
<0x23>	0
<0x24>	0
<0x25>	0
<0x26>	0
<0x27>	0
<0x28>	0
<0x29>	0
<0x2A>	0
<0x2B>	0
<0x2C>	0
<0x2D>	0
<0x2E>	0
<0x2F>	0
<0x30>	0
<0x31>	0
<0x32>	0
<0x33>	0
<0x34>	0
<0x35>	0
<0x36>	0
<0x37>	0
<0x38>	0
<0x39>	0
<0x3A>	0
<0x3B>	0
<0x3C>	0
<0x3D>	0
<0x3E>	0
<0x3F>	0
<0x40>	0
<0x41>	0
<0x42>	0
<0x43>	0
<0x44>	0
<0x45>	0
<0x46>	0
<0x47>	0
<0x48>	0
<0x49>	0
<0x4A>	0
<0x4B>	0
<0x4C>	0
<0x4D>	0
<0x4E>	0
<0x4F>	0
<0x50>	0
<0x51>	0
<0x52>	0
<0x53>	0
<0x54>	0
<0x55>	0
<0x56>	0
<0x57>	0
<0x58>	0
<0x59>	0
<0x5A>	0
<0x5B>	0
<0x5C>	0
<0x5D>	0
<0x5E>	0
<0x5F>	0
<0x60>	0
<0x61>	0
<0x62>	0
<0x63>	0
<0x64>	0
<0x65>	0
<0x66>	0
<0x67>	0
<0x68>	0
<0x69>	0
<0x6A>	0
<0x6B>	0
<0x6C>	0
<0x6D>	0
<0x6E>	0
<0x6F>	0
<0x70>	0
<0x71>	0
<0x72>	0
<0x73>	0
<0x74>	0
<0x75>	0
<0x76>	0
<0x77>	0
<0x78>	0
<0x79>	0
<0x7A>	0
<0x7B>	0
<0x7C>	0
<0x7D>	0
<0x7E>	0
<0x7F>	0
<0x80>	0
<0x81>	0
<0x82>	0
<0x83>	0
<0x84>	0
<0x85>	0
<0x86>	0
<0x87>	0
<0x88>	0
<0x89>	0
<0x8A>	0
<0x8B>	0
<0x8C>	0
<0x8D>	0
<0x8E>	0
<0x8F>	0
<0x90>	0
<0x91>	0
<0x92>	0
<0x93>	0
<0x94>	0
<0x95>	0
<0x96>	0
<0x97>	0
<0x98>	0
<0x99>	0
<0x9A>	0
<0x9B>	0
<0x9C>	0
<0x9D>	0
<0x9E>	0
<0x9F>	0
<0xA0>	0
<0xA1>	0
<0xA2>	0
<0xA3>	0
<0xA4>	0
<0xA5>	0
<0xA6>	0
<0xA7>	0
<0xA8>	0
<0xA9>	0
<0xAA>	0
<0xAB>	0
<0xAC>	0
<0xAD>	0
<0xAE>	0
<0xAF>	0
<0xB0>	0
<0xB1>	0
<0xB2>	0
<0xB3>	0
<0xB4>	0
<0xB5>	0
<0xB6>	0
<0xB7>	0
<0xB8>	0
<0xB9>	0
<0xBA>	0
<0xBB>	0
<0xBC>	0
<0xBD>	0
<0xBE>	0
<0xBF>	0
<0xC0>	0
<0xC1>	0
<0xC2>	0
<0xC3>	0
<0xC4>	0
<0xC5>	0
<0xC6>	0
<0xC7>	0
<0xC8>	0
<0xC9>	0
<0xCA>	0
<0xCB>	0
<0xCC>	0
<0xCD>	0
<0xCE>	0
<0xCF>	0
<0xD0>	0
<0xD1>	0
<0xD2>	0
<0xD3>	0
<0xD4>	0
<0xD5>	0
<0xD6>	0
<0xD7>	0
<0xD8>	0
<0xD9>	0
<0xDA>	0
<0xDB>	0
<0xDC>	0
<0xDD>	0
<0xDE>	0
<0xDF>	0
<0xE0>	0
<0xE1>	0
<0xE2>	0
<0xE3>	0
<0xE4>	0
<0xE5>	0
<0xE6>	0
<0xE7>	0
<0xE8>	0
<0xE9>	0
<0xEA>	0
<0xEB>	0
<0xEC>	0
<0xED>	0
<0xEE>	0
<0xEF>	0
<0xF0>	0
<0xF1>	0
<0xF2>	0
<0xF3>	0
<0xF4>	0
<0xF5>	0
<0xF6>	0
<0xF7>	0
<0xF8>	0
<0xF9>	0
<0xFA>	0
<0xFB>	0
<0xFC>	0
<0xFD>	0
<0xFE>	0
<0xFF>	0
,	-3.19243
▁	-3.21537
.	-3.4034
▁в	-4.13635
а	-4.1517
▁и	-4.15294
е	-4.61416
▁с	-4.65854
▁на	-4.75718
ы	-4.91485
▁не	-5.03679
и	-5.04613
0	-5.05702
-	-5.08906
у	-5.11823
1	-5.12343
▁по	-5.17747
м	-5.22585
▁что	-5.35411
ов	-5.41832
2	-5.4271
о	-5.45114
▁за	-5.57535
▁для	-5.60147
ом	-5.66352
▁(	-5.80315
▁к	-5.81476
▁от	-5.82194
й	-5.83119
▁В	-5.83474
▁из	-5.84474
▁у	-5.84711
:	-5.90482
▁вы	-5.90934
с	-5.92146
▁«	-5.94539
т	-5.95628
▁как	-5.95742
х	-5.97549
▁о	-5.99328
3	-5.99833
5	-6.02898
но	-6.11769
▁это	-6.12908
▁при	-6.1304
ия	-6.1414
ки	-6.15526
я	-6.16723
ные	-6.17233
)	-6.17421
4	-6.18884
9	-6.1962
ных	-6.19644
ной	-6.20371
ка	-6.21131
ный	-6.21781
▁или	-6.25031
▁С	-6.25788
н	-6.2647
ой	-6.32727
▁я	-6.36358
ся	-6.37071
?	-6.37953
▁про	-6.3799
6	-6.38863
ами	-6.39277
▁—	-6.40058
8	-6.40531
▁до	-6.41844
л	-6.43122
в	-6.44536
го	-6.46091
ного	-6.50804
7	-6.50816
д	-6.51394
ет	-6.52539
ли	-6.5304
ю	-6.53185
▁чтобы	-6.55514
на	-6.5661
▁его	-6.58004
ми	-6.59186
ная	-6.60486
ие	-6.62083
ш	-6.62138
▁он	-6.6579
к	-6.66577
ах	-6.67395
▁а	-6.67454
»	-6.69219
▁но	-6.69389
▁под	-6.69817
ить	-6.71621
ии	-6.74656
▁раз	-6.75133
▁об	-6.76003
ку	-6.76871
ным	-6.79362
s	-6.79429
▁Я	-6.80904
▁все	-6.8115
ла	-6.82078
▁К	-6.83494
ем	-6.84162
▁со	-6.8466
▁также	-6.85461
ь	-6.85729
ть	-6.85796
ок	-6.86788
▁мы	-6.87143
▁-	-6.87498
то	-6.88691
ам	-6.88693
▁У	-6.89536
г	-6.89831
▁может	-6.90003
▁так	-6.90039
ей	-6.91622
▁Это	-6.92535
р	-6.93234
▁На	-6.93654
ное	-6.93699
▁то	-6.93909
!	-6.96602
ий	-6.98391
;	-6.99232
ая	-7.00716
▁их	-7.01222
▁был	-7.018
/	-7.02375
▁которые	-7.02416
▁быть	-7.02799
ж	-7.03016
▁А	-7.03781
▁они	-7.04192
ит	-7.0457
б	-7.04922
▁время	-7.0516
▁г	-7.05225
▁И	-7.05569
▁По	-7.06766
▁было	-7.07457
ется	-7.08743
за	-7.09908
▁когда	-7.10231
ых	-7.1198
ную	-7.13429
та	-7.13795
да	-7.13801
▁более	-7.13824
▁бы	-7.14418
▁пере	-7.15192
ию	-7.16818
вер	-7.16956
).	-7.17243
▁же	-7.19392
ые	-7.19799
▁во	-7.20689
ый	-7.21142
a	-7.21854
▁будет	-7.2215
▁только	-7.2231
▁того	-7.22412
▁–	-7.2297
ч	-7.23013
ке	-7.23615
им	-7.24499
ло	-7.25563
ни	-7.26667
▁Б	-7.27658
п	-7.27694
сти	-7.28359
e	-7.29294
▁ре	-7.2968
▁S	-7.30265
ля	-7.30351
не	-7.30495
ными	-7.30719
▁есть	-7.30735
▁О	-7.30737
ен	-7.30863
ном	-7.31303
з	-7.31624
▁ли	-7.32198
▁если	-7.32461
▁Вы	-7.32587
▁очень	-7.33251
С	-7.33301
ил	-7.33513
▁чем	-7.3359
ин	-7.37554
▁были	-7.37694
ст	-7.37894
▁Он	-7.3829
ите	-7.38594
▁можно	-7.41048
ого	-7.41181
».	-7.4147
▁ее	-7.42335
▁P	-7.42713
ения	-7.44054
▁C	-7.44817
▁Д	-7.44959
»,	-7.45729
▁года	-7.47068
▁который	-7.47102
ности	-7.47308
▁Если	-7.47314
▁Не	-7.47397
ив	-7.47959
ко	-7.48707
▁она	-7.49131
В	-7.49184
▁после	-7.49489
▁том	-7.4982
y	-7.49968
▁Г	-7.51299
он	-7.51659
o	-7.51755
▁меня	-7.51777
▁могут	-7.51825
▁"	-7.51841
▁Но	-7.522
▁П	-7.5221
те	-7.52316
ать	-7.52708
ф	-7.53081
ую	-7.5327
▁является	-7.53637
от	-7.53885
ют	-7.54123
▁этого	-7.55386
▁этом	-7.57438
▁больше	-7.57939
▁Как	-7.5835
▁При	-7.58621
по	-7.58894
ал	-7.60331
ле	-7.60649
ым	-7.60742
▁еще	-7.61889
▁лет	-7.62846
ор	-7.63032
мен	-7.63153
er	-7.63272
▁была	-7.63279
или	-7.63361
кой	-7.63545
▁B	-7.63649
▁без	-7.63685
ются	-7.63847
ны	-7.64261
i	-7.64577
▁Ф	-7.64604
ят	-7.65061
ри	-7.65378
▁За	-7.65397
ков	-7.65402
▁M	-7.65992
ди	-7.66348
▁тем	-7.67194
сть	-7.67733
му	-7.68179
ар	-7.69099
▁вам	-7.69154
А	-7.69389
К	-7.6978
n	-7.69995
ель	-7.71156
▁рас	-7.71207
▁М	-7.71348
l	-7.71425
ность	-7.71951
▁Мы	-7.72077
ской	-7.72377
П	-7.72383
t	-7.72615
ться	-7.72737
▁просто	-7.72844
ский	-7.73083
P	-7.73385
Д	-7.73822
▁пред	-7.74201
М	-7.74218
ение	-7.74377
ти	-7.7481
▁D	-7.75376
"	-7.755
▁много	-7.75714
▁мне	-7.76235
▁году	-7.76873
),	-7.77283
ба	-7.77333
ва	-7.77592
че	-7.78574
ан	-7.78888
M	-7.79049
тер	-7.79147
T	-7.79328
D	-7.80123
ра	-7.80227
C	-7.80677
О	-7.81203
ер	-7.81247
тор	-7.82787
▁A	-7.83353
B	-7.83838
▁вас	-7.84472
%	-7.84852
▁пре	-7.84855
ник	-7.85296
га	-7.85666
ние	-7.85697
прав	-7.85778
ского	-7.86052
▁де	-7.86465
▁Ш	-7.87356
▁сказал	-7.87576
из	-7.87741
об	-7.88115
r	-7.88165
ро	-7.88409
▁F	-7.88529
▁Т	-7.88866
ма	-7.89169
A	-7.89435
▁себя	-7.89598
▁можете	-7.89602
ат	-7.89842
c	-7.90211
▁H	-7.90557
ту	-7.91213
▁один	-7.91414
S	-7.91825
d	-7.92496
b	-7.92624
ое	-7.92889
▁должны	-7.92963
p	-7.92977
▁ни	-7.93035
ль	-7.93643
▁этой	-7.93656
▁всех	-7.93805
мер	-7.94283
al	-7.94296
▁L	-7.94388
чи	-7.94526
ации	-7.94554
▁T	-7.94725
▁Э	-7.9528
▁G	-7.9537
▁[	-7.95435
став	-7.9546
Б	-7.95491
ду	-7.96461
Р	-7.96516
цион	-7.96555
▁между	-7.96927
▁д	-7.97579
R	-7.97961
▁несколько	-7.98202
▁этот	-7.98633
И	-7.98679
▁Х	-7.98731
▁через	-7.98767
ком	-7.98833
ских	-7.98905
▁где	-7.98957
f	-7.99124
▁всего	-7.9946
F	-7.99546
▁Для	-7.99571
де	-7.99706
лен	-7.99789
L	-7.99965
I	-8.00012
▁нужно	-8.00039
ги	-8.00831
ты	-8.01749
ис	-8.01847
▁Про	-8.02523
вы	-8.02616
▁даже	-8.02823
▁кон	-8.02829
u	-8.0294
Н	-8.03114
k	-8.03697
▁кор	-8.03741
...	-8.03806
ист	-8.03936
h	-8.04186
▁нас	-8.04416
ше	-8.04472
овой	-8.04487
m	-8.045
▁перед	-8.04737
▁N	-8.05075
O	-8.05173
▁уже	-8.0539
ировать	-8.05731
▁Все	-8.05823
▁способ	-8.06007
G	-8.06689
бо	-8.06977
Т	-8.07254
]	-8.08077
▁которая	-8.08452
ает	-8.0883
У	-8.0922
▁нет	-8.09226
ре	-8.09371
ви	-8.09456
▁пол	-8.09962
ния	-8.09991
▁них	-8.10742
▁R	-8.10897
▁Об	-8.11213
ские	-8.11439
лись	-8.11468
Г	-8.11547
ня	-8.11674
са	-8.117
нов	-8.11729
ход	-8.11819
▁п	-8.12218
▁эти	-8.12439
лю	-8.12597
лет	-8.13096
▁имеет	-8.13355
g	-8.14029
би	-8.14356
во	-8.14413
▁От	-8.14513
ним	-8.14919
▁кто	-8.15478
▁Р	-8.16046
▁т	-8.16435
ос	-8.16467
ции	-8.16669
▁времени	-8.16676
ar	-8.17073
ости	-8.17256
аль	-8.17523
in	-8.17603
бор	-8.18011
дел	-8.18205
од	-8.18599
▁будут	-8.18838
вод	-8.18877
or	-8.1893
▁Ре	-8.19499
▁использовать	-8.19889
стр	-8.20076
▁Они	-8.20248
ц	-8.20387
▁вид	-8.20394
▁день	-8.20484
ну	-8.20626
▁других	-8.21068
▁образом	-8.21108
H	-8.22118
▁те	-8.22426
▁E	-8.23079
ают	-8.23739
ания	-8.23758
ев	-8.23769
ыми	-8.24392
▁людей	-8.24534
Е	-8.246
ство	-8.24662
пер	-8.24737
▁W	-8.24809
ур	-8.24886
▁стар	-8.26021
▁своей	-8.26069
▁жизни	-8.26254
ская	-8.26309
▁сделать	-8.26346
овые	-8.26511
▁работы	-8.26872
▁ты	-8.27032
▁ш	-8.27064
лся	-8.27817
ней	-8.27922
ация	-8.27939
пис	-8.28752
▁свою	-8.28789
▁план	-8.28893
▁лучше	-8.2903
раз	-8.29317
али	-8.2941
▁данных	-8.2956
▁ф	-8.29649
N	-8.29788
ман	-8.29895
▁всегда	-8.3013
▁место	-8.30217
Л	-8.30248
при	-8.30319
▁V	-8.30394
лив	-8.30572
w	-8.30598
▁Так	-8.31323
ент	-8.31436
▁Де	-8.3157
E	-8.31744
▁Со	-8.31756
Я	-8.3191
▁над	-8.31948
▁Ка	-8.3201
иться	-8.32024
ве	-8.32098
ец	-8.32152
их	-8.32532
x	-8.32657
▁Когда	-8.32674
▁потому	-8.32814
▁этих	-8.33158
овых	-8.33308
an	-8.33341
ай	-8.33364
▁суд	-8.33423
▁помощью	-8.34167
ру	-8.34429
ид	-8.34785
▁Однако	-8.34826
▁свои	-8.35548
▁течение	-8.35619
мет	-8.35636
▁качестве	-8.35789
ием	-8.35859
▁Что	-8.36129
▁Л	-8.36289
▁человек	-8.36757
▁которых	-8.36795
вар	-8.37255
▁воз	-8.37294
ья	-8.37724
▁случае	-8.37769
до	-8.37881
▁должен	-8.38335
ол	-8.38352
ic	-8.38638
ирования	-8.38869
лась	-8.38883
ства	-8.38931
лы	-8.39234
ний	-8.39366
▁ко	-8.39529
U	-8.39677
вал	-8.39759
иль	-8.39808
си	-8.39908
ина	-8.39935
▁б	-8.39949
йте	-8.40213
род	-8.40352
нее	-8.40461
en	-8.40509
et	-8.40684
▁тех	-8.4128
ической	-8.41349
▁I	-8.41682
ред	-8.4171
▁Ма	-8.41734
▁год	-8.42132
ант	-8.42516
оз	-8.4262
▁здесь	-8.42724
итель	-8.42983
ут	-8.43153
▁хорошо	-8.43159
про	-8.43224
on	-8.43408
жен	-8.43505
стоя	-8.43549
ция	-8.43794
ир	-8.44273
же	-8.44362
▁другие	-8.44417
▁США	-8.44702
▁Она	-8.44734
▁свой	-8.44961
▁После	-8.45171
▁Из	-8.45358
…	-8.45562
мо	-8.45704
ических	-8.45728
▁два	-8.45733
▁O	-8.45886
re	-8.45915
ав	-8.45927
ического	-8.46008
▁три	-8.46059
со	-8.46307
ится	-8.46548
зи	-8.46718
ел	-8.47151
▁двух	-8.47694
ками	-8.47715
▁мест	-8.47791
▁Да	-8.47888
▁менее	-8.48005
▁Во	-8.4805
ступ	-8.48055
па	-8.48345
▁Н	-8.48711
▁ди	-8.49067
▁Дж	-8.49068
▁До	-8.49128
яв	-8.49235
ью	-8.49982
ши	-8.50066
э	-8.50291
▁часть	-8.50526
▁да	-8.50796
▁своих	-8.50809
ному	-8.5089
вин	-8.51104
пад	-8.51272
куп	-8.51546
альный	-8.51774
ряд	-8.51939
▁цвет	-8.5218
сс	-8.52411
le	-8.52534
▁доступ	-8.52769
it	-8.52925
ении	-8.53003
▁него	-8.53034
W	-8.53216
ик	-8.53228
кон	-8.53267
▁ему	-8.53287
▁мо	-8.53751
▁поэтому	-8.54078
▁пар	-8.5426
щ	-8.54264
at	-8.54271
уч	-8.54401
▁люди	-8.54471
ость	-8.54521
▁прав	-8.54558
▁необходимо	-8.54628
ран	-8.54741
▁действительно	-8.55164
се	-8.55236
▁вопрос	-8.55242
дет	-8.55341
Ф	-8.55396
V	-8.55543
мин	-8.55586
▁пока	-8.55649
ические	-8.55667
▁дома	-8.55913
▁им	-8.56321
▁Ли	-8.56533
атель	-8.56615
▁ответ	-8.56719
ры	-8.56729
▁пор	-8.57041
дер	-8.5707
кс	-8.57072
▁компании	-8.57471
овать	-8.57687
ch	-8.5771
▁количество	-8.57747
лож	-8.57909
K	-8.57989
клад	-8.5808
▁собой	-8.58125
▁интерес	-8.58146
кий	-8.58463
▁город	-8.58521
ост	-8.58545
зна	-8.58862
▁которое	-8.59007
▁K	-8.5905
ров	-8.59178
цы	-8.59231
тен	-8.59323
▁системы	-8.59399
▁Е	-8.59486
▁часто	-8.595
ус	-8.59652
▁против	-8.59819
рав	-8.59838
айте	-8.60097
▁стол	-8.601
▁обычно	-8.60183
ового	-8.60304
▁вос	-8.60513
дав	-8.60544
▁которой	-8.60623
лов	-8.6103
ing	-8.61035
▁говорит	-8.61047
каз	-8.61062
▁Раз	-8.61306
▁открыт	-8.61307
▁нам	-8.6143
ете	-8.61436
сон	-8.61517
is	-8.61521
▁никогда	-8.6159
ван	-8.61615
▁опыт	-8.61935
▁быстро	-8.61953
ила	-8.61959
▁процесс	-8.62013
▁одно	-8.62301
ление	-8.62305
▁своего	-8.62594
▁должно	-8.62701
лад	-8.62867
альные	-8.62927
▁э	-8.62992
лось	-8.63021
бер	-8.63054
▁цен	-8.63077
▁класс	-8.63084
▁стран	-8.63206
ск	-8.63208
ож	-8.63279
ели	-8.6334
ще	-8.63512
▁возможно	-8.63544
(	-8.63632
лин	-8.63677
▁Ко	-8.63978
щие	-8.64277
▁долларов	-8.64538
▁Этот	-8.64554
▁получить	-8.64766
▁являются	-8.648
▁затем	-8.64938
▁мир	-8.65314
ован	-8.65349
ений	-8.65373
щих	-8.6546
▁оп	-8.65504
'	-8.65535
ском	-8.6559
вид	-8.65599
мы	-8.65718
▁З	-8.65863
ун	-8.65892
уд	-8.65986
ян	-8.65989
ключ	-8.6608
▁легко	-8.66143
▁гор	-8.66158
▁момент	-8.66189
сто	-8.6634
оч	-8.66344
ез	-8.66345
▁Ч	-8.66393
жа	-8.66537
це	-8.66734
▁области	-8.67016
еб	-8.67017
▁человека	-8.67076
–	-8.67141
▁особенно	-8.67202
▁возможность	-8.67464
▁Под	-8.67469
▁себе	-8.67736
лей	-8.67851
тон	-8.67942
ирование	-8.68227
▁минут	-8.68244
ца	-8.68421
▁жизнь	-8.68551
действ	-8.68558
▁закон	-8.68713
▁находится	-8.68983
X	-8.6939
ника	-8.69838
тан	-8.69861
атор	-8.69875
▁эту	-8.70015
ирован	-8.70167
бу	-8.70224
мент	-8.70244
▁причин	-8.70474
▁баз	-8.70556
▁Эти	-8.70619
▁такие	-8.70652
▁выбор	-8.70669
▁части	-8.70906
ический	-8.7113
ика	-8.71526
▁То	-8.71616
▁некоторые	-8.71947
мест	-8.71968
рак	-8.72254
▁имеют	-8.72502
▁центр	-8.72538
ша	-8.72654
_	-8.72673
су	-8.72828
▁поскольку	-8.73052
бы	-8.73156
йти	-8.73244
▁Ме	-8.73266
ления	-8.7338
либо	-8.7349
ха	-8.73652
Ч	-8.73873
Х	-8.73887
смотр	-8.73923
▁детей	-8.73998
ул	-8.7405
us	-8.74225
три	-8.74251
лу	-8.74284
▁видео	-8.74343
▁Кон	-8.74739
▁форм	-8.74809
▁таких	-8.74846
ста	-8.74913
хо	-8.75006
▁актив	-8.75209
▁самом	-8.75291
▁карт	-8.75386
эт	-8.7544
рез	-8.75557
▁программ	-8.75813
фа	-8.75913
▁каждый	-8.75951
▁около	-8.75952
▁управления	-8.76082
ходит	-8.76194
стер	-8.76241
бр	-8.7634
▁выше	-8.76363
▁проект	-8.76464
▁J	-8.7648
▁деле	-8.76538
▁расположен	-8.76767
▁друг	-8.77116
форм	-8.77337
ству	-8.77374
▁теперь	-8.77442
▁Кроме	-8.77475
ось	-8.77566
▁работа	-8.77786
▁электро	-8.77921
▁выход	-8.78207
▁найти	-8.78324
овая	-8.78654
▁немного	-8.78705
▁сил	-8.79133
▁счет	-8.79152
шли	-8.79246
▁дом	-8.79298
знач	-8.79377
ек	-8.79408
гер	-8.79445
▁род	-8.795
ирует	-8.795
ился	-8.79515
▁сейчас	-8.79631
▁отдел	-8.79785
▁бо	-8.79914
длин	-8.79929
▁там	-8.7995
el	-8.79965
фер	-8.80176
▁которую	-8.80281
ден	-8.80343
▁вод	-8.8045
▁Его	-8.80463
плат	-8.80536
▁орган	-8.80553
▁внимание	-8.80617
ять	-8.8075
ак	-8.80846
ень	-8.81012
нем	-8.81087
рен	-8.81114
ед	-8.81257
Э	-8.81352
▁почти	-8.81458
▁вместе	-8.81539
▁метод	-8.81545
▁крас	-8.81583
ись	-8.81774
шел	-8.81777
ё	-8.81786
жи	-8.81942
▁Ц	-8.82028
тр	-8.82055
альных	-8.82154
▁бес	-8.82173
енных	-8.82237
цев	-8.82347
▁другой	-8.82391
овый	-8.8243
▁свое	-8.82443
▁работает	-8.82471
▁тоже	-8.82528
am	-8.82574
▁свет	-8.82576
▁одной	-8.82588
▁Ар	-8.8261
ге	-8.82616
▁всем	-8.82679
▁следует	-8.82797
▁позволяет	-8.82807
чита	-8.82855
тов	-8.82963
▁этим	-8.83043
▁данные	-8.83078
▁Ст	-8.83096
▁Ан	-8.83142
ум	-8.83154
ur	-8.83197
пор	-8.83203
ad	-8.83204
▁документ	-8.8333
▁полностью	-8.83453
полн	-8.83863
▁сер	-8.83899
z	-8.84047
ча	-8.84067
кан	-8.84104
ешь	-8.84143
▁телефон	-8.84377
олог	-8.84383
▁достаточно	-8.84472
альная	-8.84499
работ	-8.84564
ников	-8.84707
мор	-8.84902
▁Ле	-8.84908
▁ком	-8.84964
след	-8.8504
▁боль	-8.85173
▁прямо	-8.85186
▁состав	-8.85204
▁U	-8.85264
щая	-8.85316
ro	-8.85345
рев	-8.8536
▁стороны	-8.85373
▁плат	-8.85398
ra	-8.85588
▁Чтобы	-8.85621
▁Ро	-8.85725
▁стандарт	-8.85761
▁X	-8.8586
ды	-8.85925
▁защит	-8.85984
рас	-8.86203
бел	-8.86261
▁/	-8.8636
▁оста	-8.86486
▁снова	-8.86545
стан	-8.86568
▁Те	-8.86575
▁раздел	-8.86597
▁слишком	-8.86677
ала	-8.86858
▁дела	-8.86991
ание	-8.87036
уз	-8.87299
▁такой	-8.87346
жд	-8.87451
чер	-8.87474
▁па	-8.87598
щий	-8.87642
▁кри	-8.87756
▁информации	-8.87921
▁хотя	-8.87939
▁важно	-8.88041
пу	-8.88081
сь	-8.88141
енные	-8.88163
тро	-8.88282
es	-8.88286
метр	-8.88365
держ	-8.88415
▁Мо	-8.88465
▁женщин	-8.88649
 	-8.88663
▁эффект	-8.88698
▁совет	-8.88812
ией	-8.88878
атив	-8.88895
ана	-8.89009
▁пи	-8.89077
▁значение	-8.89246
сы	-8.89262
j	-8.89331
лом	-8.89338
▁Ла	-8.89363
ацию	-8.8938
станов	-8.89387
▁размер	-8.89554
бе	-8.89695
▁тест	-8.89696
ща	-8.89737
▁работу	-8.89769
▁Эта	-8.89804
ается	-8.89809
няя	-8.89832
говор	-8.89845
v	-8.90205
▁конце	-8.90374
▁Бо	-8.90691
▁Па	-8.90768
альной	-8.9095
стро	-8.9107
▁само	-8.91248
▁дел	-8.91269
нес	-8.91384
том	-8.91493
меш	-8.91871
хи	-8.91969
рон	-8.92021
юсь	-8.92165
рис	-8.92231
▁голов	-8.92325
она	-8.92515
▁эта	-8.92585
▁Ю	-8.92655
цию	-8.92701
аться	-8.92828
тур	-8.92947
груз	-8.92988
▁фильм	-8.93055
▁думаю	-8.93119
▁могу	-8.93262
чин	-8.93336
лич	-8.93363
нос	-8.9338
стра	-8.9343
эр	-8.93541
▁кол	-8.93635
▁безопасности	-8.93762
ировал	-8.93811
ках	-8.93851
▁Ж	-8.93884
▁Ра	-8.93934
▁иметь	-8.94039
кие	-8.94096
▁делать	-8.94328
цен	-8.94332
эн	-8.94468
▁использования	-8.94478
ци	-8.94492
твор	-8.94604
▁ран	-8.9461
▁вес	-8.94631
▁уровне	-8.94644
вен	-8.94868
▁сегодня	-8.94983
▁ничего	-8.95092
▁делает	-8.95157
ких	-8.95359
▁Тем	-8.95459
ились	-8.95468
оль	-8.95493
▁Пред	-8.95502
ское	-8.95593
тся	-8.95648
▁мод	-8.95948
▁исследования	-8.96067
▁период	-8.96153
▁готов	-8.96617
ским	-8.96644
енный	-8.96648
▁начал	-8.96709
▁номер	-8.96825
▁получил	-8.97078
▁пример	-8.97188
▁мог	-8.97193
▁Ис	-8.97243
ющих	-8.97271
▁одного	-8.9728
▁з	-8.97308
сп	-8.97346
>	-8.97501
▁проблемы	-8.97906
гу	-8.97965
▁регион	-8.98109
▁установлен	-8.9816
▁своим	-8.98233
▁Ди	-8.98233
▁Ба	-8.9832
▁система	-8.98489
акт	-8.98521
нут	-8.98536
▁вариант	-8.98646
ясь	-8.9885
ed	-8.98923
▁эконом	-8.9896
▁самых	-8.99057
нима	-8.99078
▁ней	-8.99102
▁ваш	-8.99161
ток	-8.99209
▁=	-8.99241
вести	-8.99252
▁например	-8.99332
th	-8.99406
нии	-8.99441
пы	-8.99462
▁Пол	-8.99514
▁риск	-8.99651
нуть	-8.99756
луч	-8.99772
ическая	-8.99857
▁компьютер	-8.99949
доб	-8.99964
▁блок	-9.00003
▁право	-9.0001
▁связи	-9.00049
▁сам	-9.00235
ol	-9.00519
люб	-9.00616
пит	-9.0062
нул	-9.00622
▁тре	-9.00951
пол	-9.01106
ьный	-9.01369
образ	-9.01617
пл	-9.01633
них	-9.01638
▁Го	-9.01648
оп	-9.01723
▁игр	-9.0177
▁услуг	-9.01771
▁вашего	-9.01777
▁производ	-9.01827
▁та	-9.01865
ера	-9.01866
▁воды	-9.01919
бл	-9.01979
рус	-9.01989
изм	-9.02214
движ	-9.02224
▁многих	-9.02324
ьте	-9.02406
Ы	-9.02431
▁структур	-9.02492
чик	-9.02501
гре	-9.02534
▁дня	-9.02727
ска	-9.02766
▁бизнес	-9.02831
кор	-9.02887
▁одним	-9.02896
▁мире	-9.02899
▁пе	-9.02956
▁две	-9.03082
▁след	-9.03128
ическое	-9.03238
чат	-9.03306
▁основан	-9.0332
▁различных	-9.0337
чет	-9.03428
▁могли	-9.0357
▁код	-9.03617
год	-9.03745
сер	-9.03752
ании	-9.03916
стой	-9.03972
▁информацию	-9.04004
▁указан	-9.04066
▁экран	-9.04072
▁магазин	-9.04275
▁ниже	-9.04292
ению	-9.04513
▁меньше	-9.0463
▁которого	-9.04641
▁уровня	-9.04676
ального	-9.04787
ств	-9.04801
▁цел	-9.05125
ники	-9.05171
▁Кор	-9.05172
▁Рас	-9.05235
нер	-9.05564
цеп	-9.05619
кая	-9.05646
▁стал	-9.05673
▁изменения	-9.05858
дать	-9.05878
един	-9.05878
▁тип	-9.05888
ому	-9.05962
инг	-9.05964
▁группы	-9.06164
▁должна	-9.06277
▁тот	-9.06287
▁результат	-9.06371
вали	-9.06473
▁проблем	-9.06491
▁собира	-9.06499
▁Кар	-9.06502
рат	-9.06515
as	-9.06538
изации	-9.06592
▁решение	-9.06612
▁мере	-9.06711
▁•	-9.06864
▁таким	-9.06888
ница	-9.0697
▁работать	-9.07004
▁почему	-9.07048
▁мой	-9.07155
руж	-9.07178
▁гр	-9.07181
ителя	-9.07251
▁постоянно	-9.07363
ющая	-9.07421
ций	-9.0743
глав	-9.07585
▁Есть	-9.07625
▁хотите	-9.07657
Ж	-9.07733
▁торгов	-9.07761
▁Та	-9.07763
▁котором	-9.07793
ования	-9.07825
▁Теперь	-9.08206
▁назад	-9.08282
нию	-9.08345
▁созда	-9.08366
ование	-9.08543
него	-9.08589
▁трех	-9.08685
▁существ	-9.0874
▁какой	-9.09137
шен	-9.0942
▁Затем	-9.09426
вой	-9.09578
▁Ин	-9.09681
▁пер	-9.09739
▁нем	-9.0984
▁член	-9.09893
▁финансов	-9.09916
▁большой	-9.0992
▁среди	-9.09942
обыч	-9.09955
▁дней	-9.09968
▁действия	-9.09995
гар	-9.10058
▁Также	-9.10088
дал	-9.10182
▁фото	-9.10199
вед	-9.10213
ведения	-9.10232
овал	-9.10247
ски	-9.10314
▁отчет	-9.10341
▁основе	-9.10345
ri	-9.10354
▁города	-9.10357
стат	-9.10379
▁Джон	-9.10408
com	-9.10433
езд	-9.10543
▁решения	-9.10778
▁буду	-9.1083
яет	-9.10951
тра	-9.1127
▁либо	-9.11285
▁подход	-9.11376
ющего	-9.11378
▁создан	-9.11424
ay	-9.11425
▁Вот	-9.11639
▁стен	-9.11689
▁мира	-9.11849
чен	-9.11981
▁веб	-9.11996
пи	-9.12198
▁одна	-9.12216
▁означает	-9.12218
З	-9.12226
ены	-9.12249
▁часов	-9.12279
▁происходит	-9.12281
стве	-9.12319
▁Таким	-9.12336
предел	-9.12345
▁включая	-9.12368
▁стать	-9.12396
▁многие	-9.12428
мон	-9.12442
▁новый	-9.1255
▁дизайн	-9.1258
▁некоторых	-9.12606
▁нескольких	-9.12669
▁представляет	-9.12674
знаком	-9.12753
▁нашей	-9.12775
потреб	-9.12785
раж	-9.12789
▁стоит	-9.12803
лон	-9.12819
лер	-9.12842
▁соответствии	-9.12855
лот	-9.12887
ностью	-9.12909
ует	-9.12953
il	-9.13068
▁развития	-9.13122
нь	-9.13135
▁команд	-9.13135
▁Хотя	-9.13178
".	-9.13228
ики	-9.13286
▁сказать	-9.13369
дум	-9.13384
▁ум	-9.13484
▁прост	-9.13506
▁сильно	-9.1357
▁уровень	-9.1377
ot	-9.13881
мат	-9.13905
др	-9.14165
кро	-9.1418
▁Ни	-9.14234
▁компания	-9.14285
▁объект	-9.1431
▁любой	-9.14379
▁час	-9.14405
ятся	-9.14431
▁ла	-9.14539
сад	-9.14591
▁файл	-9.14639
▁Ло	-9.14652
▁зон	-9.14674
аем	-9.14731
▁заказ	-9.14831
▁образ	-9.14932
▁дев	-9.14941
▁тебя	-9.14955
▁мужчин	-9.15122
▁сбор	-9.15151
▁ста	-9.15459
▁мар	-9.15568
▁тогда	-9.15912
▁провод	-9.15923
▁тра	-9.16035
▁отношения	-9.16211
рабатыва	-9.16246
▁каждого	-9.16255
дан	-9.16282
низ	-9.1629
▁повтор	-9.16346
дент	-9.16436
▁возможности	-9.16445
тив	-9.16586
ul	-9.16729
бира	-9.16857
▁именно	-9.16864
▁Ку	-9.16879
шла	-9.16924
▁чего	-9.16927
▁помочь	-9.16975
▁места	-9.17057
▁довольно	-9.17087
▁текст	-9.17113
▁свобод	-9.17175
▁игры	-9.17282
ланд	-9.1733
пре	-9.17354
▁Re	-9.17479
пат	-9.17481
▁уверен	-9.1784
▁транс	-9.17924
щего	-9.17928
▁наиболее	-9.17955
▁Мне	-9.18009
st	-9.18052
ины	-9.18184
▁рис	-9.18198
дж	-9.18208
▁хотел	-9.18222
нг	-9.18241
▁сигнал	-9.18364
▁значительно	-9.185
илась	-9.18567
▁сторон	-9.1865
ъ	-9.18678
американ	-9.18698
▁вашей	-9.1885
▁наших	-9.18954
Y	-9.1897
▁наблюда	-9.18974
▁набор	-9.19033
ивает	-9.19117
▁новые	-9.19128
▁прежде	-9.1923
меча	-9.19263
▁настоящее	-9.19284
тель	-9.19296
▁знаю	-9.19312
ич	-9.19315
ставить	-9.19396
om	-9.19472
рей	-9.19519
ющий	-9.19519
▁транспорт	-9.19543
йтесь	-9.19657
тин	-9.19682
▁работ	-9.19686
ях	-9.19868
id	-9.19875
▁средств	-9.19889
нные	-9.19934
▁вопросы	-9.19953
скую	-9.19987
▁газ	-9.2012
▁мол	-9.20273
ьные	-9.20322
тол	-9.20339
▁клиент	-9.20369
гн	-9.2043
▁государств	-9.20469
ший	-9.2047
щей	-9.20471
▁Ми	-9.20475
▁источник	-9.20578
▁St	-9.20672
▁срок	-9.20703
▁виде	-9.20741
▁долго	-9.20745
▁побед	-9.2075
▁+	-9.20754
▁сделал	-9.20775
ia	-9.2086
▁внутри	-9.20865
um	-9.20893
▁числе	-9.20913
▁пост	-9.20941
▁первый	-9.20946
кер	-9.21019
▁лишь	-9.21021
▁состоя	-9.21146
▁штат	-9.21329
▁шаг	-9.21346
стал	-9.21431
▁высоко	-9.21455
▁роль	-9.21648
готов	-9.21782
ющим	-9.21785
▁тому	-9.22148
▁новых	-9.22212
ющей	-9.22273
чь	-9.22372
вест	-9.22414
▁дело	-9.225
▁диск	-9.22612
ir	-9.22625
рит	-9.22749
▁равно	-9.22905
пуск	-9.22956
▁Пере	-9.22959
ями	-9.23019
аг	-9.2308
▁такое	-9.23258
▁результате	-9.23267
кра	-9.23307
ган	-9.23499
вес	-9.23508
▁групп	-9.23613
▁истории	-9.23629
▁микро	-9.23653
▁наши	-9.23683
▁ар	-9.23749
▁своем	-9.23867
дов	-9.23894
▁Бу	-9.2392
▁оказа	-9.23973
нибудь	-9.23974
стью	-9.24001
▁можем	-9.24092
щим	-9.2411
▁программы	-9.24183
кат	-9.24233
зов	-9.24247
▁ту	-9.24284
ющее	-9.24416
фи	-9.24431
▁точно	-9.24459
определен	-9.24482
▁страны	-9.24582
вит	-9.24646
ье	-9.24669
▁занима	-9.24681
▁ограничен	-9.2469
▁молод	-9.24763
▁дис	-9.24767
▁ним	-9.24811
▁язык	-9.24891
▁жив	-9.24912
▁анализ	-9.24923
▁конкрет	-9.24997
▁ж	-9.25161
▁ключ	-9.25169
▁ру	-9.25246
▁режим	-9.25322
▁типа	-9.25346
▁порт	-9.25377
еть	-9.2538
стей	-9.25448
▁Мар	-9.25574
▁поли	-9.25631
▁см	-9.25784
▁возник	-9.25836
фе	-9.25871
нных	-9.25902
▁модели	-9.25921
▁получен	-9.25929
▁спорт	-9.25937
ходят	-9.25938
▁вкус	-9.26024
▁задач	-9.26107
кл	-9.26171
▁муж	-9.26249
▁Поэтому	-9.26288
▁голос	-9.26291
итесь	-9.26297
▁систем	-9.26321
▁отношении	-9.26336
▁курс	-9.26385
веден	-9.26404
▁связан	-9.26408
бит	-9.26418
▁правильно	-9.26427
▁экс	-9.26478
▁ряд	-9.26488
лиз	-9.26503
▁ос	-9.26512
крас	-9.26577
ню	-9.26591
▁объем	-9.26785
ьных	-9.26857
пар	-9.27083
▁распространен	-9.27133
▁помощи	-9.27169
лев	-9.27267
▁директор	-9.27335
блюд	-9.27497
▁подо	-9.27792
лок	-9.27809
▁используется	-9.2789
▁рук	-9.27904
лит	-9.27979
вяз	-9.27982
зы	-9.28044
▁Мак	-9.2805
▁пыта	-9.28058
▁канал	-9.28068
днев	-9.28123
▁культур	-9.28135
ent	-9.28202
ась	-9.28276
бин	-9.2828
▁точки	-9.28383
мир	-9.28404
▁красив	-9.2859
▁ваши	-9.28627
зор	-9.2865
лем	-9.28673
лага	-9.28717
▁предмет	-9.28728
клон	-9.28741
▁месте	-9.28778
чу	-9.28883
сел	-9.28906
▁принят	-9.28937
▁труд	-9.28987
СТ	-9.29079
ющие	-9.29105
▁звук	-9.29126
енной	-9.29214
ап	-9.29237
▁этому	-9.29239
▁факт	-9.2926
▁состоит	-9.2927
ируется	-9.2932
ируем	-9.2935
▁сети	-9.29395
альным	-9.29436
сси	-9.295
un	-9.295
ест	-9.29621
ража	-9.30222
▁хочу	-9.3025
енно	-9.30319
овым	-9.30352
▁оно	-9.30421
орож	-9.30432
ично	-9.30452
”	-9.30508
▁примерно	-9.30512
зд	-9.30549
пресс	-9.30736
ig	-9.3085
▁времен	-9.30854
▁цифр	-9.30931
▁Нью	-9.30968
руч	-9.31063
▁р	-9.31077
▁рад	-9.31078
лек	-9.31092
ложен	-9.31106
ря	-9.31197
дель	-9.31263
▁характер	-9.31274
▁район	-9.31342
▁широко	-9.31353
ическую	-9.31527
▁температур	-9.31685
ён	-9.31737
▁конечно	-9.31794
беж	-9.318
аются	-9.31886
▁поле	-9.3194
под	-9.31959
▁зависимости	-9.32006
▁качества	-9.32127
▁*	-9.32154
Ш	-9.32165
▁мало	-9.3217
▁>	-9.32194
▁проблема	-9.32254
▁душ	-9.32297
уют	-9.32305
▁предлагает	-9.32517
цин	-9.32621
▁меди	-9.32719
ируют	-9.32884
▁полу	-9.32906
▁начала	-9.33272
аз	-9.33303
очки	-9.33412
▁увидеть	-9.33483
пас	-9.335
▁направлен	-9.33572
*	-9.33597
бил	-9.33613
▁партнер	-9.3366
еж	-9.33781
▁вход	-9.33824
ители	-9.33879
▁работе	-9.33894
тар	-9.33941
▁мм	-9.33972
юр	-9.34025
кол	-9.34038
▁Сер	-9.34158
кров	-9.34184
жив	-9.34237
енд	-9.34291
▁чист	-9.3447
звон	-9.34486
▁рез	-9.34505
лан	-9.34577
вший	-9.34592
раб	-9.34605
▁обще	-9.34632
▁средства	-9.34661
нный	-9.34673
▁p	-9.34673
▁занят	-9.34702
бой	-9.34769
нет	-9.34821
Ь	-9.3492
▁составляет	-9.34957
▁автор	-9.34994
▁стали	-9.3501
▁вне	-9.35013
ог	-9.35052
▁Вам	-9.35053
▁In	-9.35084
▁нравится	-9.35191
op	-9.35202
▁разных	-9.35221
рес	-9.35247
ставлен	-9.35305
▁вероятно	-9.35315
▁слова	-9.35316
▁продукт	-9.35318
▁одном	-9.35363
▁др	-9.35381
▁благо	-9.35618
▁обо	-9.35703
министр	-9.35716
гром	-9.3578
кам	-9.35785
▁Сам	-9.35825
▁которым	-9.35903
шей	-9.35903
его	-9.35921
▁другими	-9.35958
▁любим	-9.35991
▁проч	-9.3608
зер	-9.36168
▁знал	-9.36219
лия	-9.36256
емся	-9.36438
▁всей	-9.36457
▁бу	-9.3653
шир	-9.3653
▁доход	-9.36731
двига	-9.3679
стрел	-9.36813
чем	-9.36853
▁Са	-9.36951
▁Ча	-9.37086
▁множество	-9.37109
▁кредит	-9.37188
дар	-9.37456
ываю	-9.37458
числ	-9.37486
альное	-9.37496
▁масс	-9.37608
▁включает	-9.3768
▁Хо	-9.37695
▁Ру	-9.37878
▁основном	-9.37918
кус	-9.37957
эк	-9.37982
▁граждан	-9.37984
▁функции	-9.37993
▁запрос	-9.38102
▁кажется	-9.38114
пут	-9.38131
▁вз	-9.38247
▁металл	-9.38374
енным	-9.38534
тельно	-9.38575
▁зрения	-9.38595
шие	-9.38704
очка	-9.38773
▁удар	-9.38804
+	-9.38834
▁результаты	-9.38845
ex	-9.3893
▁поезд	-9.38963
▁банк	-9.39073
▁мал	-9.39083
▁деньги	-9.39215
ально	-9.39218
▁пу	-9.39247
печат	-9.3925
ическим	-9.39315
▁Например	-9.39409
▁тер	-9.39609
ОН	-9.39645
ался	-9.39713
особ	-9.39764
очный	-9.39767
▁правил	-9.39773
▁значения	-9.39794
}	-9.39918
▁жил	-9.39919
▁имя	-9.39984
быт	-9.40026
оцен	-9.40077
▁России	-9.40187
▁“	-9.40228
▁рядом	-9.40431
▁другом	-9.40464
▁коп	-9.40551
▁предпо	-9.40613
чит	-9.40674
руш	-9.40886
иц	-9.40985
▁пути	-9.41009
яз	-9.41036
ter	-9.41117
▁лица	-9.41287
▁устройства	-9.41306
J	-9.41343
▁пункт	-9.41361
▁чувств	-9.41501
▁ч	-9.41512
▁решил	-9.41549
овое	-9.41584
▁инструмент	-9.41625
▁присутств	-9.41636
етесь	-9.417
▁мел	-9.41709
рыв	-9.41743
li	-9.41817
ген	-9.41869
чив	-9.41886
▁лиц	-9.41938
екс	-9.42026
▁мил	-9.42169
▁какие	-9.42216
▁выполнен	-9.4232
▁продаж	-9.42365
▁помог	-9.42381
гра	-9.4256
эй	-9.42689
ило	-9.42703
жал	-9.42758
▁адрес	-9.42823
▁продуктов	-9.42847
co	-9.4299
тек	-9.43026
рет	-9.43065
▁волн	-9.43103
▁участие	-9.4317
▁вот	-9.43184
▁цвета	-9.43199
▁бар	-9.43217
▁Ри	-9.4329
▁Му	-9.43301
▁глаза	-9.43376
▁представлен	-9.43508
os	-9.43595
▁Бог	-9.43601
щик	-9.4368
▁исход	-9.43691
▁теле	-9.43702
▁Некоторые	-9.43742
суд	-9.43746
▁персонал	-9.4377
▁Ch	-9.43866
ших	-9.4391
▁клиентов	-9.4397
▁права	-9.44007
▁реклам	-9.44034
▁различ	-9.44097
пле	-9.44105
мышлен	-9.44127
▁игра	-9.44193
▁хочет	-9.44278
▁сразу	-9.44326
▁Ха	-9.44368
▁удален	-9.4448
▁самым	-9.44529
вещ	-9.44551
ывают	-9.44599
гр	-9.4464
▁вечер	-9.44642
полнен	-9.4469
▁кар	-9.44733
ере	-9.44765
▁организации	-9.44772
пон	-9.44804
▁случай	-9.44882
▁создать	-9.4494
▁пес	-9.45029
▁использование	-9.45061
▁игрок	-9.45062
▁используем	-9.45093
По	-9.45164
▁окруж	-9.45279
ически	-9.45306
▁желез	-9.45438
▁ча	-9.45517
см	-9.45747
▁лично	-9.45753
▁вывод	-9.45761
▁поток	-9.45883
воз	-9.4597
▁контакт	-9.46021
°	-9.46035
ало	-9.46083
▁пара	-9.46112
▁рыб	-9.46192
▁фон	-9.46208
▁получения	-9.46209
▁Ты	-9.46239
▁ресторан	-9.46241
▁принцип	-9.4627
▁врач	-9.46274
кры	-9.46297
▁второй	-9.46447
▁живот	-9.4645
].	-9.46501
щую	-9.46584
нят	-9.46588
кого	-9.46623
▁изображения	-9.46644
сен	-9.46667
зо	-9.46686
вич	-9.46697
очной	-9.46732
▁благодаря	-9.46758
ut	-9.4677
▁стр	-9.46774
лоб	-9.46974
▁встреча	-9.47047
▁мед	-9.4709
казать	-9.4714
▁тела	-9.47157
▁обеспечения	-9.47174
ЕН	-9.47188
ственно	-9.47215
▁стрем	-9.47255
▁модель	-9.47364
▁моей	-9.47371
ительно	-9.47403
порт	-9.47457
пере	-9.4746
▁агент	-9.47528
▁качество	-9.4771
▁президент	-9.47749
шим	-9.47845
строй	-9.47861
▁каждой	-9.47874
▁относительно	-9.47879
▁создания	-9.47926
▁прос	-9.47937
щит	-9.47995
писать	-9.48022
рин	-9.48073
ывает	-9.48101
зем	-9.48152
роз	-9.48271
чная	-9.48293
бра	-9.48297
▁комплекс	-9.48392
▁авто	-9.48505
ена	-9.48532
▁большинство	-9.48547
▁использованием	-9.48592
▁последние	-9.48774
▁Ду	-9.48805
▁ген	-9.48831
ЕР	-9.48845
топ	-9.48849
▁лес	-9.48859
im	-9.48934
▁степени	-9.48971
▁потенциал	-9.48972
бли	-9.49048
▁Су	-9.49072
▁сделан	-9.49151
▁сезон	-9.49175
▁рост	-9.49307
писан	-9.49333
▁становится	-9.49353
▁месяцев	-9.49419
ким	-9.49511
ap	-9.49548
ук	-9.49634
▁Интернет	-9.4968
▁анти	-9.49694
пла	-9.497
▁семей	-9.4971
▁Им	-9.49724
ением	-9.4975
▁Ал	-9.49808
публик	-9.4992
▁взгляд	-9.49976
▁содержит	-9.50072
▁наш	-9.50075
▁Бер	-9.50238
уль	-9.50238
паль	-9.50276
дон	-9.50361
пал	-9.5037
▁деятельности	-9.50438
te	-9.50459
▁роз	-9.50543
▁проекта	-9.50605
▁верх	-9.50622
эм	-9.50641
электр	-9.50663
ow	-9.50673
мена	-9.50678
нюю	-9.50699
аж	-9.50713
гла	-9.50727
▁Нет	-9.50753
ата	-9.50754
▁раствор	-9.50758
▁всё	-9.50795
▁машин	-9.50844
АН	-9.5085
▁тро	-9.50908
▁Y	-9.5091
▁лечения	-9.50951
▁своими	-9.50958
овую	-9.51015
▁Пре	-9.51036
щее	-9.51045
▁другим	-9.51071
▁любит	-9.51091
▁использует	-9.511
содержа	-9.51113
▁прием	-9.51141
▁одну	-9.51171
▁норм	-9.51181
▁дает	-9.51232
пир	-9.51359
▁ле	-9.51378
еля	-9.51537
ывать	-9.51593
▁месяц	-9.51604
ульт	-9.51628
ивать	-9.5165
▁сравнению	-9.51712
лез	-9.51718
анд	-9.51784
▁картин	-9.51827
▁Би	-9.51852
▁ан	-9.51868
ём	-9.51886
енного	-9.51888
▁политик	-9.51927
▁смысл	-9.51935
▁четыре	-9.51991
нять	-9.52004
ляр	-9.52198
▁Здесь	-9.52354
основ	-9.52416
▁ак	-9.52418
ающие	-9.52488
хват	-9.52527
▁известно	-9.52595
▁вокруг	-9.52625
▁остров	-9.52703
la	-9.52713
▁лег	-9.52717
рай	-9.52782
емых	-9.528
ate	-9.52816
альную	-9.52848
рок	-9.52853
▁сайт	-9.52866
▁обеспечивает	-9.52956
вать	-9.52958
▁Дан	-9.53057
▁добав	-9.53075
▁производства	-9.53103
ировали	-9.53126
ион	-9.5324
▁друга	-9.53246
худ	-9.53269
▁комп	-9.53336
нк	-9.53364
ари	-9.53382
▁самое	-9.53394
▁мини	-9.53415
▁сказала	-9.53425
▁сад	-9.53469
ОВ	-9.53475
▁описан	-9.53489
▁#	-9.53522
ющихся	-9.53624
йдет	-9.53652
кси	-9.53669
давать	-9.53724
евые	-9.53759
▁тысяч	-9.53784
▁пользователя	-9.538
очные	-9.53808
▁сын	-9.53826
лог	-9.5384
▁Возможно	-9.53853
▁кур	-9.53971
▁фактор	-9.54002
жения	-9.54015
^	-9.54081
▁предназначен	-9.54097
шки	-9.54126
▁поиск	-9.54154
арт	-9.54161
▁The	-9.54167
ub	-9.54191
▁совершенно	-9.54217
цит	-9.54295
▁группа	-9.54367
and	-9.54401
▁принадлеж	-9.54539
ировки	-9.54663
▁защиты	-9.54731
Ц	-9.54818
▁хорош	-9.54833
▁условия	-9.54839
илл	-9.54906
▁узнать	-9.54926
▁<	-9.54931
▁стоимость	-9.54943
▁сервер	-9.55031
▁список	-9.55057
вая	-9.55063
▁влияние	-9.55068
шу	-9.55111
хот	-9.55144
▁Ак	-9.55301
▁определенно	-9.5539
цией	-9.55412
▁условиях	-9.55497
▁онлайн	-9.55514
▁символ	-9.5563
▁товар	-9.5564
рос	-9.55705
▁тебе	-9.55778
▁тепло	-9.55838
▁говорил	-9.55844
se	-9.55953
▁существует	-9.55963
▁приложения	-9.55969
ниц	-9.55975
▁кого	-9.55975
эл	-9.56027
евой	-9.5606
▁регул	-9.56186
▁пакет	-9.56291
▁Совет	-9.56305
▁умер	-9.56341
▁большим	-9.56347
деж	-9.56383
▁лидер	-9.56434
гл	-9.5652
ните	-9.56601
▁владе	-9.56675
▁эм	-9.56678
ическом	-9.56765
все	-9.5685
▁переход	-9.56868
яр	-9.56929
сказ	-9.56989
▁бед	-9.57001
сайт	-9.57043
▁расс	-9.57112
▁пят	-9.57125
▁Глав	-9.57142
ву	-9.57165
all	-9.57264
кар	-9.57269
▁практически	-9.5728
▁c	-9.57281
▁|	-9.5729
сим	-9.57306
вол	-9.57399
▁персонаж	-9.57411
ma	-9.57444
▁вещи	-9.57482
поль	-9.57527
▁трудно	-9.57545
▁питания	-9.5758
▁Может	-9.57599
пе	-9.576
▁Га	-9.57714
фр	-9.57839
em	-9.5788
фт	-9.57932
▁получает	-9.57955
▁мак	-9.57985
▁обществе	-9.58017
нич	-9.58097
▁цели	-9.58126
▁Крас	-9.58208
буд	-9.58246
);	-9.58315
▁производитель	-9.58327
глу	-9.58336
аб	-9.58351
",	-9.58371
▁линии	-9.58382
▁нового	-9.58447
▁понять	-9.58503
▁нашего	-9.58662
▁семьи	-9.58762
анг	-9.58884
▁Пер	-9.58932
ab	-9.58933
зим	-9.58936
нц	-9.58941
▁иногда	-9.58961
▁систему	-9.59003
▁включен	-9.59016
ard	-9.59031
▁границ	-9.59035
лег	-9.59048
▁предоставлен	-9.59083
истор	-9.59087
▁народ	-9.59111
▁Пу	-9.59129
вет	-9.59191
▁каждом	-9.59206
ающих	-9.59306
▁путем	-9.59353
луж	-9.59395
▁материал	-9.59456
гор	-9.59482
аций	-9.59508
мобиль	-9.59508
▁ними	-9.59527
пт	-9.59575
▁зависит	-9.59587
▁позво	-9.59616
▁сложно	-9.5967
▁годы	-9.59672
иями	-9.59718
▁пациентов	-9.59737
▁правило	-9.59758
ницы	-9.59809
брать	-9.59833
▁самый	-9.5987
стями	-9.59917
уче	-9.59949
контрол	-9.60027
▁всю	-9.60058
▁различные	-9.60082
▁информация	-9.60102
▁использовал	-9.60126
▁услуги	-9.60161
центр	-9.60172
леп	-9.60205
фф	-9.6025
▁однако	-9.60277
рел	-9.60282
▁Лу	-9.60301
орт	-9.60325
▁рамках	-9.60353
▁посещ	-9.60379
▁значит	-9.6048
▁ман	-9.60623
нз	-9.60665
▁воздух	-9.60753
▁связ	-9.60835
▁№	-9.60897
▁труб	-9.60939
▁команды	-9.60949
▁север	-9.61012
▁устойчив	-9.61025
ключить	-9.61029
▁Co	-9.61038
алл	-9.61139
фици	-9.6116
▁пуст	-9.61258
Ю	-9.61382
ацией	-9.61426
жу	-9.61438
▁Google	-9.61533
▁Ну	-9.61537
ne	-9.61578
ющими	-9.61585
▁треть	-9.61605
близ	-9.6167
▁пять	-9.61681
▁требуется	-9.61696
скор	-9.61788
дол	-9.61808
пр	-9.61841
▁Центр	-9.61851
▁полно	-9.61917
▁велик	-9.61944
▁договор	-9.61955
ation	-9.62008
РА	-9.62011
▁целом	-9.62018
▁такого	-9.62327
раст	-9.6243
лик	-9.62529
▁Почему	-9.62572
ell	-9.62585
▁Windows	-9.62617
чную	-9.62661
▁надо	-9.62677
кри	-9.62719
▁ребенка	-9.62726
шин	-9.62775
▁обратно	-9.62781
меч	-9.62787
чение	-9.62805
жел	-9.62852
▁Бел	-9.62854
сла	-9.62889
шка	-9.62907
▁круг	-9.62912
▁&	-9.62932
▁звезд	-9.62964
рид	-9.62974
▁Z	-9.62988
▁устройств	-9.63003
▁подходит	-9.63008
нс	-9.63012
de	-9.63032
▁совсем	-9.63057
▁недо	-9.63083
▁рассматрива	-9.63112
▁частью	-9.63206
ращ	-9.6321
▁Пе	-9.63246
▁хим	-9.63274
ставляет	-9.6334
▁матери	-9.63364
▁клуб	-9.63377
жат	-9.63387
▁сохраня	-9.63393
▁рынка	-9.63428
▁Просто	-9.63462
держать	-9.63478
ишь	-9.63512
фор	-9.63522
▁Ос	-9.63551
бол	-9.63623
▁записи	-9.63681
ностей	-9.6371
▁указ	-9.63735
▁фирм	-9.63792
пло	-9.63845
▁таблиц	-9.639
ивания	-9.63927
ver	-9.63943
=	-9.63979
ложение	-9.63995
слов	-9.6402
елей	-9.64098
дает	-9.64165
ьная	-9.64204
ора	-9.64304
▁частот	-9.64321
▁заявил	-9.64339
▁Тре	-9.64343
рог	-9.64358
▁f	-9.64404
▁проведен	-9.64409
▁вообще	-9.64426
▁обнаружен	-9.64431
льд	-9.6451
▁противо	-9.64537
уча	-9.64538
рик	-9.64541
иях	-9.64586
ie	-9.64669
▁выбрать	-9.6469
▁первой	-9.64745
гиб	-9.64749
ion	-9.64758
очных	-9.64766
▁случаях	-9.64789
▁эффективно	-9.64884
▁км	-9.64923
нести	-9.6494
▁известны	-9.64981
жда	-9.64982
сроч	-9.64983
▁ваших	-9.65022
▁специально	-9.65042
шение	-9.6505
▁рос	-9.65064
▁имею	-9.65065
емые	-9.65073
крат	-9.65075
▁проб	-9.65087
▁приз	-9.65094
▁обязательно	-9.65184
▁Сан	-9.65216
▁любом	-9.65302
▁женщины	-9.65342
▁служб	-9.65343
строить	-9.6543
IN	-9.65451
▁энергии	-9.65472
Йорк	-9.65598
музык	-9.65693
тели	-9.6573
▁обучения	-9.65738
▁Пи	-9.65768
▁роли	-9.65776
стран	-9.65822
исты	-9.65837
НО	-9.65876
▁гораздо	-9.6588
▁вклад	-9.65895
▁отлично	-9.65895
▁Пар	-9.65952
▁меню	-9.66014
гон	-9.6609
▁собственно	-9.66095
тельный	-9.66113
слав	-9.66123
сов	-9.66139
▁обмен	-9.6633
ag	-9.66342
ара	-9.66391
▁лист	-9.66404
▁двумя	-9.66406
▁строк	-9.66447
▁автомат	-9.6645
ec	-9.66533
▁богат	-9.66555
▁формы	-9.66623
▁работал	-9.66663
▁игру	-9.66672
▁бесплатно	-9.66753
▁состоянии	-9.66774
▁глаз	-9.66839
▁слов	-9.66852
ers	-9.66872
▁помощь	-9.66932
▁Бар	-9.66973
квартир	-9.67025
несен	-9.67027
▁выпуск	-9.67039
▁ей	-9.67108
▁изменить	-9.67179
трат	-9.67209
дали	-9.67251
▁сум	-9.67281
▁стране	-9.67317
анию	-9.67399
▁офис	-9.67424
▁требует	-9.67498
▁фильтр	-9.67544
яется	-9.6759
бель	-9.67628
руп	-9.67712
▁знать	-9.67721
▁реша	-9.67806
▁Поскольку	-9.67913
▁тело	-9.67929
ита	-9.67935
▁возвраща	-9.67968
ставка	-9.67969
скоп	-9.68007
что	-9.68101
веду	-9.68156
ались	-9.68259
▁ног	-9.68283
енная	-9.68285
est	-9.68287
вания	-9.68427
сса	-9.68498
▁увеличива	-9.6853
креп	-9.68539
▁тур	-9.68561
▁доступны	-9.68611
▁первого	-9.68737
age	-9.68749
РЕ	-9.68787
▁раньше	-9.68792
град	-9.68795
▁механизм	-9.68867
▁Ад	-9.68905
ill	-9.68911
гран	-9.68939
▁собак	-9.68943
ехал	-9.68966
дро	-9.69084
▁плохо	-9.69089
ляет	-9.69153
илось	-9.69166
ателя	-9.69247
нная	-9.69271
▁Ор	-9.69323
ёт	-9.69344
▁потом	-9.69361
сет	-9.69408
▁данным	-9.69415
щен	-9.69459
▁специалист	-9.69487
▁словам	-9.69504
чал	-9.69516
▁показан	-9.69569
▁силы	-9.69612
лод	-9.69625
кал	-9.69628
фон	-9.6964
олл	-9.69676
ОР	-9.69688
▁плот	-9.69709
рем	-9.69743
тельных	-9.69796
▁тон	-9.69816
▁приложение	-9.69889
▁учет	-9.69918
▁пользу	-9.6995
▁оценки	-9.69989
▁достиг	-9.70041
ющую	-9.70068
▁закрыт	-9.70095
▁количества	-9.70125
▁брат	-9.70129
▁ад	-9.70187
▁лекарств	-9.70213
скими	-9.70259
тяж	-9.70412
▁препарат	-9.7048
▁путь	-9.70567
▁максимально	-9.70611
▁цикл	-9.70645
▁лицо	-9.70648
ард	-9.70649
▁перемен	-9.70677
▁бренд	-9.7076
▁формат	-9.70765
▁нашем	-9.70788
▁ранее	-9.70797
▁вместо	-9.70863
▁d	-9.70891
▁кроме	-9.70918
▁черт	-9.70921
ry	-9.70939
▁её	-9.70989
▁состояние	-9.70999
дох	-9.71017
▁Кол	-9.71044
овали	-9.71111
▁число	-9.71204
▁контроль	-9.71285
▁сколько	-9.71338
▁холод	-9.71384
▁движения	-9.71531
обра	-9.71607
очно	-9.71687
▁имени	-9.71805
зол	-9.71891
крыш	-9.71921
ром	-9.7193
ac	-9.71979
▁черн	-9.71984
ват	-9.72008
▁Многие	-9.72032
ведение	-9.72061
▁Без	-9.72115
сек	-9.72127
сте	-9.72132
ge	-9.72192
▁помогает	-9.72277
▁исследований	-9.72349
▁Каждый	-9.72381
завис	-9.72404
яют	-9.72406
цу	-9.72527
▁уход	-9.72584
▁цель	-9.72599
lo	-9.72626
▁компонент	-9.72695
▁мас	-9.72703
носит	-9.72751
▁понят	-9.72781
▁всему	-9.72789
▁Люб	-9.72794
телей	-9.728
▁поверхности	-9.72856
▁футбол	-9.72871
▁следующие	-9.72926
▁разум	-9.7296
▁поддержки	-9.72981
чей	-9.72995
луша	-9.73003
▁нельзя	-9.73102
▁руки	-9.73119
▁руб	-9.7314
▁секунд	-9.73192
▁сотрудник	-9.73293
ектор	-9.73339
▁Фи	-9.73344
вел	-9.73419
▁Ваш	-9.73419
▁бумаг	-9.73421
▁необходимости	-9.73422
▁пляж	-9.73439
▁довер	-9.7353
▁журнал	-9.7355
кле	-9.73575
▁Ник	-9.73611
▁Tr	-9.73621
Q	-9.73666
▁поврежден	-9.73667
▁m	-9.73673
▁половин	-9.73731
AP	-9.73775
▁автомобиль	-9.73849
▁дальнейш	-9.73957
▁дети	-9.74005
▁кос	-9.74074
ждение	-9.74089
▁войны	-9.74148
ьным	-9.74153
▁реально	-9.74182
ающий	-9.74185
зу	-9.74198
▁заключается	-9.74326
бле	-9.74354
▁сообщения	-9.74437
▁элемент	-9.74448
▁высокой	-9.74471
джа	-9.74494
▁обязан	-9.74501
▁находятся	-9.74542
ип	-9.74556
кую	-9.74574
▁идеально	-9.74685
жение	-9.74699
▁установки	-9.74788
гул	-9.74827
▁станет	-9.74828
▁изображение	-9.74849
▁пап	-9.74913
ительные	-9.74933
▁центре	-9.74935
ляции	-9.74935
▁мои	-9.74971
тей	-9.74974
▁развива	-9.74977
▁непо	-9.7505
щем	-9.75056
▁управление	-9.75116
▁Их	-9.75119
▁весь	-9.75125
▁независимо	-9.75144
ER	-9.75159
▁службы	-9.7517
дра	-9.75214
▁обраща	-9.7523
син	-9.75241
▁знак	-9.75266
▁завод	-9.75288
парт	-9.75298
▁лучших	-9.75329
Это	-9.75349
▁новой	-9.75375
▁процесса	-9.75404
атели	-9.75417
▁автоматически	-9.75431
▁процент	-9.75475
чай	-9.75483
крест	-9.75525
▁имел	-9.75541
ско	-9.75581
изирован	-9.75603
дроб	-9.75609
▁разнообраз	-9.75624
▁вызов	-9.7565
аренд	-9.75669
ителей	-9.7567
зон	-9.75675
▁карьер	-9.75678
▁бизнеса	-9.75681
ину	-9.75771
▁диапазон	-9.75827
▁мастер	-9.75834
▁говорят	-9.75871
нутрен	-9.7592
ктор	-9.75951
енс	-9.75953
ee	-9.76071
рош	-9.76083
▁продукты	-9.76095
▁ну	-9.76114
▁денег	-9.76118
дем	-9.76126
цел	-9.76154
▁гон	-9.76202
sh	-9.76205
▁рынке	-9.76212
изма	-9.76237
vi	-9.76245
ip	-9.76273
▁сердце	-9.76318
▁шт	-9.76321
руд	-9.76445
актив	-9.76488
ума	-9.76515
▁био	-9.76528
▁образования	-9.7654
▁плав	-9.76633
хол	-9.76657
▁Че	-9.76815
▁большую	-9.76832
▁стиле	-9.76899
▁перевод	-9.76922
▁прошлом	-9.76942
▁Очень	-9.76965
▁показывает	-9.77041
▁Еще	-9.771
▁женщина	-9.77184
стру	-9.77252
▁Итак	-9.77262
▁беспоко	-9.77311
▁городе	-9.77367
ительный	-9.77383
▁построен	-9.77385
▁Pro	-9.77437
коль	-9.77446
▁Аль	-9.77457
▁начале	-9.77457
ям	-9.77546
ющиеся	-9.77564
▁стало	-9.77568
AN	-9.7757
▁видел	-9.77685
▁Се	-9.77812
▁основных	-9.77884
час	-9.77886
альном	-9.77926
▁начать	-9.77929
▁очередь	-9.77952
▁четырех	-9.77995
▁волос	-9.78014
▁платформ	-9.78063
▁вперед	-9.78066
▁устройство	-9.78078
▁моя	-9.78085
еры	-9.78112
монстр	-9.78115
коп	-9.78162
▁захват	-9.78175
▁школы	-9.7823
▁смерти	-9.78231
▁Можно	-9.78271
▁открыва	-9.78333
▁роста	-9.78346
ником	-9.78354
ушки	-9.78362
▁наук	-9.78369
▁любовь	-9.7842
▁здоровья	-9.78459
▁Чер	-9.78483
art	-9.78528
▁водо	-9.78583
▁насколько	-9.78676
▁дат	-9.78679
ику	-9.78718
▁вектор	-9.78725
тельные	-9.78742
▁Зна	-9.78743
льф	-9.78761
стях	-9.788
десят	-9.78809
▁b	-9.78809
▁бро	-9.78842
▁история	-9.78858
ичный	-9.78891
▁животных	-9.78945
▁Мон	-9.79009
▁зуб	-9.79046
▁скорее	-9.7905
▁режиме	-9.79144
▁термин	-9.79204
жим	-9.79207
ТО	-9.79261
ect	-9.79271
▁большое	-9.79321
▁стала	-9.79346
▁ошиб	-9.79389
▁собран	-9.79421
▁технологии	-9.79488
▁среды	-9.79527
▁идет	-9.79578
ключение	-9.79583
▁целью	-9.79596
OS	-9.79612
▁Один	-9.7969
лли	-9.79835
чки	-9.79852
▁кожи	-9.7987
ce	-9.79945
▁показать	-9.7996
ложения	-9.80011
▁ужас	-9.80024
ологии	-9.80127
▁мин	-9.8014
to	-9.80158
▁самые	-9.80225
пря	-9.80227
ИТ	-9.80273
▁миллионов	-9.80281
глас	-9.80308
▁кислот	-9.80321
игр	-9.80352
▁университет	-9.80357
▁касается	-9.80433
ИН	-9.80468
шив	-9.80499
▁включают	-9.80538
▁Ma	-9.80692
мут	-9.80714
▁образова	-9.80724
▁определить	-9.80745
теля	-9.8078
КА	-9.80786
реб	-9.80836
йдите	-9.80877
▁обзор	-9.80938
▁приводит	-9.81008
▁класса	-9.81036
▁нажмите	-9.81059
арь	-9.81065
вшись	-9.81072
ирую	-9.81079
ходить	-9.81166
▁развитие	-9.81172
пят	-9.81188
вание	-9.81289
ti	-9.81304
аны	-9.81312
▁счастлив	-9.81518
▁взаимо	-9.81582
ьную	-9.81659
▁играть	-9.8167
▁книг	-9.81708
прос	-9.81733
▁использован	-9.81741
креплен	-9.8178
ваться	-9.81797
риф	-9.81808
рек	-9.81847
мень	-9.81868
▁кнопку	-9.81895
▁Только	-9.81923
od	-9.81935
▁сообщил	-9.82006
тера	-9.82006
▁остается	-9.82096
бот	-9.82119
пустил	-9.82123
брос	-9.82124
сед	-9.82162
▁видеть	-9.82288
На	-9.823
▁учит	-9.82337
▁говоря	-9.82368
▁использовании	-9.82381
▁Wi	-9.8244
чество	-9.82501
ворот	-9.8251
▁спа	-9.82528
ект	-9.82553
▁пяти	-9.82553
▁разработан	-9.82668
▁одновременно	-9.82736
человеч	-9.82753
кош	-9.82755
▁силу	-9.82805
ителем	-9.82827
▁Более	-9.82831
▁самого	-9.82885
вари	-9.82928
горяч	-9.82969
▁комфорт	-9.8297
лип	-9.8297
▁скорость	-9.82982
▁Ки	-9.82988
вших	-9.83016
▁заверш	-9.83046
▁написан	-9.8305
▁населения	-9.83115
▁системе	-9.83117
▁любого	-9.83244
me	-9.83268
ine	-9.83286
▁i	-9.83339
▁фотографии	-9.83341
▁усили	-9.83371
▁похоже	-9.83407
▁полос	-9.83422
ставки	-9.83428
▁века	-9.83568
сом	-9.83581
▁фи	-9.83581
▁задан	-9.83593
▁Sh	-9.83659
▁ради	-9.83752
▁мисс	-9.83778
почт	-9.83793
▁пал	-9.83807
▁доме	-9.8385
ёр	-9.83884
▁капитал	-9.83963
▁выбран	-9.83965
▁важны	-9.8399
меня	-9.84017
анс	-9.84018
▁Воз	-9.84027
мысл	-9.84039
тряс	-9.84044
ложить	-9.84049
крыв	-9.84137
▁большая	-9.84163
▁говорить	-9.84185
Z	-9.84198
елл	-9.84212
ph	-9.84272
▁пен	-9.8433
▁долг	-9.84348
▁купить	-9.84355
▁ремонт	-9.84361
▁Кто	-9.84457
смотреть	-9.84635
спе	-9.84648
альными	-9.84668
▁установить	-9.84695
▁просмотр	-9.84761
ерн	-9.84763
▁популярны	-9.84773
▁Ком	-9.84794
▁Сегодня	-9.84845
▁обеспечить	-9.84983
▁парк	-9.85016
▁...	-9.85035
▁делают	-9.85039
▁крайней	-9.85039
@	-9.85155
шее	-9.85305
▁комплект	-9.85416
сво	-9.85477
пред	-9.85498
аний	-9.85522
▁связь	-9.85592
▁видов	-9.85649
▁материалов	-9.8567
лист	-9.8568
охран	-9.8568
верс	-9.8573
дея	-9.85739
▁думал	-9.85741
▁масштаб	-9.85752
PS	-9.85786
▁работают	-9.85825
▁шоу	-9.8583
▁корпус	-9.85885
например	-9.85888
держан	-9.85901
▁действие	-9.85933
▁$	-9.85938
▁используются	-9.85967
▁знает	-9.86071
▁форме	-9.86084
▁интернет	-9.86098
▁спас	-9.8611
нение	-9.86114
блок	-9.86125
мес	-9.86159
▁исследование	-9.8616
голов	-9.86166
▁территории	-9.86179
ушка	-9.86207
▁расширен	-9.86209
▁доктор	-9.86217
▁другое	-9.86235
щу	-9.86309
алась	-9.86323
▁правила	-9.86324
▁аспект	-9.86359
ступил	-9.86371
▁сможете	-9.86391
▁процедур	-9.86403
▁разные	-9.86416
▁руко	-9.86429
▁искусств	-9.86511
НИ	-9.86558
tr	-9.86574
рожден	-9.86587
▁Эл	-9.86644
▁смог	-9.86657
грамм	-9.86722
▁применя	-9.86878
Мы	-9.86885
▁изготовлен	-9.86889
▁той	-9.86916
▁тай	-9.86931
прям	-9.87069
ступления	-9.87087
▁суб	-9.87121
меща	-9.87182
бес	-9.87185
зре	-9.87197
вей	-9.87209
етки	-9.87228
▁бан	-9.87239
▁бассейн	-9.8725
▁x	-9.87259
▁груд	-9.87283
▁жир	-9.87315
▁повышен	-9.87315
кое	-9.8732
рам	-9.87325
яг	-9.87379
▁радио	-9.87383
тяжел	-9.87494
▁бит	-9.87542
▁выполня	-9.87576
▁принять	-9.87664
▁другого	-9.87674
▁признан	-9.8771
инд	-9.8771
▁Ста	-9.87719
▁контроля	-9.87772
ике	-9.87843
емый	-9.87876
▁привести	-9.87893
енными	-9.87961
▁интерфейс	-9.87982
▁цены	-9.87991
▁предоставляет	-9.87997
ическими	-9.88105
▁успех	-9.88205
▁электронной	-9.8822
▁виду	-9.88297
▁атак	-9.88325
AR	-9.88333
▁сохранен	-9.88337
вор	-9.88346
правлен	-9.88376
▁Ти	-9.8838
▁впервые	-9.88407
▁полезны	-9.88413
▁мальчик	-9.88452
дей	-9.88483
▁успешно	-9.88491
▁гал	-9.88496
▁граф	-9.88523
▁сервис	-9.88632
оф	-9.88635
ключения	-9.88665
▁форму	-9.88667
\	-9.88675
бран	-9.8872
▁потеря	-9.88727
▁необходимы	-9.88808
АТ	-9.88815
▁рассказ	-9.88819
▁будем	-9.88843
▁называ	-9.88862
ивается	-9.88872
▁Хар	-9.88913
печ	-9.88957
зе	-9.88972
▁прекрасно	-9.88975
▁стоя	-9.88984
▁поставщик	-9.89013
консульт	-9.89095
▁памяти	-9.89095
▁первую	-9.89133
▁спрос	-9.89151
▁продукта	-9.89172
▁параметр	-9.89181
чения	-9.89247
▁огранич	-9.89269
▁новым	-9.89275
▁студент	-9.89367
▁используют	-9.89385
▁Вер	-9.89436
виде	-9.89437
мп	-9.89481
▁Mo	-9.8949
марк	-9.89519
сор	-9.89523
▁объедин	-9.89525
▁пользователей	-9.89567
чные	-9.89574
▁организм	-9.89661
▁скоро	-9.89705
▁маршрут	-9.89736
▁размера	-9.89778
▁стиль	-9.89861
▁версии	-9.89862
▁добавлен	-9.89921
▁топлив	-9.89942
▁масло	-9.89944
▁нашим	-9.89973
▁разделе	-9.90011
стин	-9.90017
яс	-9.90066
руб	-9.90162
щими	-9.90172
▁двор	-9.90191
▁привлек	-9.90238
вис	-9.90291
▁функция	-9.90304
ST	-9.90326
▁команда	-9.90331
▁положение	-9.90383
дается	-9.9039
ID	-9.90483
▁показал	-9.90502
▁мат	-9.90507
▁согласи	-9.90544
▁кофе	-9.90555
дут	-9.90573
▁самой	-9.90638
▁используя	-9.9067
▁Даже	-9.90798
кре	-9.90832
▁поддерживает	-9.90832
щи	-9.90849
▁ново	-9.90859
▁произведен	-9.90866
▁моего	-9.90866
информ	-9.90938
▁эксперт	-9.90954
троп	-9.90992
▁график	-9.91048
глашен	-9.91053
▁сыр	-9.91062
ive	-9.91084
▁бюджет	-9.91098
▁книги	-9.91099
АР	-9.91118
▁первым	-9.91142
▁аэропорт	-9.91162
▁земле	-9.9117
▁ваше	-9.91171
▁намного	-9.91206
▁покрыт	-9.91349
▁крови	-9.9137
▁действий	-9.9141
▁готовы	-9.91415
▁которыми	-9.91442
▁поможет	-9.91443
▁сектор	-9.91488
▁выглядит	-9.91506
▁людям	-9.91513
▁вниз	-9.91525
▁Европе	-9.91558
▁странах	-9.91566
ствие	-9.91569
▁недавно	-9.91588
ируются	-9.91595
▁годов	-9.91623
цов	-9.91649
дом	-9.9166
тяг	-9.9166
тик	-9.91731
▁нос	-9.91774
ивают	-9.9179
▁веществ	-9.91855
▁недели	-9.91874
сона	-9.91931
рю	-9.91941
пан	-9.91946
▁семь	-9.91957
стон	-9.92077
▁кан	-9.92105
▁профессионал	-9.92123
▁бок	-9.92203
▁хороший	-9.92205
▁протяжении	-9.92208
физ	-9.92247
пуст	-9.92268
фун	-9.92313
▁знаете	-9.9232
▁ситуации	-9.92347
▁настройки	-9.9235
▁доступа	-9.92351
▁оборудования	-9.92382
▁районе	-9.92404
▁согласно	-9.92442
фил	-9.92462
▁каб	-9.92465
рын	-9.92548
▁давление	-9.92583
▁состояния	-9.92638
▁лог	-9.92642
▁пут	-9.92664
▁мам	-9.92697
▁порядке	-9.92699
▁of	-9.92738
▁сообщение	-9.9281
▁отлича	-9.9283
▁этап	-9.92856
▁возрасте	-9.92894
ируйте	-9.92895
▁Или	-9.92902
▁автомобиля	-9.92947
he	-9.92973
▁штата	-9.92974
анн	-9.9298
▁s	-9.92984
ированные	-9.9301
ограф	-9.93012
▁спин	-9.93016
овыми	-9.93098
ими	-9.93099
▁принял	-9.93184
площад	-9.93188
▁оборудование	-9.93223
▁никаких	-9.93236
положитель	-9.9328
▁руководство	-9.93299
▁вернуться	-9.93342
▁супер	-9.93364
кин	-9.93375
▁обнаружил	-9.93408
▁мая	-9.93537
жил	-9.9355
чных	-9.93555
▁НА	-9.93576
опыт	-9.93597
▁передач	-9.93622
▁фонд	-9.93633
плод	-9.93673
енное	-9.93739
▁машины	-9.93754
пустить	-9.93773
▁гости	-9.93801
▁сих	-9.93817
▁власти	-9.93818
тура	-9.93847
▁неделю	-9.93871
паков	-9.93883
цвет	-9.93923
▁люблю	-9.93938
▁обрати	-9.93954
▁Стра	-9.94043
▁De	-9.94055
▁самолет	-9.94071
пра	-9.94121
личные	-9.94147
▁скорости	-9.94183
................	-9.94194
▁часа	-9.94246
ЕТ	-9.94247
работка	-9.94257
прежнему	-9.94298
▁добавить	-9.94351
▁центра	-9.94367
io	-9.9438
тир	-9.94413
▁Конечно	-9.94441
▁кап	-9.94461
av	-9.9448
изация	-9.94522
фин	-9.94546
▁ещё	-9.94576
▁роман	-9.94589
▁море	-9.94704
сторон	-9.94719
явление	-9.94821
▁Несмотря	-9.94886
▁отзыв	-9.949
▁Джо	-9.94932
▁своему	-9.94971
▁сотрудников	-9.95007
▁сверх	-9.9508
▁подробно	-9.95082
аты	-9.95087
▁анализа	-9.95127
▁Ги	-9.95137
▁случаев	-9.95155
▁нужны	-9.95156
ооружен	-9.95295
▁особо	-9.95358
инга	-9.95363
▁отдельно	-9.95507
▁следующий	-9.95629
гляд	-9.95657
▁компаний	-9.95669
▁забот	-9.95671
▁жертв	-9.95676
▁людьми	-9.95677
▁Инди	-9.9573
▁креп	-9.95734
имо	-9.95761
евого	-9.95771
▁возраст	-9.95844
▁жест	-9.95881
▁здоров	-9.95883
еро	-9.95885
▁провел	-9.95898
▁спор	-9.95915
▁травм	-9.95917
▁события	-9.95952
▁предложен	-9.96013
▁внешне	-9.96102
носить	-9.96122
▁позже	-9.96129
▁завершен	-9.9617
▁серии	-9.96203
’	-9.96248
шку	-9.96266
▁достижения	-9.96296
▁вашем	-9.96299
▁налог	-9.96302
дя	-9.96303
▁стимул	-9.9633
▁Тур	-9.96336
▁спектр	-9.96392
ord	-9.96416
▁шар	-9.96477
ьной	-9.96485
▁фе	-9.9651
▁никто	-9.96549
чая	-9.96578
▁концов	-9.96583
AC	-9.96705
ang	-9.96708
иков	-9.9672
вала	-9.96748
▁обработки	-9.96758
▁опасно	-9.96763
▁отрица	-9.96767
▁размещен	-9.96791
боль	-9.96812
▁необходим	-9.96813
oc	-9.96855
▁высоким	-9.96864
Националь	-9.96878
tion	-9.96879
▁авиа	-9.96879
▁большие	-9.96923
▁секрет	-9.96926
▁запад	-9.96964
▁предложения	-9.96987
▁ПО	-9.9701
▁физически	-9.97142
CO	-9.9715
▁частности	-9.9718
мед	-9.97255
▁страда	-9.97259
ификации	-9.9726
▁новую	-9.97298
генер	-9.97343
остью	-9.97346
ожида	-9.97368
▁Комп	-9.97396
▁Спасибо	-9.97416
▁будете	-9.97421
▁Компания	-9.97459
терп	-9.9747
партамент	-9.97473
шая	-9.97508
курс	-9.97521
нием	-9.97571
▁первом	-9.97578
▁затрат	-9.97619
▁дать	-9.97634
▁Sp	-9.97646
▁весел	-9.97711
▁программа	-9.97819
▁зло	-9.97824
▁непосредственно	-9.97842
нную	-9.9785
▁объявлен	-9.97851
ражение	-9.97856
if	-9.9788
▁карты	-9.97912
ОД	-9.97912
колон	-9.97942
скому	-9.97966
унд	-9.97984
зелен	-9.9799
убийств	-9.98046
крыл	-9.98048
ивая	-9.98069
▁итоге	-9.98077
▁духов	-9.98086
кур	-9.981
▁Мор	-9.98161
▁эффективны	-9.982
▁процессе	-9.98205
▁След	-9.98205
бега	-9.98219
▁датчик	-9.98293
дание	-9.98311
▁внимания	-9.98314
▁слово	-9.98364
▁конца	-9.98387
▁целей	-9.98402
▁исчез	-9.98409
▁Эн	-9.98497
международн	-9.98498
очного	-9.98503
▁нормально	-9.98596
▁Ar	-9.98662
▁назван	-9.98666
ждения	-9.9868
зин	-9.98685
▁понял	-9.98696
▁историю	-9.98728
▁улучшен	-9.98772
pp	-9.98774
маз	-9.98793
ho	-9.98799
▁технически	-9.98803
▁атмосфер	-9.98822
▁результатов	-9.98849
▁материала	-9.98901
▁настолько	-9.98914
опо	-9.98943
▁распределен	-9.9912
пин	-9.9918
кажу	-9.99197
▁выражен	-9.99284
ack	-9.99292
четверт	-9.99356
евых	-9.99356
AS	-9.99403
▁аппарат	-9.99487
▁вино	-9.99611
▁временем	-9.99618
шего	-9.99669
игра	-9.9975
ou	-9.99754
▁далеко	-9.99867
▁Май	-9.99873
фиц	-9.9997
▁политики	-9.99973
▁охран	-9.99991
▁улыб	-9.99995
AT	-10.0002
▁обновлен	-10.0003
na	-10.0006
▁Авто	-10.0006
дь	-10.0007
▁альтернатив	-10.0007
{	-10.0012
ьер	-10.0014
?»	-10.0017
▁обеспечение	-10.0018
://	-10.0018
▁рам	-10.0033
▁колледж	-10.0034
▁отдыха	-10.0035
▁псих	-10.0036
ленд	-10.004
▁сосед	-10.0041
lu	-10.0041
▁тут	-10.0043
▁способность	-10.0051
▁видим	-10.0055
▁привод	-10.0055
▁данный	-10.0059
▁деятельность	-10.006
▁вашим	-10.0063
▁эксперимент	-10.0065
▁Тер	-10.0071
ева	-10.0071
▁настроен	-10.0071
тип	-10.0072
www	-10.0072
▁несмотря	-10.0073
ca	-10.008
▁передачи	-10.0081
▁всеми	-10.009
подоб	-10.0091
инфекци	-10.0094
▁поддержку	-10.0098
▁назначен	-10.01
▁усилия	-10.0103
дво	-10.0107
мел	-10.011
▁ночь	-10.0113
▁хотят	-10.0116
▁образование	-10.0124
q	-10.0124
ity	-10.0124
ant	-10.0126
друг	-10.0126
▁работник	-10.0131
ировка	-10.0132
▁правительство	-10.0135
Fi	-10.0136
бри	-10.0138
▁дни	-10.0141
▁поиска	-10.0143
▁Ново	-10.0147
▁процентов	-10.0154
бир	-10.0157
сложн	-10.0157
▁мной	-10.016
▁пожалуйста	-10.0164
▁Стар	-10.0166
og	-10.0167
▁контракт	-10.017
ходил	-10.0176
▁воздуха	-10.0179
шек	-10.0185
▁угроз	-10.0186
▁поля	-10.0188
вшим	-10.0199
▁изменил	-10.0205
льц	-10.0206
тай	-10.0207
▁v	-10.0208
▁запуска	-10.0212
ующие	-10.0214
ску	-10.0214
▁руководит	-10.0218
▁Мал	-10.0219
тические	-10.0221
▁дальше	-10.0226
полага	-10.0231
▁минимум	-10.0231
▁дву	-10.0234
▁номера	-10.024
▁симптом	-10.024
▁снижен	-10.0244
природ	-10.0247
дорог	-10.0251
▁сожалению	-10.0252
▁операции	-10.0257
▁--	-10.0258
рад	-10.027
ироваться	-10.0271
▁выполнения	-10.0271
шеч	-10.0275
▁статус	-10.0275
▁клин	-10.0276
▁угол	-10.0284
вшего	-10.0284
пп	-10.0284
▁доказательств	-10.0286
тил	-10.0288
▁шанс	-10.0291
ha	-10.0292
▁невозможно	-10.0319
лиц	-10.0319
▁запас	-10.0319
▁отправля	-10.0326
▁Большинство	-10.0327
▁посмотреть	-10.0327
▁организация	-10.0327
▁наконец	-10.0328
кажите	-10.0328
pl	-10.033
▁последний	-10.0339
▁Мод	-10.0354
▁будущем	-10.0355
части	-10.0356
▁Закон	-10.0357
▁месяца	-10.0362
естествен	-10.0362
магнит	-10.0364
▁пару	-10.0366
▁шум	-10.0368
▁такими	-10.0378
▁Сол	-10.0382
▁Там	-10.0393
очная	-10.0393
▁встреч	-10.0404
no	-10.0405
▁считают	-10.0407
▁аналог	-10.0412
ik	-10.0413
▁Гу	-10.0413
бар	-10.0413
тян	-10.0416
▁признак	-10.0418
изу	-10.0419
▁выступа	-10.042
▁температуры	-10.0423
иваем	-10.0427
▁семье	-10.0431
▁статье	-10.0436
▁расчет	-10.0436
▁недостаточно	-10.0439
▁заболевания	-10.0443
строитель	-10.0444
комп	-10.0446
ированных	-10.0448
▁сообществ	-10.045
▁II	-10.0455
▁крут	-10.0462
общ	-10.0469
▁моем	-10.047
волю	-10.0471
тим	-10.0472
▁Чем	-10.0472
щения	-10.0475
▁Прав	-10.0478
трениров	-10.0478
класс	-10.0483
▁сделали	-10.0487
▁решений	-10.0489
тверд	-10.049
шем	-10.0495
ock	-10.0502
чувств	-10.0513
ft	-10.0519
ицей	-10.0519
▁берег	-10.052
тельным	-10.0521
ve	-10.0528
▁Вас	-10.0529
▁ход	-10.0532
▁сторону	-10.0532
ставьте	-10.0534
▁Гер	-10.0538
▁удалось	-10.0538
▁панели	-10.0541
▁серьезно	-10.0547
▁глубоко	-10.0548
▁Br	-10.0548
!!!	-10.0552
▁студентов	-10.0554
▁вашу	-10.0559
▁элементы	-10.0566
▁возраста	-10.0568
ru	-10.0572
ist	-10.0576
▁ресурсов	-10.0577
дор	-10.0577
дешев	-10.0579
▁написал	-10.0582
ица	-10.0582
ставлять	-10.0583
▁оператор	-10.0587
еров	-10.0588
▁чисто	-10.0588
▁миру	-10.0589
чес	-10.0589
ob	-10.059
селен	-10.0591
изацию	-10.0592
Основ	-10.0592
серьез	-10.0598
столь	-10.0599
лаж	-10.0601
началь	-10.0601
▁украшен	-10.0602
дца	-10.0606
▁домой	-10.0607
▁художник	-10.061
▁заявлен	-10.061
▁технологий	-10.061
▁страх	-10.0614
▁дожд	-10.0615
▁матч	-10.0619
▁получили	-10.062
▁жить	-10.0629
бен	-10.0631
▁понимаю	-10.0633
MA	-10.0636
▁выберите	-10.0636
ОБ	-10.0636
учить	-10.0641
▁относится	-10.0642
▁числа	-10.0645
▁применения	-10.0647
▁моих	-10.0647
▁показ	-10.0649
▁вещей	-10.0649
специ	-10.0654
▁увидел	-10.0654
стар	-10.0659
▁шесть	-10.066
▁фигур	-10.0664
▁рассмотрен	-10.0669
нным	-10.067
▁поводу	-10.0671
ительным	-10.0674
свет	-10.0675
план	-10.0676
сут	-10.0682
ЛИ	-10.0684
▁взял	-10.0686
▁нужда	-10.0687
▁Чи	-10.0689
тый	-10.0691
▁вызывает	-10.0694
тики	-10.0698
▁Дом	-10.0699
▁произошло	-10.07
▁бег	-10.0702
сок	-10.0702
техник	-10.0705
реш	-10.0708
▁Именно	-10.071
▁явля	-10.0712
ff	-10.0713
▁определения	-10.0714
▁прекрасны	-10.0714
▁пользователь	-10.0715
▁продукции	-10.0719
▁Q	-10.0723
▁больших	-10.0726
изатор	-10.0726
чка	-10.0745
pe	-10.0746
▁заряд	-10.0749
▁оценив	-10.0749
▁общего	-10.0751
▁Игр	-10.0753
▁общей	-10.0755
пел	-10.0756
▁Кри	-10.0757
▁каса	-10.0758
▁играет	-10.0763
▁рабочих	-10.0764
лении	-10.0771
ющем	-10.0778
▁лучший	-10.0782
▁предложение	-10.0783
зыв	-10.0788
▁дал	-10.0791
▁сначала	-10.0794
▁такая	-10.08
▁элементов	-10.0805
▁пита	-10.0809
▁изменение	-10.0813
▁цветов	-10.0814
MS	-10.0817
таль	-10.0817
▁продолжа	-10.0821
▁отсутствие	-10.0828
рач	-10.0832
вели	-10.0832
▁Гре	-10.0834
▁сцена	-10.0835
▁кадр	-10.0836
▁сокращен	-10.0836
ицы	-10.0837
ателей	-10.0837
останов	-10.0839
▁черно	-10.0839
казал	-10.0841
▁название	-10.0841
▁следующем	-10.0844
▁куда	-10.0847
кач	-10.0849
▁перспектив	-10.0849
▁Тогда	-10.0849
▁семья	-10.085
ta	-10.0856
хан	-10.0857
▁француз	-10.0859
ON	-10.086
обеспечив	-10.0864
ОМ	-10.0867
пущен	-10.0867
▁запись	-10.0868
оид	-10.087
▁клеток	-10.0877
конча	-10.0877
▁Между	-10.0879
▁колес	-10.0885
▁телевизор	-10.0886
▁альбом	-10.0888
▁обучение	-10.0888
ложил	-10.0889
▁простой	-10.0889
▁языка	-10.0891
дин	-10.0893
гад	-10.0894
▁ваша	-10.0898
▁приведен	-10.0899
▁мер	-10.091
▁занимает	-10.0911
▁общества	-10.0912
▁знания	-10.0914
ьян	-10.0916
▁ответственность	-10.0917
ey	-10.0918
▁верну	-10.0922
ллер	-10.0923
мол	-10.0926
▁Запад	-10.0927
▁версия	-10.0928
▁дух	-10.0929
▁обращен	-10.0929
▁совместно	-10.0931
▁движение	-10.0936
SA	-10.0944
▁Сп	-10.0944
вались	-10.0944
▁условий	-10.0945
▁хозяйств	-10.0947
ОТ	-10.0948
телю	-10.0948
▁придется	-10.0951
▁Экс	-10.0956
▁сайте	-10.0958
▁секс	-10.096
▁разговор	-10.096
SD	-10.0961
▁чаще	-10.0964
▁Одно	-10.0969
▁недель	-10.097
▁требования	-10.0971
▁менеджер	-10.0976
адапт	-10.0977
▁Север	-10.0977
▁млн	-10.0977
Христ	-10.0978
▁окружающей	-10.098
свеж	-10.0982
▁Лю	-10.0985
▁прогноз	-10.0986
<	-10.0986
чика	-10.0988
иан	-10.1
▁отказа	-10.1005
tor	-10.1007
▁Джей	-10.1011
ue	-10.1014
▁вопросов	-10.1014
ight	-10.102
хар	-10.1021
помни	-10.1021
▁хранения	-10.1025
▁степень	-10.1027
▁интересно	-10.103
сып	-10.1034
▁обслуживания	-10.1036
▁методы	-10.1038
▁страхов	-10.1042
ведите	-10.1043
ированный	-10.1046
▁Иисус	-10.1047
▁никак	-10.1049
▁давления	-10.105
истов	-10.1052
▁Мин	-10.1056
точн	-10.106
бить	-10.1067
▁Ее	-10.107
атора	-10.107
дже	-10.107
▁Пожалуйста	-10.1072
▁перво	-10.1075
▁рынок	-10.1075
▁облегч	-10.1077
ированы	-10.1078
▁птиц	-10.108
▁Мэ	-10.108
мар	-10.1086
щет	-10.1089
праздн	-10.1091
▁высокого	-10.1091
тического	-10.1092
▁июня	-10.1093
▁пользова	-10.1103
▁разработки	-10.1104
работал	-10.1108
кажет	-10.111
▁вред	-10.111
▁сахар	-10.1113
▁социальных	-10.1116
джи	-10.1118
▁Было	-10.112
▁момента	-10.1134
▁турист	-10.1139
▁гол	-10.1142
структ	-10.1143
очным	-10.1145
SS	-10.1146
кость	-10.1147
▁{	-10.1147
▁регистр	-10.1148
гли	-10.1153
▁контекст	-10.1155
▁Эд	-10.1157
▁измерения	-10.1158
оген	-10.1159
ess	-10.1162
▁наград	-10.1164
тинг	-10.1166
▁связано	-10.1172
iz	-10.1175
имся	-10.1175
▁политически	-10.1177
▁Благодаря	-10.118
—	-10.1181
орд	-10.1182
▁утвержден	-10.1184
осозна	-10.1186
ительных	-10.1189
▁цена	-10.119
▁еже	-10.1195
▁изменений	-10.1198
▁конфликт	-10.1202
▁переключ	-10.1202
цер	-10.1202
▁мета	-10.1206
▁названием	-10.1207
чить	-10.1208
▁кино	-10.1208
▁фоне	-10.1209
▁Бен	-10.121
▁дополнительные	-10.1212
ak	-10.1217
man	-10.1222
▁держа	-10.1227
▁новое	-10.1228
▁водой	-10.1229
▁пан	-10.1231
▁ученик	-10.1233
акция	-10.1236
летний	-10.1237
возможны	-10.1238
▁здоровье	-10.1241
RE	-10.1242
▁принимать	-10.1243
▁положения	-10.1247
▁выгод	-10.1247
▁меры	-10.1248
▁IP	-10.1252
▁and	-10.1253
▁контент	-10.1253
▁спасибо	-10.1254
▁школе	-10.1258
пет	-10.1259
br	-10.126
ass	-10.1265
▁материалы	-10.1266
▁правительства	-10.1271
РИ	-10.1278
▁связанные	-10.128
дук	-10.1281
уса	-10.1283
▁посвящен	-10.1291
▁ситуация	-10.1292
▁отличие	-10.1297
превосход	-10.1297
▁предприятия	-10.1298
▁дороги	-10.1299
ТЕ	-10.13
▁Оп	-10.1301
▁фаз	-10.1301
чать	-10.1303
ьев	-10.1304
▁мероприятия	-10.1312
защища	-10.132
▁Перед	-10.1321
▁сохранить	-10.1323
▁выбора	-10.1325
▁Ок	-10.1333
СП	-10.1333
▁Выберите	-10.1335
▁сами	-10.1336
телем	-10.1338
▁пространство	-10.1339
▁округ	-10.1339
▁называем	-10.1343
евр	-10.1343
ox	-10.1347
▁хотели	-10.1349
▁Гар	-10.135
▁марта	-10.1352
▁благодар	-10.1359
Не	-10.136
▁небольшой	-10.1361
▁любви	-10.1363
▁удобно	-10.1364
ite	-10.1365
▁проявля	-10.1368
▁проверки	-10.1371
▁Был	-10.1372
▁нерв	-10.1377
Щ	-10.1379
▁поведение	-10.1384
▁Тор	-10.1384
▁отеля	-10.1387
телями	-10.1387
▁следующих	-10.1391
▁земли	-10.1394
▁связанных	-10.1395
):	-10.1398
▁впечатл	-10.1404
камер	-10.1407
▁считает	-10.1407
ОС	-10.1407
▁сфере	-10.141
▁каким	-10.1413
▁неделе	-10.1414
ъя	-10.1414
▁успе	-10.1416
▁содержание	-10.1416
За	-10.1422
▁приложений	-10.1424
▁создание	-10.1425
бург	-10.1427
▁привет	-10.1428
жать	-10.1433
▁вполне	-10.1436
двойн	-10.1445
способ	-10.1448
▁баланс	-10.145
▁освещен	-10.1451
▁соответствует	-10.1453
ичным	-10.1453
▁вверх	-10.1455
CA	-10.1456
▁умолчанию	-10.1466
▁игре	-10.1469
[	-10.1471
▁наслед	-10.1472
ber	-10.1478
▁Фото	-10.1479
RA	-10.148
▁аромат	-10.1481
▁основные	-10.1481
▁блог	-10.1486
евым	-10.1489
▁выполнять	-10.149
▁маркетинг	-10.149
▁обязательств	-10.149
▁велосипед	-10.1499
▁коммун	-10.15
цами	-10.1502
технолог	-10.1509
▁Ex	-10.1512
дюйм	-10.1513
▁An	-10.1515
▁Три	-10.1516
up	-10.1517
▁платеж	-10.1518
▁провести	-10.1528
▁школьн	-10.1529
▁надежно	-10.1534
работан	-10.1538
▁конечном	-10.1543
▁Суд	-10.1551
▁Цвет	-10.1553
eg	-10.1554
▁вирус	-10.1556
▁Ro	-10.1556
▁сентября	-10.1557
ине	-10.1566
▁целях	-10.1568
▁дополнительно	-10.1575
▁могла	-10.1577
▁Кан	-10.158
▁представляют	-10.1581
▁красот	-10.1584
▁возможностей	-10.1586
▁Обычно	-10.1586
▁продолжает	-10.1592
▁мысли	-10.1594
▁преврати	-10.1598
▁свойства	-10.1602
▁низко	-10.1605
▁использовали	-10.1612
▁начали	-10.1612
▁воду	-10.1618
ывается	-10.162
▁апреля	-10.1622
uc	-10.1623
bo	-10.1624
end	-10.1631
▁официально	-10.1636
di	-10.1637
▁приятно	-10.1641
монт	-10.1645
▁Порт	-10.1646
▁подтвержден	-10.1646
мерт	-10.1646
iv	-10.1647
▁предлагаем	-10.1651
очку	-10.1653
▁Согласно	-10.1663
▁группе	-10.1665
▁какое	-10.1668
▁склон	-10.1673
оваться	-10.1677
ресурс	-10.1681
▁размере	-10.1686
Cl	-10.1686
one	-10.169
▁понрави	-10.169
▁Ман	-10.1694
▁заключен	-10.1696
▁жар	-10.1697
▁маг	-10.1698
▁рождения	-10.1706
▁считается	-10.1706
▁Al	-10.171
▁охват	-10.1712
волок	-10.1714
▁мл	-10.1714
▁света	-10.1726
косм	-10.1727
леж	-10.1731
▁глубин	-10.1736
▁увеличение	-10.1737
▁волосы	-10.1741
джер	-10.1741
▁мотив	-10.1755
&	-10.1756
тических	-10.1757
▁нами	-10.1757
int	-10.1759
▁Индии	-10.176
▁основа	-10.1761
▁давно	-10.1762
емой	-10.1763
▁Марк	-10.1765
▁инженер	-10.1765
ng	-10.1766
▁основной	-10.1767
вай	-10.1769
▁реализации	-10.1769
▁присоедини	-10.1773
енную	-10.1774
▁Среди	-10.1776
▁виды	-10.1778
per	-10.1779
▁оснащен	-10.1779
▁редко	-10.1779
город	-10.178
▁Гор	-10.178
▁участников	-10.1782
▁будто	-10.1783
разреш	-10.1784
▁членов	-10.1784
▁стороне	-10.1784
▁мг	-10.1786
фик	-10.1789
▁государства	-10.1792
▁приготовлен	-10.1796
ировании	-10.1797
▁Другие	-10.1797
енность	-10.1801
▁указывает	-10.1801
▁большей	-10.1802
щин	-10.1803
▁взять	-10.1804
тали	-10.1804
плач	-10.1806
▁фунтов	-10.1806
▁Какие	-10.1807
ast	-10.1807
▁спросил	-10.1808
▁проверить	-10.181
▁цар	-10.1811
▁здравоохранения	-10.1816
вшие	-10.1825
ark	-10.1826
▁почв	-10.183
▁думает	-10.1831
▁плох	-10.1837
®	-10.1839
ty	-10.1841
▁идея	-10.1842
▁среду	-10.1843
▁двигателя	-10.1848
доволь	-10.1858
временно	-10.1863
▁фильма	-10.1869
тической	-10.1869
Й	-10.1871
▁масла	-10.1873
против	-10.1873
сил	-10.1881
▁лечение	-10.1884
▁поддерживать	-10.1886
▁http	-10.1893
ov	-10.1898
▁искусства	-10.1898
▁рейтинг	-10.1899
▁получать	-10.19
▁ведь	-10.1901
▁резерв	-10.1903
▁архитектур	-10.1908
бан	-10.1911
▁ха	-10.1911
ace	-10.1911
▁Нажмите	-10.1913
▁Лондон	-10.1915
▁Сейчас	-10.1916
ласт	-10.1924
▁производство	-10.1927
▁периода	-10.1928
▁друзей	-10.1931
▁избежать	-10.1931
▁социально	-10.1931
▁гидро	-10.1932
son	-10.1933
ошел	-10.1937
▁нашу	-10.1942
▁считал	-10.1947
категори	-10.1949
SE	-10.195
▁ребенок	-10.1954
▁шести	-10.1964
бактери	-10.1965
▁наличие	-10.1969
длительн	-10.1972
▁опер	-10.1972
▁Нор	-10.1973
▁регулярно	-10.1979
▁Университет	-10.198
работать	-10.1983
▁окна	-10.1987
AL	-10.1996
▁Уильям	-10.1999
▁друзья	-10.2005
спир	-10.2009
▁позволяют	-10.2009
▁первых	-10.2014
стям	-10.2015
▁проведения	-10.2018
▁решить	-10.2021
щение	-10.2022
▁открыл	-10.2023
▁существу	-10.2026
▁создает	-10.2032
▁файлов	-10.2035
силь	-10.2038
ифицирован	-10.2039
яются	-10.204
▁пациент	-10.2041
ницу	-10.2044
▁смотреть	-10.2049
ame	-10.2051
здрав	-10.2054
практик	-10.2055
ичные	-10.2056
луча	-10.2064
▁Вид	-10.2066
▁подключен	-10.2067
EN	-10.2069
▁оригинал	-10.2069
▁Программ	-10.2073
▁институт	-10.2083
индивидуал	-10.2086
вернуть	-10.2087
▁каких	-10.209
лый	-10.2091
▁меж	-10.2098
▁любое	-10.2099
▁быстрее	-10.21
▁пришлось	-10.2104
▁представление	-10.2104
sp	-10.2105
▁Бога	-10.2107
▁добро	-10.2109
▁вызван	-10.211
европе	-10.211
▁Дол	-10.2113
правляю	-10.212
▁шаблон	-10.2122
энергет	-10.2127
▁обсужден	-10.2133
соединен	-10.2133
▁преимуществ	-10.2136
ящие	-10.2139
▁проблему	-10.2143
SP	-10.2144
▁сообща	-10.2145
▁кандидат	-10.2152
▁пластик	-10.2162
▁Иногда	-10.2164
▁функций	-10.2164
▁лице	-10.2164
тракт	-10.2167
▁удел	-10.2171
ИС	-10.2172
▁балл	-10.2174
уйте	-10.2177
▁Наши	-10.218
▁интервью	-10.2181
▁область	-10.2182
▁продолжать	-10.2185
▁рецепт	-10.2189
тический	-10.2191
обла	-10.2192
▁Люди	-10.2192
▁Вен	-10.2192
▁сочета	-10.2197
▁союз	-10.22
учил	-10.2205
▁ясно	-10.2212
▁трав	-10.2215
▁тренер	-10.2217
▁задачи	-10.2219
тре	-10.2219
▁декабря	-10.222
▁показано	-10.2221
RO	-10.2223
▁файлы	-10.2229
▁создавать	-10.223
▁коллег	-10.223
ОЛ	-10.2233
▁идеи	-10.2234
▁полезно	-10.2234
▁мощность	-10.2237
▁расходы	-10.2246
US	-10.2254
▁слаб	-10.2258
▁Рай	-10.2259
▁мышц	-10.2265
▁местах	-10.2277
▁единиц	-10.228
▁Мой	-10.2284
съем	-10.2286
вшей	-10.2287
поз	-10.2288
ail	-10.229
свидетельств	-10.2295
▁соответственно	-10.2295
▁машина	-10.2297
▁девушка	-10.2297
▁костюм	-10.2298
уголь	-10.2302
▁аудитор	-10.2303
▁сеть	-10.2304
▁января	-10.2313
комнат	-10.232
▁здания	-10.232
▁популярно	-10.2322
▁начало	-10.2325
are	-10.2332
анта	-10.2335
душ	-10.2337
mo	-10.2337
влеч	-10.2338
▁актер	-10.2339
ld	-10.235
▁расти	-10.2353
▁бур	-10.2357
▁товаров	-10.2359
провод	-10.2376
стратег	-10.238
▁изменен	-10.2382
▁старше	-10.2385
AM	-10.2387
▁последствия	-10.2389
тика	-10.2389
лиш	-10.239
пеш	-10.239
строен	-10.2395
▁объектов	-10.2396
IS	-10.2396
▁видом	-10.2398
▁исключительно	-10.2405
▁урок	-10.2407
▁охлажд	-10.2408
▁экспорт	-10.2411
▁бог	-10.2414
электрон	-10.2422
▁представить	-10.2422
▁детали	-10.2424
▁средство	-10.2425
ателем	-10.2426
▁добавил	-10.243
▁стресс	-10.243
▁полный	-10.2439
▁прибор	-10.244
ционально	-10.244
▁доз	-10.2441
▁инноваци	-10.2441
▁сердца	-10.2445
▁важным	-10.245
▁туда	-10.2451
операцион	-10.2455
▁использоваться	-10.2459
гип	-10.2459
▁связаны	-10.2468
ib	-10.2472
ывая	-10.2473
▁отправил	-10.2473
▁отношение	-10.2482
▁гео	-10.2484
▁соединения	-10.2486
▁июля	-10.2487
▁большого	-10.2487
ске	-10.2488
▁закончил	-10.2489
ТА	-10.249
▁комитет	-10.2499
▁начинает	-10.2499
▁тяжело	-10.2499
▁дверь	-10.25
▁программу	-10.2504
ством	-10.2507
хрон	-10.2514
важ	-10.2515
▁вопросам	-10.2518
ore	-10.2521
▁повыша	-10.2522
▁инструментов	-10.253
▁воспроиз	-10.2531
воль	-10.2532
▁обслужива	-10.2533
▁плеч	-10.2535
падает	-10.2539
▁христиан	-10.254
▁служит	-10.2544
▁климат	-10.2546
▁свойств	-10.2547
III	-10.2547
менять	-10.2553
▁категории	-10.2555
спект	-10.2556
ственный	-10.2566
инвест	-10.2568
▁Дев	-10.257
хлоп	-10.2571
▁явно	-10.2572
очеред	-10.2575
▁уменьшен	-10.2576
▁обвинен	-10.2577
▁оружие	-10.2581
схем	-10.2582
ствовал	-10.2584
▁октября	-10.2587
▁опубликован	-10.2592
болезн	-10.2593
▁ответил	-10.2593
▁Результат	-10.2594
▁сайта	-10.2599
▁эффективность	-10.26
▁располага	-10.2604
▁ошибки	-10.2607
жига	-10.2609
▁Ad	-10.2609
▁церкви	-10.2613
%)	-10.2615
▁Мер	-10.2618
▁обслуживание	-10.2622
ительной	-10.2623
▁ныне	-10.2631
▁проходит	-10.2633
▁предупрежд	-10.2634
▁получают	-10.2635
становлен	-10.2641
левой	-10.2644
емого	-10.2646
▁первые	-10.2647
▁театр	-10.2648
тическая	-10.2648
▁стоимости	-10.2652
▁юг	-10.2653
▁инди	-10.2655
▁встроен	-10.2656
▁вырос	-10.2657
звуч	-10.2659
чел	-10.2661
▁труда	-10.2668
▁делал	-10.2671
▁проектов	-10.2673
▁абсолютно	-10.2677
▁Gr	-10.268
▁Пример	-10.2682
▁обстоятельств	-10.2683
▁проводить	-10.2686
гал	-10.2686
▁ткани	-10.2691
▁статьи	-10.2692
▁преподава	-10.2692
талкива	-10.2693
▁представлены	-10.2695
▁самая	-10.2704
▁которому	-10.2705
▁поверхность	-10.2706
▁формул	-10.2712
IC	-10.2714
▁следующим	-10.2719
▁характеристики	-10.2726
Канад	-10.2729
▁посредством	-10.2729
▁любые	-10.2731
ометр	-10.2731
ющийся	-10.2738
вязан	-10.2742
▁знаменит	-10.2743
▁ходе	-10.2743
▁Используйте	-10.2749
▁автобус	-10.2753
▁позволит	-10.2754
▁Крис	-10.2754
▁применение	-10.2759
▁дорого	-10.276
▁брак	-10.2766
▁мое	-10.2768
▁вечером	-10.2772
▁моно	-10.2773
▁Добав	-10.2773
▁автомобилей	-10.2774
▁перенос	-10.2774
▁квадрат	-10.2778
▁Тип	-10.2785
вад	-10.2787
▁успеха	-10.2788
▁местных	-10.2788
влечь	-10.2789
лес	-10.279
крыть	-10.2791
взросл	-10.2792
▁совершен	-10.2792
▁ти	-10.2793
сылка	-10.2794
▁начинается	-10.2796
▁тщательно	-10.2797
ix	-10.2798
▁Кур	-10.2799
▁слышал	-10.2801
▁языке	-10.2802
DA	-10.2804
▁упомина	-10.2806
▁британ	-10.2811
▁данном	-10.2812
линг	-10.2815
▁узнал	-10.2817
▁психолог	-10.2819
▁оказыва	-10.2824
эль	-10.2825
имость	-10.2827
пись	-10.2831
▁боли	-10.2834
тельная	-10.2836
▁площадь	-10.2842
▁окно	-10.2843
лаб	-10.2844
ящих	-10.2849
тельной	-10.285
форд	-10.2851
▁требуют	-10.2852
▁винт	-10.2855
▁Джеймс	-10.2859
▁содержат	-10.2859
▁Джордж	-10.286
кот	-10.2861
▁показывают	-10.2862
▁Le	-10.2862
▁статья	-10.2863
▁Новый	-10.2871
пил	-10.2872
▁двери	-10.2873
сылки	-10.2874
▁корм	-10.2877
▁помещен	-10.2879
▁лучшим	-10.2885
▁игроков	-10.2886
▁навык	-10.2886
▁жидко	-10.2887
ываем	-10.2889
▁отправить	-10.289
IT	-10.2891
▁самостоятельно	-10.2896
▁удовлетворен	-10.2903
▁USB	-10.2907
▁команду	-10.291
ly	-10.2911
▁отношений	-10.2914
▁пожар	-10.2916
обрат	-10.2916
▁изучен	-10.2926
▁называется	-10.2926
эконом	-10.2928
our	-10.2929
▁исключением	-10.293
▁Син	-10.2933
▁смотрит	-10.294
▁осуществл	-10.2942
грев	-10.2942
▁Аб	-10.2946
▁расход	-10.295
▁эффективности	-10.2962
▁называют	-10.297
▁последнее	-10.2971
сухо	-10.2971
▁странице	-10.2971
цем	-10.2973
▁выделен	-10.2973
~	-10.2974
▁округа	-10.2976
▁отметить	-10.2977
ичной	-10.2978
▁ярко	-10.2983
казывать	-10.2983
пед	-10.2986
▁нужен	-10.2987
▁чувствую	-10.299
▁знаем	-10.2993
фл	-10.2994
▁боев	-10.2994
▁принимает	-10.2996
▁Сим	-10.2998
▁отличается	-10.3009
▁выпуска	-10.301
EC	-10.301
▁Пока	-10.301
▁Вин	-10.3014
▁пройти	-10.3017
▁сезона	-10.3019
▁прогресс	-10.302
▁Ту	-10.3024
ВА	-10.3026
▁открыть	-10.3029
лент	-10.303
▁мозг	-10.3036
ёл	-10.3037
▁полной	-10.3038
королев	-10.3043
▁Хол	-10.3053
▁экономически	-10.3054
АС	-10.3054
▁сообщества	-10.3055
▁медленно	-10.3057
критик	-10.3057
ЛА	-10.3062
▁Обратите	-10.3068
net	-10.307
хром	-10.3071
▁губ	-10.3071
Калифорни	-10.3075
плот	-10.3078
сион	-10.308
▁декор	-10.3085
▁цене	-10.3087
▁Китай	-10.3088
▁Вос	-10.3094
плав	-10.3096
ндер	-10.3099
▁Мил	-10.3099
бед	-10.3101
▁Род	-10.3103
ton	-10.3109
решен	-10.3112
ближ	-10.3114
пользу	-10.3118
▁плит	-10.3118
ew	-10.3124
▁гостей	-10.3127
глад	-10.3129
▁новая	-10.313
▁враг	-10.3131
нинг	-10.3132
▁охот	-10.3133
▁удовольствие	-10.3136
▁пояс	-10.3138
▁Вектор	-10.315
▁болезни	-10.315
▁средней	-10.315
▁исключен	-10.3151
▁намерен	-10.3151
▁HD	-10.3153
▁Работа	-10.3155
▁голову	-10.3155
▁фар	-10.3155
▁ноября	-10.3158
▁безопасность	-10.3158
лями	-10.3159
▁динам	-10.316
▁поражен	-10.316
▁вещества	-10.3163
▁билет	-10.3165
механ	-10.3166
ep	-10.3167
▁приоритет	-10.3168
▁параметры	-10.3176
Дж	-10.3181
нулся	-10.3183
нец	-10.319
▁обед	-10.3194
au	-10.3195
▁последних	-10.3196
▁изобретен	-10.3197
ОГ	-10.3202
▁заметил	-10.3205
▁интер	-10.3205
соглас	-10.3208
▁Эр	-10.321
▁активно	-10.321
первых	-10.3212
▁событий	-10.3218
▁лучшие	-10.3221
▁регистрации	-10.3222
▁Be	-10.3223
▁талант	-10.3225
энд	-10.3225
▁Использование	-10.3226
▁технология	-10.3228
▁письмо	-10.3235
VI	-10.324
▁поднима	-10.3241
▁пациента	-10.3247
▁банков	-10.3247
ens	-10.3248
▁продажи	-10.3249
▁нож	-10.325
ческой	-10.3252
▁поддерживаю	-10.326
▁Наконец	-10.3261
▁чувствовал	-10.3261
▁океан	-10.3264
ичных	-10.3265
сообщ	-10.3275
▁стих	-10.3275
!»	-10.3278
ook	-10.3281
▁отец	-10.3282
▁социал	-10.3286
▁требованиям	-10.3287
▁горизонт	-10.329
▁мнение	-10.329
▁евро	-10.3298
▁крупнейш	-10.33
спорт	-10.3301
▁жена	-10.3302
▁уменьша	-10.3303
▁Ваше	-10.3305
▁отдельных	-10.3306
РО	-10.3307
▁Боль	-10.331
▁крем	-10.331
▁удобны	-10.331
▁кожу	-10.3311
▁основным	-10.3312
терапии	-10.3319
▁насос	-10.3319
▁Через	-10.332
средн	-10.3321
▁виртуал	-10.3326
▁Con	-10.3327
der	-10.333
ES	-10.3334
▁добр	-10.3341
▁инф	-10.3348
носят	-10.3349
▁хирург	-10.3355
▁способности	-10.3356
▁Mar	-10.3356
▁нужна	-10.3359
▁характеристик	-10.3366
▁многочисленн	-10.3366
▁фотограф	-10.337
▁преимущества	-10.3371
▁получите	-10.3374
▁планет	-10.3378
▁связыва	-10.3379
▁Великобритании	-10.3382
▁клетки	-10.3387
Велико	-10.3389
▁кот	-10.3392
▁плен	-10.3397
айл	-10.3397
▁заключа	-10.3399
▁Джек	-10.3405
▁оценка	-10.3405
▁ограничения	-10.3407
счет	-10.3408
гружа	-10.3409
ящий	-10.3411
▁Com	-10.3413
▁подобно	-10.3413
▁надежд	-10.3422
▁сможет	-10.3423
ort	-10.3425
чества	-10.3431
▁линия	-10.3432
TA	-10.3432
▁Рис	-10.3442
▁сумму	-10.3446
▁надеюсь	-10.3447
тез	-10.3449
▁уведомлен	-10.3451
чек	-10.3453
хим	-10.3455
»)	-10.3458
ехать	-10.3459
▁праздник	-10.346
▁августа	-10.3461
▁используйте	-10.3463
▁прибыль	-10.3465
СК	-10.3466
ind	-10.3467
обеспечен	-10.3469
MP	-10.3477
▁интеллект	-10.3486
евый	-10.3487
▁камеры	-10.3491
▁восстановлен	-10.3512
▁Помимо	-10.3516
port	-10.3517
джин	-10.3523
▁данной	-10.3525
цом	-10.3531
▁Мир	-10.3531
ственные	-10.3532
ies	-10.3534
жела	-10.3538
▁мост	-10.3541
▁принес	-10.3547
▁моря	-10.355
▁производстве	-10.3556
▁эксплуатации	-10.3557
mi	-10.3558
спан	-10.3559
▁относятся	-10.3567
ительное	-10.3572
шер	-10.3575
▁оформлен	-10.3579
▁весьма	-10.3581
▁мужчины	-10.3583
▁налогов	-10.3589
▁университета	-10.3594
▁безопасно	-10.3594
ордин	-10.3597
ick	-10.36
Про	-10.3613
религиозн	-10.362
▁япон	-10.362
водится	-10.3622
▁видели	-10.3625
густ	-10.3626
чики	-10.3626
ственная	-10.3627
▁улучшения	-10.3628
tt	-10.363
▁Кам	-10.3637
ЦИ	-10.364
▁увеличен	-10.364
иммун	-10.3642
▁утра	-10.3642
▁протокол	-10.3646
местить	-10.3647
МА	-10.3648
▁величин	-10.3654
слой	-10.3657
ектив	-10.3658
OR	-10.366
TE	-10.3662
ach	-10.3663
наслажда	-10.3666
▁негатив	-10.3667
▁естественно	-10.3668
▁обновления	-10.3669
торг	-10.3669
▁страницы	-10.3682
▁клапан	-10.3692
▁едино	-10.3694
▁Фло	-10.3696
▁хорошим	-10.3699
▁большинстве	-10.3699
▁завтрак	-10.37
▁разрешен	-10.3703
SC	-10.3705
▁повышения	-10.371
▁Бес	-10.3711
▁НЕ	-10.3718
евая	-10.3721
▁корпоратив	-10.3722
▁чуть	-10.3724
жизне	-10.373
▁пик	-10.3741
▁Том	-10.3743
SO	-10.3753
фесс	-10.3754
ходим	-10.3756
▁позволил	-10.3759
▁Android	-10.3759
ost	-10.3759
▁книга	-10.376
▁руку	-10.376
ok	-10.3764
▁мою	-10.3768
▁образу	-10.377
▁индивидуально	-10.3772
▁Перво	-10.3772
доступ	-10.3773
▁конец	-10.3783
▁чувство	-10.3784
▁философ	-10.3787
▁четко	-10.3796
▁управлять	-10.3797
▁сорт	-10.3801
▁часы	-10.3802
▁обоих	-10.3804
▁культуры	-10.3805
▁направления	-10.3805
▁отпуск	-10.3809
ируя	-10.3811
▁человеком	-10.3815
▁среде	-10.3815
ET	-10.3823
ированию	-10.3826
измерен	-10.3827
▁комнаты	-10.3829
▁миллиард	-10.3832
ология	-10.3833
▁необходимые	-10.3836
▁чрезвычайно	-10.3839
▁Гра	-10.3839
ечный	-10.3844
▁некоторым	-10.3846
крывает	-10.3846
▁знают	-10.3849
▁существенно	-10.385
рост	-10.3851
▁ламп	-10.3852
▁Роберт	-10.3855
остат	-10.3856
▁мнению	-10.3859
вшая	-10.3862
ain	-10.3862
▁наша	-10.3864
▁Где	-10.3866
▁Луч	-10.3866
con	-10.3871
▁солнце	-10.3877
▁речь	-10.3878
MC	-10.3882
▁высокий	-10.3886
▁выполнить	-10.3898
▁направлении	-10.3899
▁Существует	-10.39
▁золото	-10.3903
▁прошлого	-10.3906
▁дополнительных	-10.3908
▁кожа	-10.3912
▁Ac	-10.3912
били	-10.3912
плей	-10.3916
ЛЕ	-10.3919
▁сериал	-10.392
▁количестве	-10.3933
▁растения	-10.3936
▁обладает	-10.3938
гружен	-10.3938
▁предоставить	-10.3939
▁клиентам	-10.3941
▁табл	-10.3946
теп	-10.3947
▁большинства	-10.3947
▁частиц	-10.395
▁стратегии	-10.3954
реж	-10.3957
▁оборудован	-10.3964
▁соревнова	-10.3965
обеща	-10.3967
влечения	-10.3973
ian	-10.3974
граф	-10.3974
▁Ответ	-10.3978
▁функцию	-10.3982
▁взрослых	-10.3983
▁перевоз	-10.3983
▁Первый	-10.3984
ОЙ	-10.3988
▁гипо	-10.3996
▁коммерчески	-10.4
▁Рей	-10.4
▁Второй	-10.4
рег	-10.4001
▁хорошие	-10.4004
вилл	-10.4008
▁Два	-10.4009
▁первое	-10.401
▁позиции	-10.4011
▁диаметр	-10.4012
ster	-10.4016
▁похож	-10.4027
▁неудач	-10.403
ическому	-10.4032
▁показали	-10.4033
▁Вместо	-10.4033
▁влияет	-10.4034
▁методов	-10.4035
▁парков	-10.4039
▁дополнение	-10.4045
▁миллиона	-10.4046
▁реакции	-10.405
древ	-10.405
тес	-10.4052
▁этими	-10.4053
▁разрешения	-10.4057
ans	-10.4062
▁Наша	-10.4063
▁протест	-10.4065
▁квартал	-10.4065
ивание	-10.4069
▁выбрал	-10.407
▁Дэвид	-10.4071
▁улучшить	-10.4073
▁мозга	-10.4074
▁среднего	-10.4075
▁заканчива	-10.4075
проб	-10.4076
▁партии	-10.4076
▁New	-10.4077
▁предлагают	-10.4084
инфраструктур	-10.4086
ev	-10.4092
▁Тай	-10.4093
▁имеется	-10.4094
▁иначе	-10.4095
▁заинтересован	-10.4099
ide	-10.4101
▁общем	-10.4103
▁мать	-10.4107
▁направля	-10.4109
Гол	-10.411
▁пределами	-10.411
▁элемента	-10.4112
студи	-10.4115
Королев	-10.4117
▁мощности	-10.4118
▁Германии	-10.412
пот	-10.4128
▁идти	-10.413
▁поверх	-10.4139
▁Apple	-10.4142
изировать	-10.4146
▁увеличить	-10.415
тельную	-10.4152
▁крупных	-10.4154
CH	-10.4158
▁типов	-10.416
ii	-10.4164
ТИ	-10.417
▁футов	-10.4171
▁пойм	-10.4172
▁февраля	-10.4174
▁точка	-10.4176
▁взрыв	-10.418
PC	-10.4185
ступает	-10.4187
▁Росс	-10.419
зен	-10.4191
AD	-10.4193
▁разрешение	-10.4193
совместим	-10.4194
org	-10.4195
ДА	-10.4197
▁коротко	-10.4199
▁кафе	-10.42
ведом	-10.42
токс	-10.4201
▁каждую	-10.4203
▁группу	-10.4204
▁моделей	-10.4205
брон	-10.4206
▁вариантов	-10.4206
▁импорт	-10.4209
▁неправильно	-10.4213
кройте	-10.4217
▁инструменты	-10.4222
▁отличный	-10.4222
▁биолог	-10.4233
▁мировой	-10.4233
▁Само	-10.4246
▁средне	-10.425
▁родителей	-10.4257
▁коэффициент	-10.4261
▁среднем	-10.4263
▁Fr	-10.4267
иваются	-10.4273
▁данного	-10.4273
▁оставаться	-10.4274
бек	-10.4277
▁Facebook	-10.4277
▁ошибка	-10.4278
▁гипер	-10.4283
▁валют	-10.4284
▁бутыл	-10.4288
▁пассажир	-10.4291
▁мяч	-10.4292
▁стабильно	-10.4294
▁Наш	-10.4295
диагност	-10.4296
▁попал	-10.4297
ash	-10.4297
St	-10.43
▁камен	-10.4302
▁включать	-10.4302
▁кризис	-10.4303
▁сохрани	-10.4304
▁процедуры	-10.4305
▁подраздел	-10.4313
▁любых	-10.4316
▁резко	-10.4319
▁Александр	-10.4322
▁Жел	-10.4324
▁отрасли	-10.4326
▁академ	-10.4334
казано	-10.4335
▁индекс	-10.4338
РУ	-10.4342
▁параметров	-10.4343
дина	-10.4345
▁платье	-10.4345
▁мульти	-10.4347
▁демократ	-10.4351
закон	-10.4353
▁фактически	-10.4353
▁Потому	-10.4358
▁Много	-10.4359
▁диалог	-10.436
▁Карт	-10.4361
▁разработчик	-10.4361
держал	-10.4365
▁каталог	-10.4368
фигур	-10.4369
▁становятся	-10.4379
▁некоторое	-10.4384
PA	-10.4388
▁факторов	-10.4394
▁многим	-10.4396
mp	-10.4397
▁сообщает	-10.4404
код	-10.4407
цент	-10.441
▁зарегистрирован	-10.4415
▁газет	-10.4415
▁убед	-10.4419
▁Форм	-10.4422
▁удобств	-10.4425
oll	-10.4431
▁детьми	-10.4435
гин	-10.4437
▁попробовать	-10.4447
▁жителей	-10.4477
▁Вес	-10.4488
▁горд	-10.4489
▁конкурс	-10.4489
▁создал	-10.4489
ance	-10.4493
уществ	-10.4502
▁вроде	-10.451
снаб	-10.451
▁хорошее	-10.4511
▁школа	-10.4514
▁ноги	-10.4515
▁главным	-10.452
ment	-10.4521
▁картинки	-10.4525
ile	-10.4527
▁смесь	-10.4528
глян	-10.453
▁вашему	-10.4531
▁вершин	-10.4534
денеж	-10.4534
▁эпизод	-10.4535
лор	-10.4535
▁исследовании	-10.4536
▁Microsoft	-10.4536
▁рассказал	-10.454
▁десяти	-10.4544
▁новом	-10.4549
▁отеле	-10.4552
▁твое	-10.4553
КИ	-10.4558
▁сегмент	-10.4559
участник	-10.456
▁Обще	-10.456
▁исторически	-10.4565
▁приходится	-10.4567
▁научно	-10.4571
CP	-10.4573
▁органов	-10.4573
▁возвращен	-10.4584
ительная	-10.4587
BC	-10.459
▁красиво	-10.459
▁системой	-10.4592
▁подверга	-10.4592
▁идеальны	-10.4592
▁боя	-10.46
▁этапе	-10.4601
ood	-10.4602
брал	-10.4604
▁моим	-10.4604
Един	-10.4611
▁определяю	-10.4611
▁использую	-10.4612
▁утром	-10.4612
▁выделя	-10.4612
▁сетев	-10.4614
▁сосредоточ	-10.4616
CC	-10.4619
nc	-10.4622
az	-10.4624
▁здание	-10.4624
▁ведет	-10.4624
▁объявил	-10.4625
▁отца	-10.4627
полните	-10.4628
▁оружия	-10.4628
▁Ван	-10.4629
▁обладаю	-10.463
▁плюс	-10.4633
▁погиб	-10.4636
▁составил	-10.4639
▁Мари	-10.4639
▁дизайнер	-10.4652
▁рот	-10.4654
шний	-10.4654
▁Верх	-10.4656
▁будь	-10.4661
желатель	-10.4663
▁комната	-10.4671
▁наркотик	-10.468
▁усилен	-10.4681
▁школу	-10.4681
прост	-10.4685
регистр	-10.4685
▁ЕС	-10.469
орган	-10.469
str	-10.469
▁ПРО	-10.4694
▁говорится	-10.4696
тическое	-10.4698
екции	-10.4698
▁ответственности	-10.4699
берг	-10.4699
▁удалить	-10.4704
ОК	-10.4712
ничтож	-10.4713
▁покупки	-10.4715
ress	-10.4717
▁товары	-10.4718
▁бал	-10.472
▁потребности	-10.4725
▁столб	-10.4731
клин	-10.4731
АК	-10.4733
▁интенсивно	-10.4735
▁торговли	-10.4738
▁столько	-10.4739
▁арест	-10.4744
IP	-10.4745
пион	-10.4749
▁букв	-10.4751
▁Особенно	-10.4752
▁кратко	-10.4758
▁предполагает	-10.476
▁полиции	-10.4764
▁пределах	-10.4766
лению	-10.4766
пуга	-10.4777
▁другую	-10.4778
▁комнате	-10.4782
▁Цель	-10.4782
мещение	-10.4783
▁правительств	-10.4789
▁Время	-10.479
▁Россия	-10.4791
▁ожидания	-10.4791
▁собственной	-10.4792
▁списка	-10.4792
фикс	-10.4795
DI	-10.4796
▁означа	-10.4797
▁лед	-10.4801
▁свободно	-10.4809
▁предварительно	-10.4819
▁машину	-10.4819
▁продолжал	-10.4821
ительного	-10.4827
жима	-10.4832
▁ядер	-10.4832
есь	-10.4834
оборон	-10.4836
LA	-10.4841
серд	-10.4842
▁близко	-10.4848
надлежащ	-10.4852
▁школ	-10.4852
ощу	-10.4855
цид	-10.4858
▁Хан	-10.4858
▁отметил	-10.4862
тельного	-10.4865
▁раздраж	-10.4868
конференц	-10.4868
▁удаля	-10.4868
▁дерево	-10.4869
▁Моя	-10.487
▁крупно	-10.4871
производит	-10.4878
мог	-10.4881
▁описание	-10.4882
▁День	-10.4883
ron	-10.4884
ированной	-10.4898
▁второго	-10.4899
▁смерть	-10.4901
▁метров	-10.4904
▁План	-10.4904
двиг	-10.4911
▁вижу	-10.4911
▁вероятность	-10.4913
зел	-10.4916
гур	-10.4918
ata	-10.492
▁добиться	-10.4921
▁появляется	-10.4927
▁привел	-10.4928
интегр	-10.493
▁Лег	-10.4933
▁обои	-10.4934
▁воздействия	-10.4938
▁одежды	-10.494
▁Одна	-10.4946
▁спустя	-10.4947
▁интерьер	-10.4947
▁ресурсы	-10.4949
▁считаю	-10.4953
сущ	-10.4954
▁жидкости	-10.4957
АЗ	-10.4959
▁ПК	-10.496
▁необходимость	-10.4962
▁Мед	-10.4962
обновля	-10.4967
▁близки	-10.4968
▁Интер	-10.4969
unt	-10.4972
▁конкурент	-10.4973
▁имели	-10.4975
▁витамин	-10.4975
даль	-10.4976
ляция	-10.4976
▁Европы	-10.4977
ационные	-10.498
ust	-10.4981
▁наличии	-10.4982
▁учетом	-10.4986
▁вызвать	-10.4987
▁встретил	-10.4989
ud	-10.4989
ОП	-10.4989
▁читать	-10.4993
▁двигатель	-10.4998
▁растений	-10.4999
▁процессор	-10.5001
▁компанией	-10.5006
▁снижение	-10.5009
▁изображений	-10.5009
тельство	-10.5013
▁понедельник	-10.502
LE	-10.5021
▁Такие	-10.5025
▁Пен	-10.5025
▁чувствовать	-10.5026
адрес	-10.5026
▁смартфон	-10.5028
▁овощ	-10.5028
▁рекомендуется	-10.5029
▁возникает	-10.5033
▁паст	-10.5034
ющейся	-10.5034
▁улице	-10.5039
ear	-10.504
клеточ	-10.5042
▁программного	-10.5043
профил	-10.5044
алюмин	-10.5046
прово	-10.5047
MI	-10.5049
▁запах	-10.5049
сексуал	-10.5055
вез	-10.5061
▁улучша	-10.5063
▁словами	-10.5065
▁термо	-10.5066
ED	-10.5066
▁восстановления	-10.5067
▁источников	-10.507
▁белый	-10.5071
▁покрытие	-10.5073
учрежден	-10.5079
▁ночью	-10.5088
дача	-10.5088
▁массив	-10.5095
▁Поль	-10.5096
очек	-10.5098
▁Трамп	-10.51
перечислен	-10.5101
▁организаций	-10.5105
▁будущее	-10.5108
ME	-10.5117
визи	-10.5119
▁честь	-10.5126
NA	-10.5127
▁мягко	-10.5127
▁промышленности	-10.5128
▁Бал	-10.5131
▁мертв	-10.5138
▁могло	-10.5138
▁колен	-10.5142
▁En	-10.5147
▁аудио	-10.5148
существ	-10.5149
gr	-10.5149
▁думать	-10.515
RT	-10.5154
▁экономики	-10.5156
▁считать	-10.516
▁далее	-10.5161
▁операций	-10.5161
▁первая	-10.5167
▁прекращ	-10.5167
▁низким	-10.5168
▁Жен	-10.5168
▁выиграл	-10.517
▁купил	-10.517
▁ежедневно	-10.5173
▁федеральн	-10.5177
ИЯ	-10.5178
▁инвестор	-10.5183
▁занял	-10.5185
▁углу	-10.5193
▁книгу	-10.5195
▁Пал	-10.5196
▁ущерб	-10.5198
▁постепенно	-10.5206
▁Система	-10.5208
реал	-10.5209
▁навыки	-10.5211
▁подумал	-10.5215
▁инициатив	-10.5215
ствует	-10.5216
▁поворот	-10.5228
▁акций	-10.5229
▁развитию	-10.5232
▁дерева	-10.5236
эффект	-10.5237
презент	-10.5238
▁пытается	-10.5252
▁назвал	-10.5256
жир	-10.5258
АЛ	-10.526
▁частей	-10.5262
▁пришел	-10.5262
▁динамик	-10.5271
КО	-10.5274
ИМ	-10.5281
ИЗ	-10.5284
▁Майкл	-10.5286
чёт	-10.5287
▁применен	-10.529
▁получит	-10.5291
▁хотим	-10.5291
▁организован	-10.5292
энерг	-10.5295
ire	-10.5305
▁смотрел	-10.5305
▁собственные	-10.5306
▁пространства	-10.5307
▁хорошая	-10.531
▁заниматься	-10.5311
оратор	-10.532
▁единственно	-10.5322
▁очевидно	-10.5323
ализации	-10.5324
▁природы	-10.5327
▁частично	-10.533
▁аккумулятор	-10.5332
▁назначения	-10.5333
▁соверша	-10.5335
кром	-10.5339
▁предложил	-10.5349
▁фанат	-10.535
пишите	-10.5351
▁фотография	-10.5354
эш	-10.5363
▁казалось	-10.5363
▁предпринима	-10.5364
▁сертификат	-10.5366
▁взаимодействия	-10.5375
▁международных	-10.5377
▁ванной	-10.5378
▁желуд	-10.5378
▁Евро	-10.5379
▁сопровожда	-10.5382
▁Южной	-10.5382
грузка	-10.5385
рэ	-10.5387
▁аргумент	-10.5389
КТ	-10.5392
▁экспресс	-10.5392
▁(«	-10.5395
▁традиционно	-10.5398
▁правда	-10.5398
▁кабель	-10.5401
сексуально	-10.5402
▁мониторинг	-10.5407
труд	-10.5409
▁изделия	-10.5412
▁вскоре	-10.5423
▁напряжение	-10.5424
При	-10.5431
▁мечта	-10.5435
▁храм	-10.5436
▁Fl	-10.544
▁зеркал	-10.5443
▁компонентов	-10.5445
▁потерял	-10.5452
сан	-10.5454
бесед	-10.546
▁высокие	-10.5466
▁эпох	-10.5467
▁напряжения	-10.5468
карт	-10.547
улятор	-10.5476
ализация	-10.5478
▁вернулся	-10.5479
луг	-10.5483
IV	-10.5485
▁играл	-10.5485
▁печати	-10.5488
▁различными	-10.5489
миссия	-10.5491
▁музыки	-10.5495
▁конструкции	-10.5502
▁прибыли	-10.5504
▁черный	-10.5506
вшихся	-10.5508
лизован	-10.5509
▁списке	-10.551
▁СМИ	-10.5513
ьтесь	-10.5513
берт	-10.5515
▁увеличения	-10.5515
▁толщ	-10.5516
▁молодых	-10.5519
пищев	-10.5523
▁промышленно	-10.5527
▁Отель	-10.5527
▁посетите	-10.5528
IM	-10.5538
▁дополнительной	-10.554
▁контейнер	-10.5544
SI	-10.5545
▁Северной	-10.5554
▁законодательств	-10.5554
▁собственный	-10.556
▁чемпионат	-10.556
▁достичь	-10.5561
страниц	-10.5566
итальян	-10.5567
aw	-10.5567
▁пластин	-10.5571
▁получение	-10.5572
▁главный	-10.5572
ствия	-10.5577
дёт	-10.5577
▁участия	-10.5578
▁понимание	-10.5581
▁родители	-10.5583
ИЛ	-10.5591
ОСТ	-10.5594
▁загрузки	-10.5597
▁интерпрет	-10.5601
▁клавиш	-10.5605
▁заболеваний	-10.5607
времен	-10.5612
▁расходов	-10.5615
чуд	-10.5615
ИК	-10.5621
▁друзьями	-10.5627
ug	-10.5628
▁Вопрос	-10.5634
▁концерт	-10.5636
▁Пан	-10.5636
▁дорога	-10.5637
▁приобрет	-10.5639
ращение	-10.5639
ворачива	-10.5647
▁остальные	-10.5649
▁подключения	-10.5659
RS	-10.5659
▁поколения	-10.5662
EL	-10.5664
▁Генеральн	-10.5669
ассоци	-10.5671
коричн	-10.5675
▁память	-10.5678
▁представления	-10.5679
▁подготовки	-10.5681
▁коже	-10.5682
▁iPhone	-10.5686
▁солдат	-10.5688
ификация	-10.5691
▁важных	-10.5693
лайн	-10.5698
▁техники	-10.57
▁выброс	-10.5701
▁Франц	-10.5703
▁строительства	-10.5704
▁сюда	-10.5709
▁найден	-10.5709
ЕНИЕ	-10.571
▁широкий	-10.5712
СЕ	-10.5712
▁обеспечивают	-10.5719
▁искусство	-10.573
▁выполняет	-10.5732
миллион	-10.5737
▁станции	-10.5741
▁крайне	-10.5748
▁исполнитель	-10.5749
▁друж	-10.575
▁следующей	-10.5755
ner	-10.5762
▁утверждает	-10.5764
▁Свет	-10.5765
▁чувствует	-10.5765
воздуш	-10.5769
стабиль	-10.5773
▁панель	-10.5774
▁начинают	-10.5778
▁Казахстан	-10.5784
▁объектив	-10.5785
><	-10.579
▁вещь	-10.5792
out	-10.5802
▁ингредиент	-10.5802
▁баб	-10.5804
▁Часто	-10.5807
▁несколькими	-10.5807
восток	-10.5807
▁Мисс	-10.5807
▁площади	-10.5809
благо	-10.581
▁возврат	-10.5811
▁планирует	-10.5814
▁верхней	-10.5814
▁питание	-10.5817
▁последовательно	-10.582
ЕЛ	-10.5822
очист	-10.5828
▁воздействие	-10.5833
▁найдете	-10.5833
▁эпи	-10.5836
следовать	-10.5837
▁доставки	-10.5838
тельства	-10.5843
▁активности	-10.5844
▁причиной	-10.5846
▁настоящего	-10.5847
▁Uni	-10.5848
▁Кро	-10.5848
OL	-10.585
▁кондиционер	-10.585
▁твердо	-10.5853
▁знаний	-10.5854
▁встречи	-10.5856
мешан	-10.5859
▁проблемой	-10.5862
▁понимает	-10.5866
▁заявление	-10.5867
▁убедиться	-10.587
▁недалеко	-10.5877
▁увеличил	-10.5883
тельность	-10.589
ъезд	-10.5892
▁эфир	-10.5893
log	-10.5894
▁скрыт	-10.5894
▁преступн	-10.5898
ina	-10.5901
▁ужин	-10.5902
▁Бра	-10.5902
Украин	-10.5907
ong	-10.5908
▁рабочего	-10.5911
▁втором	-10.5916
▁индикатор	-10.5917
тянут	-10.5922
▁кнопки	-10.5923
▁определение	-10.5923
▁Рад	-10.5923
▁нарушения	-10.5927
финанс	-10.5935
▁представил	-10.594
▁ошибок	-10.594
▁оказывает	-10.5948
▁Сколько	-10.5959
▁следующее	-10.5964
▁Мэри	-10.5965
▁тормоз	-10.5967
ческого	-10.5968
▁немедленно	-10.5976
▁адвокат	-10.5977
▁реформ	-10.5982
▁Плат	-10.5982
пур	-10.5984
▁вызвал	-10.5987
▁помещения	-10.5988
▁искать	-10.5993
▁оставил	-10.5995
изоляци	-10.5997
CS	-10.5999
▁Никол	-10.6002
▁стадии	-10.6005
▁обнаружив	-10.6006
цилиндр	-10.6008
▁справедливо	-10.6008
▁войск	-10.6009
▁позволяю	-10.601
▁вдоль	-10.601
▁преобразован	-10.6013
▁пропуск	-10.6015
ирующих	-10.6017
▁профессионально	-10.6017
▁слух	-10.6032
▁живет	-10.6039
▁мероприятий	-10.604
▁письма	-10.6041
ряжен	-10.6044
▁Хорошо	-10.6045
▁Азии	-10.605
▁похожи	-10.6051
▁миг	-10.6056
▁Соединенных	-10.6057
ond	-10.6057
CE	-10.6062
▁Прежде	-10.6062
Производ	-10.6062
ющимся	-10.6063
▁невероятно	-10.6065
ОЗ	-10.6066
▁ожидает	-10.6068
▁остановить	-10.607
▁стерлингов	-10.6072
▁расшири	-10.6075
▁Несколько	-10.6077
▁сути	-10.6079
▁куб	-10.6082
очкой	-10.6082
▁внедрен	-10.6087
чуж	-10.6091
▁осуществляется	-10.6092
▁низкой	-10.6093
▁импульс	-10.6094
▁ящик	-10.6095
▁Ваши	-10.6098
▁высоких	-10.6103
▁потенциально	-10.6109
▁Th	-10.6113
енци	-10.6114
▁песни	-10.6115
▁турнир	-10.6124
толст	-10.6124
останавлива	-10.6125
▁детям	-10.6127
▁Далее	-10.6128
DE	-10.6136
·	-10.6139
▁говорю	-10.6139
позиция	-10.6146
▁смогут	-10.6147
остей	-10.615
▁Республики	-10.6153
▁отношению	-10.6153
▁дают	-10.6156
▁землю	-10.6159
▁представитель	-10.6167
▁отображен	-10.6171
▁собственности	-10.6178
▁приобретен	-10.6181
ial	-10.6183
▁позволить	-10.6183
▁почте	-10.6184
▁версию	-10.6184
▁контролировать	-10.6185
▁Комитет	-10.6189
▁сделает	-10.6189
▁музыку	-10.619
▁кровь	-10.6195
▁предложить	-10.6196
служил	-10.6198
▁ЗА	-10.62
▁здорово	-10.62
▁очевид	-10.6201
▁загрязнен	-10.6204
▁офицер	-10.6207
▁огне	-10.6208
▁Америки	-10.6209
▁напряжен	-10.6209
▁требований	-10.6215
▁расширя	-10.6216
ирующие	-10.6218
бул	-10.6219
▁Сообщ	-10.6222
▁применять	-10.6223
▁атом	-10.6223
▁отправлен	-10.6224
▁соответствующие	-10.6224
▁выпущен	-10.6224
▁энерго	-10.623
▁Мини	-10.6232
▁Мол	-10.6235
▁логотип	-10.6237
▁учреждения	-10.624
▁общество	-10.6249
групп	-10.6249
▁почты	-10.6251
▁лук	-10.6254
ЕМ	-10.6256
▁бывает	-10.6262
▁компакт	-10.6266
▁Air	-10.6271
▁разработке	-10.6273
▁предусмотрен	-10.6276
очарова	-10.628
▁Размер	-10.6283
▁желание	-10.6284
МИ	-10.6284
▁общий	-10.6285
этаж	-10.6287
▁флаг	-10.6289
ываются	-10.6295
▁Китае	-10.6297
▁чемпион	-10.6297
▁борьбы	-10.6298
▁дочь	-10.6298
▁вновь	-10.6302
▁различия	-10.6302
объяснен	-10.6321
▁Следовательно	-10.6325
▁пятницу	-10.6332
▁определяет	-10.6333
▁основании	-10.6333
▁алгоритм	-10.6342
▁Автор	-10.6342
▁призыв	-10.6343
▁рассматривать	-10.6347
▁событие	-10.6349
▁генеральн	-10.6355
vo	-10.6365
Друг	-10.6366
строил	-10.6369
▁рабочий	-10.6374
▁государственных	-10.6375
▁профессор	-10.6375
▁удач	-10.6376
▁единственный	-10.6377
▁модуль	-10.6383
▁стекло	-10.6391
▁разрушен	-10.6391
line	-10.6399
▁отвечает	-10.6401
▁удержива	-10.6401
долго	-10.6404
▁теории	-10.6405
▁Франции	-10.6407
▁зл	-10.641
▁изучения	-10.6413
▁поглощ	-10.6415
▁помогают	-10.6418
▁наблюдения	-10.6426
моделирован	-10.6432
пустит	-10.6432
▁конфиденциаль	-10.6436
▁голуб	-10.6437
▁определенные	-10.6437
IF	-10.6449
▁первоначально	-10.6452
фантаст	-10.6455
▁практики	-10.6456
▁фокус	-10.6464
Американ	-10.6469
▁остаются	-10.6476
▁устранен	-10.6476
неприятн	-10.6477
трон	-10.6485
©	-10.6488
▁пище	-10.6489
▁Номер	-10.6491
▁визит	-10.6491
old	-10.6492
▁вручную	-10.6492
▁безусловно	-10.6493
▁защищен	-10.6496
ЕЙ	-10.6496
▁Человек	-10.65
▁El	-10.65
▁шкаф	-10.6501
▁родился	-10.6505
множеств	-10.6509
▁власть	-10.6513
казывает	-10.6514
▁подверг	-10.6515
▁существуют	-10.6516
▁помогут	-10.6519
▁аксессуар	-10.6519
▁Правил	-10.6519
▁Qu	-10.652
регулир	-10.652
act	-10.652
▁привело	-10.6523
▁испытания	-10.6525
▁пространстве	-10.6527
▁сотрудничества	-10.6528
▁социальной	-10.6529
▁верно	-10.653
▁заранее	-10.6533
фиксирован	-10.6535
▁борьбе	-10.6535
▁отображает	-10.6535
▁Описание	-10.6537
безопас	-10.6537
▁монтаж	-10.6543
▁идеал	-10.6547
▁запрет	-10.6557
▁каждая	-10.6562
медленн	-10.6566
ink	-10.6569
▁начнет	-10.657
▁Организации	-10.6572
▁Китая	-10.6573
▁преимущество	-10.6578
▁финал	-10.6579
▁Президент	-10.6583
▁Вашингтон	-10.6584
▁форум	-10.6585
▁восемь	-10.6586
▁рекомендации	-10.6588
▁Меня	-10.6595
▁пищи	-10.6595
▁превраща	-10.6596
▁особенности	-10.6603
веков	-10.6605
толкнул	-10.6605
▁экологически	-10.6606
▁забав	-10.661
▁выглядел	-10.6611
▁взят	-10.6615
▁активность	-10.6618
▁сосуд	-10.6622
▁выявлен	-10.6623
▁Mac	-10.6634
▁достигнут	-10.6642
меди	-10.6645
▁тонн	-10.6646
▁продолжитель	-10.666
рель	-10.6661
беспроводн	-10.6665
служив	-10.6671
▁ситуацию	-10.6673
▁Банк	-10.6677
Молод	-10.6678
▁сообщений	-10.6684
▁подходят	-10.6684
▁учитывать	-10.6686
▁одобрен	-10.6696
ank	-10.6697
▁предотвращен	-10.6707
▁десять	-10.6708
противоречи	-10.6717
▁современных	-10.6718
поощр	-10.6719
▁установка	-10.6724
▁заставил	-10.6725
▁подачи	-10.6727
▁нрав	-10.6728
▁писал	-10.6731
ходящих	-10.6735
▁мистер	-10.6739
▁ориентирован	-10.6741
▁страницу	-10.6741
ставляют	-10.6743
RI	-10.6746
▁определенных	-10.675
▁отмечен	-10.675
▁разрыв	-10.6751
▁известных	-10.6755
$	-10.6758
современ	-10.6759
▁текстур	-10.676
плазм	-10.6763
▁расширения	-10.6769
NT	-10.6772
▁строительство	-10.6778
▁сюжет	-10.6783
▁расстройств	-10.6785
▁опрос	-10.6789
▁опасны	-10.679
▁повышение	-10.6791
▁предприятий	-10.6794
изацией	-10.6797
▁медицинских	-10.6799
▁светодиод	-10.6804
▁поддержка	-10.6806
▁слабо	-10.6809
вшиеся	-10.681
▁жестко	-10.6811
резан	-10.6817
▁безопасны	-10.6819
▁сосредоточен	-10.6822
▁музыка	-10.6823
▁Сар	-10.6824
клей	-10.6837
▁прошло	-10.6839
▁плоско	-10.6842
статистик	-10.6851
▁лазер	-10.6855
▁блюда	-10.6869
▁внешний	-10.6872
▁распространя	-10.6884
▁противник	-10.6885
▁церковь	-10.6891
▁Гран	-10.6912
йдут	-10.6915
▁сумма	-10.6916
кругл	-10.6917
▁попросил	-10.6918
ринг	-10.6919
▁доступен	-10.6921
берем	-10.6924
▁шоколад	-10.6924
▁редактор	-10.6926
▁соответствующих	-10.6927
▁ощущение	-10.6927
▁Японии	-10.6927
▁днем	-10.6931
▁Примечание	-10.6932
▁высокую	-10.6934
▁поднял	-10.6939
оксид	-10.694
ичность	-10.694
ография	-10.6953
▁съе	-10.6954
▁парень	-10.6956
устанавлива	-10.6956
TS	-10.6956
▁убежден	-10.6963
▁одни	-10.6968
▁еды	-10.697
береж	-10.6976
▁открытым	-10.6978
Восточно	-10.6978
▁глуп	-10.6978
▁Томас	-10.6985
▁признал	-10.6986
▁пласт	-10.6988
▁собрал	-10.6992
IL	-10.6996
▁проводят	-10.7007
▁сочетании	-10.7009
функциональны	-10.7012
▁главное	-10.7012
▁священ	-10.7013
▁удивит	-10.7017
▁ферм	-10.702
▁минерал	-10.7021
▁забыв	-10.7021
▁подчеркива	-10.7023
▁Роз	-10.7024
углерод	-10.7027
▁акции	-10.7027
▁объяснить	-10.7027
систем	-10.7028
▁Хор	-10.7031
▁Лучше	-10.7031
шифр	-10.7041
▁девушки	-10.7041
▁рассчитыва	-10.7042
▁освобожден	-10.7045
▁достопримеч	-10.7049
▁военно	-10.7049
▁свеже	-10.7051
▁оборот	-10.7051
морф	-10.7053
▁информацией	-10.7054
▁бесплатный	-10.7055
▁перемещен	-10.7057
▁Союз	-10.7058
ационный	-10.7064
▁потери	-10.7064
▁кислород	-10.7069
ЕЛЬ	-10.7086
прозрачн	-10.7086
▁туалет	-10.7086
▁холодильник	-10.7088
BS	-10.7089
▁Управление	-10.7096
▁темп	-10.7114
▁скачать	-10.7122
▁рейс	-10.7124
▁честно	-10.7127
▁напрямую	-10.7127
ish	-10.7128
▁пережив	-10.7129
здоров	-10.7134
▁устанавливает	-10.7134
ответ	-10.7137
▁определяется	-10.7137
▁держит	-10.7139
магистр	-10.714
▁положении	-10.7141
▁отмечает	-10.7145
▁сложности	-10.7149
▁действует	-10.7151
▁конференции	-10.7153
▁любую	-10.7155
▁монет	-10.7156
бук	-10.7159
▁май	-10.7163
Дополнительн	-10.7164
▁журналист	-10.7165
▁Потом	-10.7169
▁значений	-10.7174
▁потребуется	-10.7177
▁Сначала	-10.7178
полит	-10.7181
жертв	-10.7182
▁Смит	-10.7185
▁влияния	-10.7187
сесс	-10.7189
▁согласован	-10.7191
▁каждое	-10.7199
▁хорошей	-10.72
если	-10.7208
▁положительно	-10.7209
▁следующего	-10.7218
▁ежегодно	-10.7222
▁Город	-10.7223
визуал	-10.7225
▁the	-10.7228
▁смогли	-10.723
▁Йо	-10.7233
слежива	-10.7235
▁последней	-10.7237
▁дороге	-10.724
▁ДНК	-10.724
▁нагрева	-10.7241
▁Наций	-10.7245
▁консерв	-10.7251
LC	-10.7252
▁Тро	-10.7257
▁армии	-10.7257
▁практике	-10.7259
▁Гал	-10.7261
динг	-10.7261
▁браузер	-10.7265
▁ракет	-10.7266
▁Джен	-10.7266
▁фотографий	-10.7268
▁семи	-10.7273
▁прекрати	-10.7275
▁легенд	-10.7275
▁начиная	-10.7276
крашен	-10.7277
▁подъем	-10.7277
▁Inc	-10.7285
▁экземпляр	-10.7294
▁изображен	-10.7311
▁Париж	-10.7312
▁рабочей	-10.7315
▁нагрузки	-10.7316
Как	-10.7317
▁интервал	-10.7318
▁Украины	-10.732
▁Объединенных	-10.7324
▁оценить	-10.7324
▁прошлой	-10.7328
▁предполагаем	-10.7329
ридж	-10.735
▁точек	-10.7352
▁коллектив	-10.7353
▁борт	-10.7355
▁жалоб	-10.7356
DC	-10.7357
▁отказыва	-10.737
▁Гарри	-10.7371
▁рацион	-10.7376
ационных	-10.7377
▁ожидал	-10.7378
▁ноутбук	-10.7383
▁легче	-10.7384
▁Группа	-10.7385
#	-10.7386
▁иностранн	-10.7387
▁Команд	-10.7388
▁руках	-10.7388
▁скоростью	-10.7392
▁зависим	-10.7394
произв	-10.7397
▁помощник	-10.7397
▁слоя	-10.7402
▁выглядеть	-10.7404
▁мотор	-10.7408
▁громко	-10.7408
▁инвестиций	-10.7409
▁мусор	-10.741
круп	-10.741
пев	-10.7412
▁способствует	-10.7413
▁рекорд	-10.7414
▁Америке	-10.7415
ориент	-10.7415
конструкци	-10.7416
▁известен	-10.742
▁оплаты	-10.7435
▁хлеб	-10.7436
▁никакого	-10.744
▁осуществления	-10.7445
▁снег	-10.7448
▁премьер	-10.745
▁мудр	-10.745
PubMed	-10.7452
▁сетей	-10.7456
▁следовательно	-10.7459
▁уменьшить	-10.7464
▁внутренней	-10.7464
▁вторник	-10.7468
▁снижает	-10.7471
▁Класс	-10.7478
▁палат	-10.7479
▁Буду	-10.7483
▁пейзаж	-10.7483
▁Фер	-10.7485
▁малыш	-10.749
крут	-10.7493
скольз	-10.7496
ношения	-10.7496
▁происхождения	-10.7498
▁участвовал	-10.7499
▁любил	-10.7501
▁ткань	-10.7509
▁нарушен	-10.7513
▁появится	-10.7514
видимому	-10.7517
▁хватает	-10.7517
▁нижней	-10.7521
▁четверг	-10.7528
▁установил	-10.7535
▁середине	-10.7544
▁Доступ	-10.7544
▁страш	-10.7548
▁спец	-10.7549
▁объединен	-10.7558
▁предотвратить	-10.7565
▁синхрон	-10.7567
▁ближе	-10.7574
▁участка	-10.7574
живание	-10.7575
▁контроллер	-10.7576
▁комнату	-10.7578
▁салон	-10.7579
▁шут	-10.7587
▁юридически	-10.7587
▁миль	-10.7587
▁достигает	-10.7588
▁Максим	-10.759
▁Алекс	-10.759
ходящие	-10.7597
▁вынужден	-10.7601
▁внутренних	-10.7601
Смотр	-10.761
▁Государственн	-10.761
▁удивлен	-10.7612
▁аналогичны	-10.7616
тензи	-10.7616
▁бре	-10.762
PE	-10.7621
▁Электро	-10.7628
блес	-10.7629
Если	-10.7632
получи	-10.7639
ставляя	-10.7639
ИЙ	-10.764
обуча	-10.7644
▁млрд	-10.7644
▁собрать	-10.7645
▁удивительно	-10.7645
▁поклонник	-10.7647
▁принимают	-10.7648
▁Англии	-10.7649
клавиатур	-10.7651
граничен	-10.7655
фол	-10.7655
▁ценность	-10.7669
▁действовать	-10.7673
▁производителя	-10.7674
ture	-10.7675
▁эндо	-10.7675
Свят	-10.7678
▁играют	-10.7678
▁высокая	-10.7678
▁смеси	-10.7682
▁любым	-10.7682
▁повысить	-10.7691
▁представителей	-10.7695
▁голод	-10.7697
▁получат	-10.77
▁Каждая	-10.7702
измеря	-10.7703
land	-10.7703
▁посетить	-10.7704
▁жду	-10.7706
▁Важно	-10.7709
транс	-10.7712
▁недвижимости	-10.7718
▁Ричард	-10.772
продукт	-10.772
крытие	-10.7728
ool	-10.7729
▁карман	-10.7733
▁уникально	-10.7741
▁изолирован	-10.7743
▁пытался	-10.7744
▁важную	-10.7746
▁среда	-10.7754
▁кампании	-10.7754
NE	-10.7755
▁пользователи	-10.7767
▁пользоваться	-10.7768
слушать	-10.7777
екция	-10.7787
▁танк	-10.7792
▁хуже	-10.7793
▁ослаб	-10.7794
▁заменить	-10.7794
Золот	-10.7794
▁объясняет	-10.7796
▁добраться	-10.78
▁современной	-10.7801
степен	-10.7802
станция	-10.7807
▁робот	-10.781
ировку	-10.7812
▁Давайте	-10.7816
▁сельскохозяйств	-10.7822
▁фермер	-10.7825
фут	-10.7829
▁личности	-10.7831
▁придержива	-10.7835
масс	-10.784
двинут	-10.784
хожу	-10.7852
▁порядок	-10.7859
▁чудес	-10.7864
▁отклонен	-10.7866
▁лестниц	-10.7868
own	-10.7872
▁известна	-10.7872
▁ООО	-10.7877
▁концу	-10.7878
▁составляют	-10.7883
▁расстояние	-10.7883
▁главе	-10.7885
уязвим	-10.7886
▁семинар	-10.7888
▁показатели	-10.7889
▁перемеща	-10.7891
совершенств	-10.7899
▁составлял	-10.7903
▁экологи	-10.7904
▁хоть	-10.7908
допустим	-10.7911
▁натурал	-10.7911
▁иностранных	-10.7912
▁Убедитесь	-10.7916
▁балкон	-10.7917
▁порядка	-10.7921
▁каждым	-10.7932
▁областях	-10.7934
▁отдых	-10.7945
▁мебель	-10.7945
▁добавляет	-10.7947
▁воскресенье	-10.7947
▁администратор	-10.7951
цикл	-10.7951
▁соединение	-10.7956
▁спортсмен	-10.7957
ографии	-10.7957
▁небольшим	-10.7964
▁учителя	-10.7964
хранилищ	-10.7965
▁png	-10.7971
▁болт	-10.7973
▁Количество	-10.7973
▁Ниже	-10.7976
звезд	-10.7977
▁сенсор	-10.7977
▁беременности	-10.7979
▁практику	-10.7984
▁увидите	-10.7985
▁настройка	-10.7986
водят	-10.7989
падают	-10.7992
▁пишет	-10.7992
▁общин	-10.7993
бежал	-10.7997
▁края	-10.7999
▁Ключ	-10.8
▁любят	-10.8002
▁драйвер	-10.8003
▁титул	-10.8004
ождеств	-10.8008
▁PNG	-10.8009
пузыр	-10.8022
▁субботу	-10.8031
▁хорошего	-10.8035
ализм	-10.8039
▁шест	-10.8043
▁броса	-10.8043
▁универсал	-10.8045
▁поставил	-10.8051
▁строго	-10.8052
▁воспользоваться	-10.8052
▁Одним	-10.8055
терапевт	-10.8059
▁настоящий	-10.8061
▁Австралии	-10.8063
▁остановил	-10.8066
▁функционально	-10.8071
▁природа	-10.8082
▁Шир	-10.8084
▁точку	-10.8086
▁рассказывает	-10.8086
▁влажно	-10.8089
▁тихо	-10.8093
▁Билл	-10.8093
▁равны	-10.8094
▁фрагмент	-10.8097
▁гибко	-10.8098
TV	-10.8103
▁нарушение	-10.8104
▁учитывая	-10.8105
ированным	-10.8109
tra	-10.8114
▁Петр	-10.8115
▁модуля	-10.8117
▁важна	-10.8123
▁позитив	-10.8125
▁участвовать	-10.8134
▁растение	-10.8135
▁параллель	-10.8142
▁ждать	-10.8145
▁комментарии	-10.8148
▁конфигурации	-10.8148
amp	-10.8151
▁завтра	-10.8152
летнего	-10.8153
▁диплом	-10.8156
фрукт	-10.8158
▁огромное	-10.8165
▁гриб	-10.8165
▁применяется	-10.8165
▁личных	-10.8171
токовое	-10.8173
▁трасс	-10.8174
Современн	-10.8176
▁Точно	-10.8177
▁оценку	-10.819
▁Материал	-10.819
▁живопис	-10.82
▁молитв	-10.8204
▁чтения	-10.8208
▁белка	-10.8212
▁Информация	-10.8214
▁штраф	-10.8214
▁болезнь	-10.8215
▁камера	-10.8216
▁Колумб	-10.822
▁уважа	-10.8221
НЫЙ	-10.8229
▁отдельные	-10.823
▁курорт	-10.8234
▁снижа	-10.8238
вторых	-10.8239
▁лак	-10.8242
▁посмотрел	-10.8251
ствовать	-10.8271
▁побочн	-10.8272
сотруднича	-10.8283
▁руководства	-10.8285
▁насыщен	-10.8287
▁минимально	-10.829
▁запрещен	-10.8295
▁модерн	-10.8296
▁записыва	-10.8302
▁оказался	-10.8305
▁принтер	-10.8309
▁последнего	-10.8312
▁рассказать	-10.8315
▁листья	-10.832
▁появился	-10.8327
▁обозначен	-10.8328
автоном	-10.8328
▁сильным	-10.8332
▁Проект	-10.8332
▁путешествие	-10.8335
▁упомянут	-10.8335
соци	-10.8339
▁ожидать	-10.8353
бросить	-10.8359
▁фраз	-10.8359
▁ожидаем	-10.836
▁счастью	-10.836
▁будущего	-10.8362
▁Позже	-10.8362
▁схема	-10.8363
▁страница	-10.8368
▁клетка	-10.8374
ake	-10.8376
▁продолжен	-10.8379
▁грузовик	-10.8382
ence	-10.8382
Time	-10.8384
▁парламент	-10.8385
▁поделиться	-10.8385
Специальн	-10.8385
▁вспомн	-10.8394
▁включал	-10.8395
▁содержания	-10.8395
▁гармон	-10.8405
▁Питер	-10.8408
ингтон	-10.8411
▁домашних	-10.8412
исполня	-10.842
▁экзамен	-10.8426
влекательны	-10.8428
▁исправлен	-10.843
▁деталей	-10.8432
▁международного	-10.8432
▁Пусть	-10.8439
▁жизненно	-10.844
▁зерн	-10.844
▁Основные	-10.8441
▁проводил	-10.8442
▁кухне	-10.8444
▁стиля	-10.8452
▁коррект	-10.8453
▁опять	-10.8459
▁восьми	-10.8463
▁подарок	-10.8466
▁публикации	-10.8471
▁энергию	-10.8473
штейн	-10.8473
▁инструкции	-10.8475
▁стул	-10.8483
▁холм	-10.8483
▁отличи	-10.8486
▁закрыва	-10.849
▁восстановить	-10.8494
▁угодно	-10.8499
▁хотелось	-10.8499
▁белом	-10.85
▁одежду	-10.8506
▁получал	-10.8511
▁хит	-10.8516
▁новости	-10.8526
▁ввода	-10.8526
▁Всегда	-10.8528
▁одинаковы	-10.8533
▁непрерывно	-10.8533
▁раскрыт	-10.8533
▁гигант	-10.8533
▁ассортимент	-10.8541
▁описывает	-10.8548
▁Наиболее	-10.8549
▁потребителей	-10.8563
▁впечатление	-10.8568
▁концентрации	-10.8571
▁приобрести	-10.8579
▁рабочие	-10.8581
▁хранить	-10.8586
▁главной	-10.8588
▁полимер	-10.8592
▁массаж	-10.8599
▁большом	-10.8601
▁батареи	-10.8602
доброволь	-10.8603
▁схемы	-10.8606
▁вчера	-10.8606
▁производителей	-10.8606
▁рекомендую	-10.8606
▁череп	-10.8622
▁Открыт	-10.8628
▁разъем	-10.863
▁одинаково	-10.8637
▁замуж	-10.8641
▁спокойно	-10.8646
▁очков	-10.865
▁раунд	-10.8661
▁высококачествен	-10.8666
▁враща	-10.8667
▁давайте	-10.8675
▁двигаться	-10.8677
▁аэро	-10.8677
▁внимательно	-10.8679
▁предоставляют	-10.868
карди	-10.8681
настоящему	-10.8682
ode	-10.8684
носил	-10.8687
SQL	-10.8697
▁английский	-10.8701
▁мусульман	-10.8706
▁операция	-10.8727
▁Киев	-10.8739
vel	-10.8743
▁Ведь	-10.8749
▁общественного	-10.8754
▁Могу	-10.8758
файл	-10.8762
▁деревья	-10.8764
▁Виктор	-10.8765
▁помню	-10.8766
▁лицензии	-10.8768
▁буквально	-10.8768
▁компанию	-10.8771
▁пилот	-10.8776
▁южно	-10.8784
рожда	-10.8787
▁Восток	-10.88
помога	-10.8802
ответствен	-10.8802
свеч	-10.8802
▁коллекции	-10.8808
▁атрибут	-10.8811
▁молекул	-10.8824
▁Мартин	-10.8828
пишу	-10.8831
▁снизить	-10.8834
бума	-10.8845
Быстр	-10.8848
▁обоснова	-10.8856
оптимиз	-10.8858
физик	-10.8859
▁гормон	-10.8868
▁потребностей	-10.8869
▁синтез	-10.8874
правлять	-10.8878
Анджелес	-10.8884
▁Действительно	-10.8884
▁сыграл	-10.8894
▁фронт	-10.8899
▁задней	-10.8903
▁одежда	-10.8904
▁уничтожен	-10.8906
▁точность	-10.8915
▁акцент	-10.8916
▁основы	-10.8917
▁грузов	-10.8918
▁качеств	-10.8918
▁кухня	-10.8922
▁маленький	-10.8941
▁социальные	-10.8949
▁понимания	-10.8953
ound	-10.8962
▁Посмотрите	-10.8972
▁окончательно	-10.8974
▁произойдет	-10.8978
▁фермент	-10.8982
▁этаже	-10.8983
▁твои	-10.8984
▁сустав	-10.8984
солнечно	-10.8984
▁небольших	-10.8984
▁Транс	-10.8987
▁Место	-10.8999
▁осталось	-10.9
▁История	-10.9
артери	-10.9001
▁распозна	-10.9007
пенди	-10.9007
▁Генри	-10.9007
▁дважды	-10.9009
▁природе	-10.9011
▁финансирования	-10.9033
морожен	-10.9034
▁осторожно	-10.9036
▁обеих	-10.9041
▁Стандарт	-10.9042
▁понимать	-10.9042
▁Эффект	-10.9052
▁участники	-10.906
▁Больше	-10.9061
▁обратиться	-10.9062
▁продемонстриров	-10.907
▁пароль	-10.907
▁элегант	-10.9075
пиксел	-10.9076
принят	-10.9081
▁тесно	-10.9083
▁дисциплин	-10.9085
▁дюймов	-10.9085
▁национальной	-10.909
хождения	-10.9095
▁английском	-10.9098
▁управляем	-10.9098
▁развивать	-10.9099
▁живут	-10.9112
▁слегка	-10.9115
▁покупать	-10.9117
▁Цена	-10.9118
▁суммы	-10.912
▁назвать	-10.9121
▁откуда	-10.9126
▁планшет	-10.9131
▁однажды	-10.9137
▁испытаний	-10.9143
▁упражнения	-10.915
▁кровать	-10.9152
▁подтвердил	-10.9152
▁читал	-10.9153
▁отказаться	-10.9158
▁кухни	-10.9167
Сити	-10.9169
▁Думаю	-10.9171
▁сердечно	-10.9174
▁государственной	-10.918
▁гитар	-10.9186
able	-10.919
▁бонус	-10.9192
und	-10.9195
▁единственным	-10.9196
▁сравнив	-10.92
мощно	-10.9213
▁Play	-10.9213
▁приведет	-10.9215
▁соответствовать	-10.9232
▁окончания	-10.9236
▁внутреннего	-10.9236
▁Груз	-10.9236
▁субъект	-10.9238
ирующий	-10.9238
▁штук	-10.9242
▁собственных	-10.9244
▁тревог	-10.9245
▁главного	-10.9248
зыскан	-10.9252
▁Большой	-10.9253
▁уровни	-10.9255
▁убедитесь	-10.9256
▁специальные	-10.9264
▁потребовал	-10.9269
▁эквивалент	-10.927
▁очистки	-10.9273
▁посетителей	-10.9283
дифференци	-10.9285
▁дополнительную	-10.9289
▁реальность	-10.9298
▁Необходимо	-10.9299
▁представлял	-10.9301
▁равен	-10.9308
▁небольшие	-10.931
▁Большая	-10.9313
▁массово	-10.9313
▁сеанс	-10.9313
▁Надеюсь	-10.9319
▁экстра	-10.9325
▁почтов	-10.9326
▁ВИЧ	-10.9327
▁можешь	-10.9336
▁стоял	-10.9338
▁диабет	-10.934
▁Соединенн	-10.934
▁приобрел	-10.9342
▁координат	-10.9345
▁допуска	-10.9358
▁аккаунт	-10.9361
▁растет	-10.9365
▁наруша	-10.9367
вертыва	-10.9371
▁товарищ	-10.9372
▁Андре	-10.9375
▁слева	-10.9375
▁выбирать	-10.9376
▁мимо	-10.9383
безум	-10.9385
▁изначально	-10.9385
▁понравилось	-10.9386
▁поддержке	-10.9387
▁поговорить	-10.9387
▁генерал	-10.9389
▁изделий	-10.9391
EX	-10.9392
▁бетон	-10.9395
▁диаграмм	-10.9404
▁земля	-10.9405
▁главных	-10.9407
▁улица	-10.941
АЛЬ	-10.9412
▁сложных	-10.9415
▁навсегда	-10.9417
▁мобильных	-10.9422
▁географ	-10.9428
▁мотоцикл	-10.943
ходящий	-10.9432
▁концепции	-10.9438
ликвид	-10.9439
▁подумать	-10.9445
▁письме	-10.9446
программ	-10.9451
▁показатель	-10.9455
▁Фонд	-10.946
▁Парк	-10.947
▁справиться	-10.9471
▁медицинской	-10.9473
▁мясо	-10.9474
▁Способ	-10.9477
▁современные	-10.948
▁драг	-10.9484
▁итог	-10.9484
сердеч	-10.9484
▁привык	-10.9486
позицион	-10.9489
обознач	-10.9489
▁Power	-10.949
излучени	-10.9493
▁шрифт	-10.9495
▁рекомендуем	-10.9499
кажем	-10.9506
▁сидя	-10.9507
▁желаем	-10.9515
▁хвост	-10.9519
фиолет	-10.9523
▁сегодняшний	-10.9529
▁Видео	-10.9529
▁жестоко	-10.9531
▁монитор	-10.9538
▁Первая	-10.9541
▁попасть	-10.9542
▁зелено	-10.9546
▁творчески	-10.9547
que	-10.9554
чистить	-10.9554
▁российско	-10.9555
больше	-10.9556
слушива	-10.9559
▁подключа	-10.9574
▁огонь	-10.9579
▁автомобили	-10.9579
▁продолжают	-10.9581
▁каждые	-10.9592
▁национальных	-10.9595
ставляем	-10.9605
▁образца	-10.9616
▁лун	-10.962
▁подростков	-10.9621
предусматрива	-10.9625
▁вентилятор	-10.9627
▁Следует	-10.9631
▁утверждал	-10.9632
▁сочетание	-10.9641
устройств	-10.9645
▁характеризу	-10.9646
▁усилива	-10.9647
▁Браун	-10.9649
▁капитан	-10.965
▁ходьбы	-10.9652
▁трафик	-10.9652
▁двое	-10.9655
▁Стивен	-10.9657
▁осуществлять	-10.9661
▁соглашения	-10.9665
▁смешива	-10.9665
▁консультант	-10.9665
▁лежит	-10.9669
▁Стоимость	-10.9669
▁соглашение	-10.9669
▁вечно	-10.9682
▁технологически	-10.9683
африкан	-10.9687
матриц	-10.9691
▁Азербайджан	-10.9691
▁Украине	-10.9707
▁гостиниц	-10.971
▁радость	-10.9711
▁Италии	-10.9711
▁оригинально	-10.9722
▁появляются	-10.9727
государственного	-10.9735
НЫЕ	-10.9738
▁наоборот	-10.974
▁пришло	-10.9744
▁инвалид	-10.9744
▁бак	-10.9745
▁желаю	-10.9748
▁Group	-10.9749
▁обувь	-10.9749
▁основного	-10.9749
▁Добавьте	-10.975
обширн	-10.9754
▁помимо	-10.976
▁позицию	-10.9764
▁случилось	-10.9767
▁установке	-10.9778
▁средний	-10.9785
▁еврей	-10.9802
▁назнача	-10.9806
▁свадеб	-10.9822
▁стакан	-10.9828
▁разочарован	-10.9831
▁архив	-10.9832
▁градусов	-10.9836
▁заболевание	-10.9836
▁калибр	-10.9836
▁профиль	-10.9839
▁максимум	-10.9842
▁третий	-10.9845
▁деталь	-10.9845
▁население	-10.9851
▁мораль	-10.9857
▁Техас	-10.9861
▁путешествия	-10.9867
▁жители	-10.9872
Звезд	-10.9873
▁портрет	-10.9877
▁Доктор	-10.9879
▁девочек	-10.9882
▁хост	-10.9883
▁дефицит	-10.9886
▁настоящим	-10.9894
▁инцидент	-10.9894
▁Дизайн	-10.9894
▁ислам	-10.9895
▁Java	-10.9899
▁белого	-10.9903
▁принимал	-10.9914
▁наверное	-10.9916
▁учебно	-10.9918
▁тремя	-10.992
▁прочитать	-10.9924
▁китайско	-10.9926
▁крупные	-10.9929
фабрик	-10.9929
▁гарантирует	-10.9933
▁кросс	-10.9938
▁Проблема	-10.9942
▁штаб	-10.9943
▁обвиня	-10.9948
▁начинаю	-10.9951
культур	-10.9952
▁мембран	-10.9955
▁сетях	-10.9958
ОЛЬ	-10.9959
▁берет	-10.9963
▁вызывают	-10.9981
▁кабинет	-10.9983
▁календар	-10.9987
▁учащихся	-10.9989
▁родственник	-10.9994
▁Метод	-10.9995
▁фруктов	-10.9998
▁оценке	-11.0002
▁ключевых	-11.0006
▁приемлем	-11.0011
ирующим	-11.0022
▁приближа	-11.0026
▁морской	-11.0027
▁печени	-11.0028
▁Вместе	-11.0033
▁хлор	-11.0042
▁заметно	-11.0051
▁Medi	-11.0052
▁музей	-11.0053
▁остальных	-11.0059
▁отличным	-11.0059
▁Ожида	-11.0065
▁преобразова	-11.0073
▁сотрудничество	-11.0076
▁родителям	-11.0077
▁качественно	-11.0079
служен	-11.0082
▁яйца	-11.0083
вероятны	-11.0086
▁объясня	-11.0088
▁находиться	-11.0091
▁образцов	-11.0091
▁основу	-11.0094
▁маленькие	-11.0094
Хилл	-11.0099
▁кольцо	-11.0108
▁диагноз	-11.011
▁Процесс	-11.0113
▁развитии	-11.0113
▁All	-11.0115
▁отвечаю	-11.0117
▁нефти	-11.0127
ходящим	-11.0132
▁получив	-11.0133
▁дольше	-11.0134
катастроф	-11.0136
▁Проверьте	-11.0136
ставлял	-11.0137
Групп	-11.0137
▁мысль	-11.0139
регуляр	-11.014
брежн	-11.0142
▁отверстия	-11.0145
▁ручной	-11.0147
▁дефект	-11.0147
▁ускорен	-11.0148
▁ссылку	-11.015
▁сотни	-11.0154
▁Анализ	-11.0155
▁легких	-11.0156
▁соответствуют	-11.0166
▁озера	-11.0173
▁актрис	-11.0176
▁поздно	-11.0176
▁появилась	-11.0178
▁собственным	-11.0194
▁сестра	-11.0199
брошен	-11.0204
▁значок	-11.0205
▁достоинств	-11.0208
▁сопротивление	-11.0208
▁отсутствия	-11.0215
▁расстоянии	-11.0215
▁исполнит	-11.0218
▁Другой	-11.0227
▁приблизительно	-11.0231
▁сильнее	-11.0238
▁молоко	-11.024
▁грани	-11.0241
▁предполагаю	-11.0242
▁стекла	-11.0243
▁управляет	-11.025
▁оптимизаци	-11.0255
▁артист	-11.0259
▁ребята	-11.0268
АЙ	-11.0269
▁оперативно	-11.0269
▁своё	-11.0271
▁предстоит	-11.0275
▁камеру	-11.0282
настраива	-11.0284
▁режиссер	-11.0287
▁внезапно	-11.0294
▁возьми	-11.03
▁тонко	-11.0301
языч	-11.0307
™	-11.0308
▁международной	-11.031
→	-11.031
▁пистолет	-11.031
▁вакцин	-11.0311
▁владельца	-11.0311
▁Всё	-11.0311
▁показателей	-11.0314
▁пребывания	-11.0315
скрипт	-11.0321
▁контраст	-11.0325
▁изменит	-11.033
▁конструкция	-11.0331
▁быстрый	-11.0332
▁древне	-11.0335
вторич	-11.0341
▁запланирован	-11.0347
▁Основная	-11.0352
▁подготовлен	-11.0358
▁великолепны	-11.0367
стеклян	-11.0377
▁взаимодействие	-11.0384
Маленьк	-11.0389
▁исключит	-11.0404
▁появля	-11.0411
▁рассчитан	-11.0413
▁господ	-11.0419
▁останется	-11.0422
×	-11.0424
▁бросил	-11.0434
▁способствовать	-11.0435
▁учиться	-11.0442
азиат	-11.0447
▁дочери	-11.0454
▁второе	-11.0454
▁представляю	-11.0457
▁бронирован	-11.0457
▁искал	-11.0459
продолж	-11.046
▁увлека	-11.0472
▁Определен	-11.0474
▁специализирован	-11.0476
▁проявлен	-11.0487
требую	-11.0491
▁вовлечен	-11.0491
носитель	-11.0498
алкоголь	-11.0503
▁нравятся	-11.0507
▁превышает	-11.0512
▁высоте	-11.0512
углевод	-11.0514
▁наушник	-11.0518
▁Подобн	-11.0518
ЕНИЯ	-11.0526
▁украин	-11.0529
▁ствол	-11.053
▁получаем	-11.053
▁Высоко	-11.0542
▁клиник	-11.0542
смея	-11.0544
▁появились	-11.0551
▁отражает	-11.0552
▁возможных	-11.0556
▁рабочем	-11.0563
▁проверен	-11.0563
▁мероприятие	-11.0567
▁синдром	-11.057
смех	-11.0578
▁заболе	-11.0582
▁кирпич	-11.0584
▁предоставил	-11.0589
▁обследован	-11.0594
▁продолжить	-11.06
▁внутрь	-11.0601
▁маленьких	-11.0608
▁плакат	-11.0611
терапия	-11.0615
▁земель	-11.0634
▁прозрачно	-11.0634
оранж	-11.0639
▁хранит	-11.0659
▁Москва	-11.0659
▁понадобится	-11.0662
▁насилия	-11.0663
▁публично	-11.0676
▁посетил	-11.0687
▁солнца	-11.0689
▁Зелен	-11.0701
▁рисунок	-11.0701
|	-11.0704
▁узнает	-11.0704
▁генератор	-11.0705
▁современного	-11.0709
▁опубликовал	-11.0711
▁крупным	-11.0716
▁начальник	-11.073
▁подтверждаю	-11.0733
▁исследовательск	-11.0733
▁влияют	-11.0739
Увелич	-11.074
▁участникам	-11.074
▁зеленый	-11.0751
▁аналитик	-11.0752
▁акционер	-11.076
▁соединений	-11.0765
▁локально	-11.0768
▁сцены	-11.0769
▁воспитан	-11.0781
▁тренировки	-11.0784
▁индустрии	-11.0784
▁математик	-11.0789
▁попытки	-11.0792
▁барабан	-11.0794
▁эксперименталь	-11.0794
▁появления	-11.0802
▁барьер	-11.0802
▁Святого	-11.0807
▁вознагражден	-11.0814
▁хочешь	-11.0819
▁последним	-11.0822
теоретичес	-11.0826
▁зданий	-11.0829
▁километр	-11.0834
▁кластер	-11.0837
▁сообщить	-11.084
▁бороться	-11.0841
▁реализован	-11.0841
восстанавлива	-11.0844
▁угрожа	-11.0844
▁Вскоре	-11.0845
▁соединя	-11.0846
▁Создание	-11.0851
▁посмотрите	-11.0857
▁Установите	-11.086
▁ландшафт	-11.0861
▁отсутствует	-11.0868
▁благотворитель	-11.0868
▁специальных	-11.0888
специфич	-11.089
▁Филипп	-11.0898
пускается	-11.0903
▁Земли	-11.0906
▁дебют	-11.0911
▁Джефф	-11.0913
▁белков	-11.092
▁политической	-11.0921
▁интегрирован	-11.0921
▁представителя	-11.0926
▁записей	-11.0926
▁искр	-11.0932
▁золота	-11.0933
▁бюро	-11.0936
▁звучит	-11.0949
▁воздушно	-11.0958
▁оптимально	-11.0968
▁огромный	-11.0968
Петербург	-11.0973
промежуточн	-11.0981
▁Клиент	-11.0981
▁идентификатор	-11.0983
▁существующих	-11.0984
▁похорон	-11.0988
▁Рисунок	-11.0991
▁предоставляем	-11.0991
▁грунт	-11.0996
дикт	-11.1001
▁обычным	-11.1002
▁информационно	-11.1011
▁настоящей	-11.1014
▁небольшое	-11.1018
▁собственную	-11.1031
▁эмоционально	-11.1039
▁потребность	-11.1047
ушке	-11.1058
▁требуем	-11.1062
▁энергия	-11.107
▁обусловлен	-11.1072
подростк	-11.1077
рецептор	-11.1079
▁Конгресс	-11.1079
▁попытка	-11.1082
▁ведущих	-11.1082
▁критически	-11.1084
▁кольца	-11.1087
▁деревьев	-11.1094
▁подписал	-11.1099
▁почувствовал	-11.11
норматив	-11.1101
▁Используя	-11.111
▁салат	-11.111
▁Попробуйте	-11.1112
▁знаешь	-11.1123
▁участок	-11.1125
▁привлечен	-11.1135
▁памятник	-11.114
▁требовал	-11.1144
▁пальца	-11.1146
▁Значит	-11.1148
▁отражен	-11.1151
▁сложные	-11.1162
водород	-11.1177
▁Скотт	-11.1177
▁сделаю	-11.1178
▁физической	-11.1179
▁Интересно	-11.1184
▁дополнительный	-11.1189
▁сделки	-11.119
▁радикал	-11.1193
▁показателя	-11.1193
▁камня	-11.1203
▁Никогда	-11.1204
▁освободи	-11.1212
▁музыкант	-11.1216
▁условии	-11.1217
▁проверку	-11.1218
книж	-11.122
держивать	-11.1222
▁жанр	-11.1223
***	-11.123
▁последнем	-11.1238
▁сравнения	-11.1245
▁Безопасн	-11.1245
▁чрезмерно	-11.1248
▁Добро	-11.1248
▁сутки	-11.1251
откровен	-11.1255
▁багаж	-11.1256
▁попытаться	-11.1269
АНИЕ	-11.1273
▁инструкция	-11.1279
функционал	-11.128
▁интеграции	-11.1282
▁кровати	-11.1287
▁снаружи	-11.1292
▁обязательны	-11.1297
▁орех	-11.1299
▁снял	-11.13
▁совокуп	-11.1305
▁воскрес	-11.1308
▁Чарльз	-11.131
▁подавля	-11.1311
вертикал	-11.1312
▁Instagram	-11.1318
▁Недавно	-11.1321
▁Web	-11.1321
▁аварий	-11.1321
▁истинно	-11.1321
эстет	-11.1321
▁настроек	-11.1323
оператив	-11.1326
▁случая	-11.1327
▁накоплен	-11.1333
▁конверт	-11.1342
▁окисл	-11.1345
▁увлажн	-11.1352
▁регулятор	-11.1354
▁храня	-11.1356
▁нетерпением	-11.137
▁объяснил	-11.1371
▁Очевидно	-11.1386
▁комиссии	-11.1388
▁дистанционн	-11.1388
▁предпочитаю	-11.1395
▁избавиться	-11.1396
▁Помните	-11.1404
▁коронавирус	-11.1407
▁отличная	-11.1407
▁гнев	-11.1412
▁Действ	-11.1414
▁Server	-11.1425
▁сомнения	-11.1433
▁Список	-11.1441
▁случаи	-11.1445
▁высоты	-11.1446
▁Насколько	-11.1457
▁ассоциации	-11.1462
▁признать	-11.1468
▁Владимир	-11.147
▁вдохновля	-11.1478
Иллюстр	-11.1478
▁DVD	-11.1488
▁выглядят	-11.1494
▁инвестиции	-11.1501
молекуляр	-11.1505
▁Каждо	-11.1518
▁стратегия	-11.152
▁частных	-11.1531
▁ежегодн	-11.1531
▁услышать	-11.1533
Tech	-11.1542
▁серьезные	-11.1546
▁подтверждает	-11.1546
интерес	-11.1548
▁автомобиле	-11.1552
▁Южно	-11.1555
▁предприятие	-11.1562
▁привлекательно	-11.1575
▁потребление	-11.1579
▁уважение	-11.1587
▁предыдущих	-11.1589
▁Black	-11.1592
▁услышал	-11.1597
▁белые	-11.16
▁божеств	-11.1602
▁Установка	-11.1603
▁иллюстрации	-11.1605
▁недвижимость	-11.1605
▁привержен	-11.1605
Систем	-11.1606
.............	-11.1607
▁макияж	-11.1608
аллерги	-11.1612
▁Учитывая	-11.1613
▁подобных	-11.1617
▁сокраща	-11.1619
▁воспален	-11.1621
▁Бесплатная	-11.1621
▁современным	-11.1622
РНК	-11.163
▁Институт	-11.1632
▁стерео	-11.1634
кредит	-11.1638
▁человеческого	-11.1645
▁мечты	-11.1646
▁World	-11.1651
▁исключа	-11.1666
▁вертикально	-11.1669
▁возбужден	-11.167
▁Название	-11.1672
▁современный	-11.1674
▁забыл	-11.1676
▁СССР	-11.1683
▁механически	-11.1687
▁вспомина	-11.1695
▁неожиданно	-11.1697
▁ребенком	-11.1702
▁обещан	-11.1713
▁желто	-11.1717
▁международным	-11.1718
▁эксклюзив	-11.1721
▁Руководство	-11.1721
английски	-11.173
▁январе	-11.1732
▁Франк	-11.1734
▁Super	-11.1734
▁зарплат	-11.1737
▁недостатки	-11.1742
▁приложении	-11.1743
▁YouTube	-11.1748
▁Получен	-11.1752
снеж	-11.1755
▁Расположен	-11.176
▁бухгалтер	-11.1767
▁оплачива	-11.177
▁Штатах	-11.1775
▁напитки	-11.1779
▁Имеет	-11.1782
▁расстояния	-11.1783
▁исследовать	-11.1784
▁заражен	-11.1789
▁признает	-11.1795
▁повлиять	-11.1805
средств	-11.1818
▁стадион	-11.1821
Прекрасн	-11.183
▁едва	-11.1834
▁профиля	-11.1837
▁Африке	-11.1838
услуге	-11.1841
▁Женщина	-11.1843
▁лечении	-11.1843
▁консоли	-11.1849
▁племен	-11.1855
▁сентябре	-11.1857
▁соотношение	-11.1857
▁концепция	-11.186
▁посыл	-11.1861
▁адекват	-11.1865
▁подготовить	-11.1886
Швейцар	-11.189
▁Олимп	-11.189
▁включаю	-11.1893
▁кнопка	-11.1898
▁больнице	-11.1901
▁помнить	-11.1905
▁заявку	-11.1913
▁потребления	-11.1923
▁соблюдать	-11.1923
▁значимо	-11.1932
▁выбирает	-11.1936
▁приходилось	-11.1937
▁азот	-11.1946
▁Участник	-11.1953
байт	-11.1959
▁актуальны	-11.196
▁принимаю	-11.1961
▁свяжитесь	-11.197
продаж	-11.1971
▁предоставлять	-11.1978
▁эмоции	-11.1992
▁Подробнее	-11.1995
▁сомнева	-11.2001
▁Bluetooth	-11.2003
▁представители	-11.2009
▁национального	-11.2009
▁продолжил	-11.2015
▁Организаци	-11.202
▁Samsung	-11.2026
▁последовал	-11.2028
▁Техническ	-11.2028
▁Средне	-11.203
▁облач	-11.203
▁напоминает	-11.2031
▁научиться	-11.2032
▁изобража	-11.2038
▁несомненно	-11.2039
▁Российской	-11.2039
▁исполнения	-11.2042
▁сократить	-11.2045
▁рисунке	-11.2051
▁избиратель	-11.2053
ходящей	-11.2061
▁американских	-11.2063
▁соответствующим	-11.2068
▁заявки	-11.2077
▁Будьте	-11.2081
▁гибрид	-11.2084
пускать	-11.2089
▁тканей	-11.209
▁впоследствии	-11.2093
▁хозяин	-11.2095
▁последнюю	-11.2096
▁неплохо	-11.2104
▁Intel	-11.2104
▁Господь	-11.2107
▁Хотите	-11.2107
▁наверняка	-11.2112
▁бесплатным	-11.2116
▁Auto	-11.2123
▁мгновенно	-11.2129
▁законодатель	-11.2133
▁попробуйте	-11.2138
▁бесконечно	-11.214
▁точке	-11.2144
▁Купить	-11.2149
▁полагаю	-11.216
▁континент	-11.2166
▁традиции	-11.2166
▁ориентир	-11.2169
▁Бесплатно	-11.2186
▁осуществлен	-11.2186
▁потребностям	-11.2194
▁демонстрирует	-11.2203
▁Продукт	-11.2203
частлив	-11.2208
▁стоматолог	-11.2211
▁Почти	-11.2212
▁длинно	-11.2214
▁желания	-11.2221
▁отключен	-11.2222
▁нержавеющей	-11.2223
▁пыль	-11.2224
▁плоским	-11.2225
▁огня	-11.2226
▁Говоря	-11.2226
▁ультра	-11.2228
спокойн	-11.2229
▁Москве	-11.224
▁находился	-11.2241
▁загрузить	-11.2242
▁проанализир	-11.2246
▁индус	-11.2249
убийц	-11.2254
удовлетворя	-11.2254
▁последствий	-11.226
▁рассмотрим	-11.2265
▁потребитель	-11.227
▁Scholar	-11.2271
▁внутренний	-11.2271
▁бомб	-11.2278
▁Источник	-11.228
▁кампус	-11.2283
▁финансирование	-11.2294
магазин	-11.2295
шагов	-11.2297
▁пещер	-11.2303
▁Федерации	-11.2305
▁свидетельствует	-11.2306
▁стратегически	-11.2308
▁соглаша	-11.2308
▁вызывать	-11.2312
вешива	-11.2315
▁неисправно	-11.2317
▁антител	-11.2322
▁прибыл	-11.2325
▁печень	-11.2326
▁Африки	-11.234
▁десятилетия	-11.234
▁сессии	-11.2341
▁юрист	-11.2349
▁уникальный	-11.2349
▁супруг	-11.2354
▁областей	-11.2355
▁Британск	-11.236
▁преоблада	-11.2363
▁предстоящ	-11.2368
▁Детск	-11.237
поляр	-11.237
▁Испании	-11.2372
▁фитнес	-11.2375
▁коробки	-11.2389
▁сложным	-11.2391
▁внешних	-11.2398
▁тревож	-11.2398
▁вмешательства	-11.2401
▁внутренние	-11.2401
▁факультет	-11.2409
▁домашнего	-11.2409
▁проверьте	-11.2413
▁количеству	-11.2415
▁письменно	-11.2417
Председател	-11.2424
▁низкий	-11.2424
▁отверстие	-11.2427
▁корабля	-11.2441
настыр	-11.2456
▁медицинского	-11.2464
▁заняться	-11.2465
▁согласен	-11.2468
▁двадцать	-11.2472
▁целостн	-11.2478
▁квалифицирован	-11.2482
▁мебели	-11.2484
▁поддержкой	-11.2488
▁Кажется	-11.2488
▁визуально	-11.249
▁сможем	-11.2499
▁встретит	-11.2504
▁Дополнительные	-11.2506
Дорог	-11.2522
▁углов	-11.2529
▁Статья	-11.2538
▁выразил	-11.254
«	-11.2544
линейно	-11.2544
▁тенденции	-11.2549
▁происходят	-11.2549
▁молодежи	-11.2549
▁коллекция	-11.2552
▁средних	-11.2556
▁библиотеки	-11.2558
ывайте	-11.2558
▁устанавливать	-11.2565
▁возникновения	-11.257
▁совершил	-11.257
▁Другими	-11.2576
▁композит	-11.2576
▁шляп	-11.2584
Атлант	-11.2588
▁оправдан	-11.259
▁неизвестно	-11.2593
▁апреле	-11.2596
▁небольшая	-11.2611
▁улицы	-11.2616
▁электроэнергии	-11.2617
▁медицины	-11.2617
▁великолепно	-11.2626
▁происходил	-11.2635
▁ближайшие	-11.2647
▁подавлен	-11.2652
▁теория	-11.2659
▁печаль	-11.266
▁тенденция	-11.267
ировке	-11.2677
▁следующую	-11.2688
▁Текст	-11.2703
▁Похоже	-11.2709
▁выделить	-11.271
▁управлению	-11.2712
▁достижение	-11.2715
▁Фотография	-11.2724
▁покупателя	-11.273
▁длительного	-11.2734
ификацию	-11.2738
▁статистически	-11.2742
▁пересеч	-11.2745
▁наблюдение	-11.2745
▁чиновник	-11.2748
Руковод	-11.2757
▁Министерство	-11.2763
▁бирж	-11.2766
▁Amazon	-11.2766
▁Австрал	-11.2772
▁губернатор	-11.2772
осведомлен	-11.2772
▁мультфильм	-11.2781
▁развлека	-11.2792
▁Германия	-11.2796
▁адаптер	-11.2804
Свобод	-11.2814
совершенн	-11.2815
▁Брайан	-11.2816
▁противоположно	-11.2817
▁лаборатории	-11.2826
▁реконструк	-11.2832
▁озеро	-11.2834
▁Штатов	-11.2844
View	-11.2848
▁Hotel	-11.2851
▁провинции	-11.2854
▁постоянным	-11.286
▁Linux	-11.2872
▁получаю	-11.2875
▁щелкните	-11.2878
▁авторитет	-11.2879
▁кишечник	-11.2881
▁зарубеж	-11.2884
▁Агент	-11.2888
▁продукцию	-11.289
▁соперник	-11.289
▁реагиру	-11.2891
▁современном	-11.2897
▁Однажды	-11.2899
▁коридор	-11.2899
▁октябре	-11.2902
▁декабре	-11.2905
▁покупке	-11.2906
▁бензин	-11.293
▁рентген	-11.2933
▁соответствующий	-11.2933
▁реализовать	-11.2936
▁требование	-11.2939
▁сознание	-11.2942
▁отображать	-11.2945
▁Услуг	-11.2945
комбинирова	-11.295
▁маленьким	-11.2957
▁сценарий	-11.2957
щелк	-11.296
▁проповед	-11.2964
должительность	-11.2964
▁избегать	-11.2966
▁Большое	-11.2972
▁общаться	-11.2973
▁чтение	-11.2976
следовательности	-11.2978
▁установите	-11.2988
▁маленькая	-11.3
System	-11.3003
▁Правительство	-11.3006
▁дыхание	-11.3006
▁пальцев	-11.3016
▁употребля	-11.3016
▁лучшая	-11.3025
▁настаива	-11.3033
увеличи	-11.3039
▁ангел	-11.3042
qui	-11.305
▁высота	-11.3069
▁повлиял	-11.3071
избыточ	-11.3083
▁Поиск	-11.3084
▁корабль	-11.3086
▁единственная	-11.309
месячно	-11.309
регулируем	-11.3091
▁сложнее	-11.3096
▁героя	-11.3097
▁баскетбол	-11.3105
▁санкци	-11.3108
прохлад	-11.3112
▁URL	-11.3117
▁Уровень	-11.3121
▁вакуум	-11.3121
▁ближайшее	-11.3124
▁английского	-11.3127
▁Пакистан	-11.3127
Ассоциаци	-11.3133
несчастн	-11.3133
Когда	-11.3148
▁иллюстрация	-11.3149
▁запреща	-11.3149
▁педагог	-11.3155
профессиональных	-11.3158
▁Аналог	-11.3158
двадцат	-11.3159
▁поддержания	-11.3164
▁ноябре	-11.317
▁Апартаменты	-11.3171
▁высшего	-11.3171
▁специфика	-11.3177
▁извлек	-11.3177
▁кусочк	-11.3189
▁выиграть	-11.3189
▁Последний	-11.3192
▁короткие	-11.3199
▁специализиру	-11.3205
ировав	-11.3206
▁имплант	-11.3211
▁расследование	-11.3214
▁Федеральн	-11.3218
▁выяснить	-11.3221
▁обеспокоен	-11.3221
▁председатель	-11.3221
▁Ltd	-11.3221
▁дружелюбн	-11.3224
▁вращения	-11.3225
▁условие	-11.3239
▁приспособлен	-11.3239
▁гарантировать	-11.3239
▁Узнайте	-11.324
▁определил	-11.3248
▁действуют	-11.3249
▁добавлять	-11.3253
▁знакомств	-11.3256
▁покупателей	-11.3262
▁Опыт	-11.3266
▁антенн	-11.327
▁Хороший	-11.3277
принт	-11.3284
▁подвержен	-11.3284
qua	-11.3291
ИЧЕСК	-11.3296
▁приготовить	-11.331
долговечн	-11.3319
▁управлении	-11.3328
▁осторожны	-11.3331
▁изменяет	-11.3333
“	-11.6291
•	-11.7465
№	-12.4771
