<unk>	0
<s>	0
</s>	0
<TOK0>	0
<TOK10>	0
<TOK11>	0
<TOK12>	0
<TOK13>	0
<TOK14>	0
<TOK15>	0
<TOK16>	0
<TOK17>	0
<TOK18>	0
<TOK19>	0
<TOK1>	0
<TOK20>	0
<TOK21>	0
<TOK22>	0
<TOK23>	0
<TOK24>	0
<TOK25>	0
<TOK26>	0
<TOK27>	0
<TOK28>	0
<TOK29>	0
<TOK2>	0
<TOK30>	0
<TOK31>	0
<TOK32>	0
<TOK33>	0
<TOK34>	0
<TOK35>	0
<TOK36>	0
<TOK37>	0
<TOK38>	0
<TOK39>	0
<TOK3>	0
<TOK40>	0
<TOK41>	0
<TOK42>	0
<TOK43>	0
<TOK44>	0
<TOK45>	0
<TOK46>	0
<TOK47>	0
<TOK48>	0
<TOK49>	0
<TOK4>	0
<TOK50>	0
<TOK51>	0
<TOK52>	0
<TOK53>	0
<TOK54>	0
<TOK55>	0
<TOK56>	0
<TOK57>	0
<TOK58>	0
<TOK59>	0
<TOK5>	0
<TOK60>	0
<TOK61>	0
<TOK62>	0
<TOK63>	0
<TOK64>	0
<TOK65>	0
<TOK66>	0
<TOK67>	0
<TOK68>	0
<TOK69>	0
<TOK6>	0
<TOK70>	0
<TOK71>	0
<TOK72>	0
<TOK73>	0
<TOK74>	0
<TOK75>	0
<TOK76>	0
<TOK77>	0
<TOK78>	0
<TOK79>	0
<TOK7>	0
<TOK80>	0
<TOK81>	0
<TOK82>	0
<TOK83>	0
<TOK84>	0
<TOK85>	0
<TOK86>	0
<TOK87>	0
<TOK88>	0
<TOK89>	0
<TOK8>	0
<TOK90>	0
<TOK91>	0
<TOK92>	0
<TOK93>	0
<TOK94>	0
<TOK95>	0
<TOK96>	0
<TOK97>	0
<TOK98>	0
<TOK99>	0
<TOK9>	0
<0x00>	0
<0x01>	0
<0x02>	0
<0x03>	0
<0x04>	0
<0x05>	0
<0x06>	0
<0x07>	0
<0x08>	0
<0x09>	0
<0x0A>	0
<0x0B>	0
<0x0C>	0
<0x0D>	0
<0x0E>	0
<0x0F>	0
<0x10>	0
<0x11>	0
<0x12>	0
<0x13>	0
<0x14>	0
<0x15>	0
<0x16>	0
<0x17>	0
<0x18>	0
<0x19>	0
<0x1A>	0
<0x1B>	0
<0x1C>	0
<0x1D>	0
<0x1E>	0
<0x1F>	0
<0x20>	0
<0x21>	0
<0x22>	0
<0x23>	0
<0x24>	0
<0x25>	0
<0x26>	0
<0x27>	0
<0x28>	0
<0x29>	0
<0x2A>	0
<0x2B>	0
<0x2C>	0
<0x2D>	0
<0x2E>	0
<0x2F>	0
<0x30>	0
<0x31>	0
<0x32>	0
<0x33>	0
<0x34>	0
<0x35>	0
<0x36>	0
<0x37>	0
<0x38>	0
<0x39>	0
<0x3A>	0
<0x3B>	0
<0x3C>	0
<0x3D>	0
<0x3E>	0
<0x3F>	0
<0x40>	0
<0x41>	0
<0x42>	0
<0x43>	0
<0x44>	0
<0x45>	0
<0x46>	0
<0x47>	0
<0x48>	0
<0x49>	0
<0x4A>	0
<0x4B>	0
<0x4C>	0
<0x4D>	0
<0x4E>	0
<0x4F>	0
<0x50>	0
<0x51>	0
<0x52>	0
<0x53>	0
<0x54>	0
<0x55>	0
<0x56>	0
<0x57>	0
<0x58>	0
<0x59>	0
<0x5A>	0
<0x5B>	0
<0x5C>	0
<0x5D>	0
<0x5E>	0
<0x5F>	0
<0x60>	0
<0x61>	0
<0x62>	0
<0x63>	0
<0x64>	0
<0x65>	0
<0x66>	0
<0x67>	0
<0x68>	0
<0x69>	0
<0x6A>	0
<0x6B>	0
<0x6C>	0
<0x6D>	0
<0x6E>	0
<0x6F>	0
<0x70>	0
<0x71>	0
<0x72>	0
<0x73>	0
<0x74>	0
<0x75>	0
<0x76>	0
<0x77>	0
<0x78>	0
<0x79>	0
<0x7A>	0
<0x7B>	0
<0x7C>	0
<0x7D>	0
<0x7E>	0
<0x7F>	0
<0x80>	0
<0x81>	0
<0x82>	0
<0x83>	0
<0x84>	0
<0x85>	0
<0x86>	0
<0x87>	0
<0x88>	0
<0x89>	0
<0x8A>	0
<0x8B>	0
<0x8C>	0
<0x8D>	0
<0x8E>	0
<0x8F>	0
<0x90>	0
<0x91>	0
<0x92>	0
<0x93>	0
<0x94>	0
<0x95>	0
<0x96>	0
<0x97>	0
<0x98>	0
<0x99>	0
<0x9A>	0
<0x9B>	0
<0x9C>	0
<0x9D>	0
<0x9E>	0
<0x9F>	0
<0xA0>	0
<0xA1>	0
<0xA2>	0
<0xA3>	0
<0xA4>	0
<0xA5>	0
<0xA6>	0
<0xA7>	0
<0xA8>	0
<0xA9>	0
<0xAA>	0
<0xAB>	0
<0xAC>	0
<0xAD>	0
<0xAE>	0
<0xAF>	0
<0xB0>	0
<0xB1>	0
<0xB2>	0
<0xB3>	0
<0xB4>	0
<0xB5>	0
<0xB6>	0
<0xB7>	0
<0xB8>	0
<0xB9>	0
<0xBA>	0
<0xBB>	0
<0xBC>	0
<0xBD>	0
<0xBE>	0
<0xBF>	0
<0xC0>	0
<0xC1>	0
<0xC2>	0
<0xC3>	0
<0xC4>	0
<0xC5>	0
<0xC6>	0
<0xC7>	0
<0xC8>	0
<0xC9>	0
<0xCA>	0
<0xCB>	0
<0xCC>	0
<0xCD>	0
<0xCE>	0
<0xCF>	0
<0xD0>	0
<0xD1>	0
<0xD2>	0
<0xD3>	0
<0xD4>	0
<0xD5>	0
<0xD6>	0
<0xD7>	0
<0xD8>	0
<0xD9>	0
<0xDA>	0
<0xDB>	0
<0xDC>	0
<0xDD>	0
<0xDE>	0
<0xDF>	0
<0xE0>	0
<0xE1>	0
<0xE2>	0
<0xE3>	0
<0xE4>	0
<0xE5>	0
<0xE6>	0
<0xE7>	0
<0xE8>	0
<0xE9>	0
<0xEA>	0
<0xEB>	0
<0xEC>	0
<0xED>	0
<0xEE>	0
<0xEF>	0
<0xF0>	0
<0xF1>	0
<0xF2>	0
<0xF3>	0
<0xF4>	0
<0xF5>	0
<0xF6>	0
<0xF7>	0
<0xF8>	0
<0xF9>	0
<0xFA>	0
<0xFB>	0
<0xFC>	0
<0xFD>	0
<0xFE>	0
<0xFF>	0
,	-3.18905
▁	-3.21824
.	-3.37012
▁в	-3.94628
▁и	-4.05753
а	-4.07044
▁с	-4.56545
е	-4.58945
▁на	-4.60628
▁не	-4.86927
ы	-4.93522
▁по	-4.97327
-	-5.03317
и	-5.06347
у	-5.06624
0	-5.16452
1	-5.18858
м	-5.23818
ов	-5.37507
о	-5.43685
▁что	-5.4791
▁за	-5.48061
2	-5.49388
▁для	-5.58555
▁к	-5.61944
▁у	-5.63952
ом	-5.69231
▁от	-5.72451
й	-5.75862
▁(	-5.77377
:	-5.80868
с	-5.81181
▁из	-5.82552
▁о	-5.82965
▁при	-5.84895
▁как	-5.87967
▁вы	-5.9467
▁это	-5.96075
▁а	-5.96486
х	-5.96547
▁«	-6.00446
я	-6.01142
ки	-6.02133
ные	-6.03613
ка	-6.0426
ных	-6.05109
3	-6.08059
5	-6.09597
▁-	-6.10419
ной	-6.11852
но	-6.12329
)	-6.13171
ия	-6.13242
▁я	-6.16155
т	-6.16524
ный	-6.20924
 	-6.21521
▁но	-6.25633
4	-6.26908
9	-6.2776
в	-6.2837
ет	-6.29814
?	-6.2991
ли	-6.30819
▁или	-6.31085
л	-6.3112
▁до	-6.31506
▁про	-6.32765
го	-6.33023
ного	-6.36606
ами	-6.37827
ой	-6.40775
▁он	-6.42091
ть	-6.43293
н	-6.43453
▁–	-6.43891
д	-6.48259
6	-6.48286
▁его	-6.48799
8	-6.49748
▁под	-6.49766
на	-6.51008
▁все	-6.51116
▁—	-6.51396
»	-6.53115
ю	-6.54102
ие	-6.54246
ная	-6.54442
ся	-6.55256
ми	-6.56455
ш	-6.58688
ии	-6.59859
к	-6.60119
7	-6.6024
ку	-6.60921
ах	-6.61966
▁со	-6.63448
ить	-6.66265
▁то	-6.66535
▁так	-6.66957
ь	-6.69193
ла	-6.7111
▁раз	-6.71586
▁об	-6.7223
▁если	-6.7339
ок	-6.73887
!	-6.75504
▁мы	-6.76176
ным	-6.76326
то	-6.76713
ем	-6.80095
п	-6.80164
г	-6.81183
▁же	-6.81929
ется	-6.8235
;	-6.83933
б	-6.85266
ий	-6.87801
▁чтобы	-6.88656
ное	-6.92581
▁"	-6.93468
▁может	-6.94095
ам	-6.95183
▁пере	-6.95305
▁также	-6.96847
▁во	-6.97118
▁только	-6.97529
▁их	-6.98126
ей	-6.98979
▁они	-6.99002
▁можно	-7.00302
за	-7.01026
ию	-7.05663
ит	-7.07203
р	-7.09633
▁время	-7.09971
по	-7.10114
ж	-7.12897
ную	-7.13152
ют	-7.13964
ке	-7.15257
▁после	-7.16473
).	-7.16728
▁быть	-7.16767
▁когда	-7.16837
ая	-7.17298
та	-7.17634
▁было	-7.18087
▁г	-7.18284
▁ли	-7.18417
▁ре	-7.20676
ых	-7.20835
ло	-7.21469
ном	-7.2197
▁будет	-7.22016
▁которые	-7.22122
"	-7.22654
ными	-7.22921
▁есть	-7.23283
не	-7.23463
▁очень	-7.23574
ые	-7.24245
▁был	-7.24459
▁она	-7.25175
▁более	-7.26796
ый	-7.26847
сти	-7.27004
/	-7.28431
да	-7.29357
им	-7.30174
▁бы	-7.31229
ко	-7.32969
ться	-7.33608
ни	-7.35993
ил	-7.38469
ого	-7.38557
▁без	-7.39465
ен	-7.39887
ности	-7.41037
▁т	-7.41635
s	-7.41848
▁ее	-7.41911
з	-7.41942
ются	-7.42199
▁того	-7.42567
ков	-7.42618
ч	-7.42951
▁чем	-7.44914
▁года	-7.45196
▁тем	-7.45445
».	-7.45849
▁уже	-7.46001
ность	-7.46842
▁этом	-7.47409
ля	-7.47521
▁еще	-7.48246
от	-7.48693
▁меня	-7.48791
ской	-7.48962
▁рас	-7.49089
ения	-7.49414
или	-7.50469
ны	-7.52474
ф	-7.52925
▁этого	-7.52982
▁да	-7.53304
ва	-7.5421
ать	-7.54692
▁является	-7.55119
ст	-7.55431
ского	-7.55482
▁лет	-7.58263
▁который	-7.60018
ль	-7.60055
кой	-7.60067
▁том	-7.60088
▁были	-7.60498
▁ни	-7.61104
ский	-7.61177
d	-7.61669
▁мне	-7.61699
y	-7.64186
ите	-7.64499
ти	-7.67104
),	-7.67472
▁этот	-7.68232
ую	-7.68931
ния	-7.68948
ин	-7.69767
▁могут	-7.70188
ым	-7.70348
c	-7.70572
▁п	-7.71483
▁даже	-7.72177
те	-7.72683
ле	-7.73161
вер	-7.74412
▁много	-7.74617
ение	-7.75321
ди	-7.75694
▁больше	-7.76486
▁была	-7.76524
▁просто	-7.76787
▁пре	-7.76798
ние	-7.76898
»,	-7.77298
▁ко	-7.77589
▁вам	-7.77772
тер	-7.77932
ты	-7.78734
...	-7.79263
▁где	-7.79978
▁один	-7.80237
▁д	-7.80259
он	-7.80491
▁году	-7.80785
ду	-7.80836
▁нет	-7.81206
му	-7.81556
▁де	-7.82953
ят	-7.83302
ком	-7.83737
га	-7.84089
▁перед	-7.84203
▁пол	-7.84864
▁себя	-7.85036
▁через	-7.85344
ских	-7.85395
ив	-7.85717
▁эти	-7.86544
лся	-7.87093
ев	-7.87299
▁пред	-7.87522
▁вас	-7.87831
▁нужно	-7.88132
ц	-7.88337
ба	-7.88603
▁всего	-7.88945
▁всех	-7.89073
ист	-7.89456
овой	-7.9
лен	-7.90363
сть	-7.90605
ги	-7.90786
ал	-7.90975
▁s	-7.9103
▁ты	-7.91117
p	-7.91612
во	-7.92073
из	-7.92721
▁нас	-7.92918
▁кор	-7.93036
ней	-7.93243
ор	-7.93294
▁между	-7.93628
лись	-7.93809
▁ш	-7.9475
f	-7.94862
▁м	-7.95728
ские	-7.9761
ре	-7.97711
мен	-7.98092
%	-7.98194
▁кто	-7.9861
ме	-7.98767
ра	-7.99314
се	-8.00971
▁c	-8.00998
тор	-8.00998
ня	-8.01002
▁кон	-8.01318
▁этой	-8.01344
ская	-8.01639
▁них	-8.01694
ник	-8.0231
ма	-8.02488
ции	-8.03119
▁человек	-8.03462
b	-8.03911
▁работы	-8.04102
▁вот	-8.04978
ировать	-8.05096
са	-8.05111
▁те	-8.05207
прав	-8.05287
g	-8.05338
▁несколько	-8.05731
ации	-8.06122
лась	-8.06252
ше	-8.06751
▁поэтому	-8.07533
ну	-8.07947
ри	-8.08082
мер	-8.08166
де	-8.08442
t	-8.0898
▁день	-8.0981
▁здесь	-8.09836
x	-8.10115
йте	-8.10637
▁однако	-8.10685
▁случае	-8.10703
овых	-8.11165
k	-8.11386
вы	-8.12128
▁стар	-8.12266
лож	-8.12852
▁жизни	-8.13152
иться	-8.1391
об	-8.14081
ний	-8.14293
▁цвет	-8.14754
лет	-8.14905
▁имеет	-8.1541
до	-8.15608
ости	-8.16068
же	-8.16945
▁б	-8.17634
овые	-8.17644
ту	-8.17844
▁необходимо	-8.18171
▁там	-8.18253
▁которая	-8.18436
n	-8.18688
али	-8.19837
▁должны	-8.20359
…	-8.20469
ар	-8.2107
ает	-8.21503
▁времени	-8.21608
▁бо	-8.2198
па	-8.22497
m	-8.22637
ец	-8.23047
▁[	-8.23435
про	-8.23455
▁всегда	-8.23994
re	-8.24163
ис	-8.24263
▁план	-8.24335
ство	-8.24431
r	-8.2446
▁способ	-8.24522
▁b	-8.24651
▁других	-8.24657
ша	-8.25353
▁гор	-8.25566
ция	-8.25583
вал	-8.25829
нов	-8.26111
че	-8.26648
ро	-8.2699
ат	-8.26999
▁ему	-8.27109
▁лучше	-8.2747
ием	-8.2755
ав	-8.27881
мо	-8.28
▁сейчас	-8.28139
ина	-8.2832
▁суд	-8.28587
бо	-8.2862
▁над	-8.28646
ое	-8.28686
при	-8.28849
ится	-8.28889
▁вер	-8.28952
чи	-8.29274
ши	-8.29788
a	-8.29826
ства	-8.29982
▁место	-8.30019
ыми	-8.30027
ском	-8.30193
▁теперь	-8.30714
▁вопрос	-8.30846
▁a	-8.31337
▁будут	-8.31966
ры	-8.3226
▁образом	-8.32447
▁па	-8.32534
al	-8.32547
▁d	-8.32847
вид	-8.32966
раз	-8.33102
их	-8.33141
▁три	-8.33246
▁прав	-8.33271
▁именно	-8.33462
▁эта	-8.33594
э	-8.33745
ками	-8.34025
стр	-8.34039
ер	-8.3404
▁людей	-8.34487
вод	-8.34599
▁интерес	-8.34624
▁можете	-8.34826
аль	-8.35246
▁которых	-8.35337
ической	-8.35518
▁себе	-8.35673
w	-8.35734
▁мир	-8.36126
▁своей	-8.36252
ar	-8.36279
ве	-8.36477
ним	-8.36588
o	-8.36634
ан	-8.3664
со	-8.36925
le	-8.37022
▁два	-8.37045
ступ	-8.37104
▁p	-8.3734
си	-8.37369
ск	-8.37377
▁использовать	-8.37453
ному	-8.37457
▁р	-8.37776
ви	-8.37968
▁цен	-8.3801
▁год	-8.38192
▁свою	-8.38538
▁такой	-8.38594
тель	-8.39056
▁например	-8.3913
▁системы	-8.39214
ход	-8.39225
▁него	-8.39273
ряд	-8.39374
▁воз	-8.39472
▁сер	-8.39481
ца	-8.39899
став	-8.40089
ста	-8.40174
лю	-8.40194
ру	-8.40246
▁другие	-8.40309
▁э	-8.40543
▁помощью	-8.40633
би	-8.41052
▁f	-8.41073
лось	-8.41146
ья	-8.41243
мы	-8.41289
▁х	-8.41479
e	-8.4154
лин	-8.41574
ического	-8.41607
er	-8.41712
▁сделать	-8.41728
нии	-8.41786
ления	-8.4179
ила	-8.41852
▁пока	-8.42082
▁человека	-8.42123
▁кроме	-8.42207
род	-8.42329
▁стран	-8.4256
▁вид	-8.42573
ового	-8.4273
ация	-8.42774
лей	-8.42972
ических	-8.43161
це	-8.43306
en	-8.4347
▁сил	-8.43578
▁затем	-8.44436
нее	-8.44439
итель	-8.44525
бор	-8.44636
v	-8.44809
▁данных	-8.44885
▁качестве	-8.44909
▁этих	-8.45152
▁бел	-8.45153
in	-8.45178
ут	-8.45181
▁открыт	-8.45508
ключ	-8.46176
▁должен	-8.46177
▁области	-8.46228
ё	-8.46284
▁потому	-8.46287
зи	-8.46314
i	-8.46374
▁двух	-8.46565
▁такие	-8.46605
▁ос	-8.46608
ость	-8.46614
бу	-8.46729
▁город	-8.46834
]	-8.47047
▁свои	-8.47214
▁тоже	-8.47219
ич	-8.47381
▁тех	-8.47623
вар	-8.47693
ъ	-8.4773
цион	-8.48048
▁таким	-8.48138
▁мест	-8.48184
▁g	-8.48215
жа	-8.4825
▁люди	-8.48765
▁всё	-8.48787
тив	-8.48951
▁одно	-8.48977
вин	-8.49165
▁компании	-8.49299
▁сам	-8.49371
ман	-8.49387
ющих	-8.49393
ирования	-8.49472
▁та	-8.49472
▁хорошо	-8.49579
жен	-8.49656
кон	-8.49694
овать	-8.49908
▁ну	-8.49996
▁каждый	-8.50223
дел	-8.50227
▁россии	-8.50388
ель	-8.50432
▁хотя	-8.50513
▁ответ	-8.50611
▁возможно	-8.50676
▁электро	-8.50886
▁пи	-8.50903
h	-8.50959
ении	-8.5099
▁класс	-8.51042
▁тогда	-8.51059
▁ин	-8.5149
оз	-8.51712
ают	-8.52021
пер	-8.52067
ос	-8.5208
▁совет	-8.5214
▁стол	-8.52242
▁количество	-8.52405
▁сегодня	-8.52514
▁пор	-8.52679
▁конечно	-8.52712
лив	-8.52866
▁фото	-8.53248
цы	-8.53466
▁следует	-8.53552
кс	-8.53654
▁надо	-8.53714
лов	-8.54235
тен	-8.54292
иль	-8.54303
чита	-8.54577
▁мо	-8.54638
▁возможность	-8.54887
".	-8.54889
▁проект	-8.54954
l	-8.5502
▁дома	-8.55029
▁часть	-8.55198
▁период	-8.55595
▁момент	-8.55615
▁часто	-8.55847
ические	-8.56079
ился	-8.56194
пис	-8.56627
▁род	-8.56736
▁быстро	-8.56774
▁бес	-8.56959
▁определен	-8.57046
or	-8.57059
▁само	-8.57158
▁отдел	-8.57176
▁жизнь	-8.57222
ай	-8.5733
▁ба	-8.57487
▁орган	-8.57523
мет	-8.57691
▁процесс	-8.57921
▁состав	-8.58108
▁ла	-8.58226
▁собой	-8.58484
станов	-8.58557
ьный	-8.58574
▁работа	-8.58729
лы	-8.58795
▁особенно	-8.58889
u	-8.59021
ющие	-8.59224
шел	-8.59254
▁течение	-8.59285
▁ю	-8.59338
▁кри	-8.59736
▁части	-8.59761
▁свет	-8.59793
▁лишь	-8.6003
▁нам	-8.60163
▁ф	-8.60343
▁право	-8.60643
▁программ	-8.60736
цию	-8.61007
▁должно	-8.61014
уч	-8.61074
▁выбор	-8.61448
▁дом	-8.61614
▁/	-8.61616
▁мар	-8.61699
олог	-8.61758
▁обычно	-8.61795
зна	-8.61835
жи	-8.6185
дав	-8.62007
ща	-8.62096
ован	-8.6213
ское	-8.62367
▁опыт	-8.62421
ление	-8.62519
▁видео	-8.62548
ел	-8.6263
▁которой	-8.62734
лад	-8.628
▁своих	-8.62804
ик	-8.63348
ха	-8.63443
нес	-8.63556
ед	-8.63801
ус	-8.63922
▁свой	-8.63935
▁детей	-8.64221
▁центр	-8.64237
▁доступ	-8.64248
”	-8.64294
ирован	-8.64365
▁пар	-8.64455
▁стоит	-8.6455
су	-8.64592
▁им	-8.64623
▁пример	-8.64734
дер	-8.6479
ек	-8.64939
▁h	-8.65118
▁m	-8.65257
ешь	-8.65257
▁одной	-8.65363
бер	-8.65644
щ	-8.657
▁закон	-8.6577
нию	-8.65933
▁сказал	-8.6599
ясь	-8.66362
▁таких	-8.66386
ска	-8.66805
▁некоторые	-8.66917
гу	-8.67074
ци	-8.67134
▁всем	-8.67137
an	-8.67153
▁ком	-8.6719
ур	-8.67307
▁почему	-8.67445
▁управления	-8.6753
▁достаточно	-8.67549
▁минут	-8.6771
▁вместе	-8.67879
▁вос	-8.67921
▁актив	-8.68052
▁легко	-8.68305
▁созда	-8.68484
ника	-8.68503
ще	-8.68649
▁стороны	-8.68844
▁размер	-8.69012
мест	-8.69201
▁система	-8.69393
▁ж	-8.69428
руж	-8.69798
смотр	-8.69925
▁готов	-8.70114
ян	-8.70125
▁выход	-8.7018
кры	-8.7022
атор	-8.70265
хо	-8.7028
▁дел	-8.70289
▁ма	-8.70344
▁этим	-8.70351
▁установлен	-8.70374
пад	-8.70448
▁ан	-8.70527
▁“	-8.70556
▁x	-8.70577
▁вес	-8.70779
▁являются	-8.70869
ания	-8.70955
▁ничего	-8.71065
▁выше	-8.71194
▁образ	-8.71392
▁менее	-8.71547
▁ди	-8.71574
нос	-8.71667
▁потом	-8.71727
ству	-8.72021
▁з	-8.72045
енных	-8.72109
ью	-8.72143
кий	-8.72514
енные	-8.72515
▁позволяет	-8.73065
▁дела	-8.73089
ников	-8.73328
ический	-8.73443
ров	-8.73977
овая	-8.73979
ге	-8.73988
▁t	-8.74026
фер	-8.74256
▁которое	-8.74666
▁труд	-8.7474
▁ведь	-8.74778
▁ч	-8.74783
▁тот	-8.74849
▁оп	-8.74973
▁своего	-8.75016
▁счет	-8.75055
▁крас	-8.75064
▁среди	-8.75572
▁эту	-8.75653
▁другой	-8.7571
▁бу	-8.75717
ирование	-8.75899
ись	-8.7605
альный	-8.761
▁расположен	-8.76498
овый	-8.76707
(	-8.76752
▁кол	-8.76754
▁регион	-8.76756
▁какой	-8.76761
▁внимание	-8.76851
▁фильм	-8.76931
ван	-8.77015
us	-8.77095
▁пе	-8.77396
▁метод	-8.77415
ова	-8.77493
ским	-8.77633
ra	-8.77679
▁тре	-8.77785
сто	-8.78001
▁около	-8.78122
действ	-8.78138
▁причин	-8.78257
▁народ	-8.78686
▁против	-8.78716
том	-8.78819
ант	-8.78875
▁боль	-8.78921
ией	-8.78944
▁стро	-8.79056
▁карт	-8.79325
ках	-8.79434
▁связи	-8.7957
воз	-8.79582
оль	-8.79624
ды	-8.79695
▁важно	-8.7988
▁стандарт	-8.80013
▁сша	-8.80157
▁многие	-8.80162
ень	-8.80185
рон	-8.8026
▁блок	-8.80317
▁находится	-8.80421
ак	-8.80561
пол	-8.80599
▁срок	-8.8067
▁указан	-8.80695
▁такое	-8.80705
▁раздел	-8.80892
тур	-8.80984
▁друг	-8.80994
▁бар	-8.81358
ений	-8.8136
ическая	-8.81382
▁телефон	-8.81463
держ	-8.81736
кор	-8.81843
ing	-8.82053
▁тип	-8.82061
▁r	-8.82146
ителя	-8.82272
▁виде	-8.82282
▁почти	-8.82341
▁чего	-8.82379
ились	-8.82455
сп	-8.82477
бы	-8.82588
▁n	-8.82602
полн	-8.8269
них	-8.82988
▁ту	-8.83017
▁ге	-8.83035
▁тут	-8.83045
▁развития	-8.83153
образ	-8.83685
ическое	-8.83686
▁её	-8.83715
▁кар	-8.83778
фа	-8.83785
▁прямо	-8.83948
▁получить	-8.84065
",	-8.84396
▁мол	-8.84525
ьных	-8.84555
▁результат	-8.84629
▁воды	-8.84762
▁данные	-8.84775
клад	-8.84922
▁автор	-8.85013
стер	-8.85038
рез	-8.85124
▁ро	-8.85129
ятся	-8.85137
енный	-8.85298
цен	-8.85314
ост	-8.85318
▁пер	-8.85419
▁граждан	-8.85512
▁наиболее	-8.85627
▁характер	-8.85711
▁обо	-8.85716
ика	-8.8573
te	-8.85758
▁города	-8.85763
▁дело	-8.85826
▁e	-8.8599
▁v	-8.86054
тов	-8.8611
▁полностью	-8.8613
ций	-8.86163
пу	-8.86276
el	-8.8633
▁первый	-8.86378
▁эффект	-8.86473
ём	-8.86548
▁уч	-8.86636
езд	-8.867
▁компания	-8.87028
z	-8.87283
вести	-8.87607
▁какие	-8.87704
▁номер	-8.87822
▁цел	-8.87963
ание	-8.88007
▁стал	-8.88095
▁поскольку	-8.8818
изации	-8.88327
▁мод	-8.88507
пе	-8.88519
теля	-8.88699
▁лиц	-8.88825
зы	-8.88934
крас	-8.89048
тон	-8.89252
ден	-8.89385
▁две	-8.89448
▁ещё	-8.89477
год	-8.89496
▁проблем	-8.89509
▁интернет	-8.8962
▁вообще	-8.89632
чен	-8.89661
▁одного	-8.89708
▁никогда	-8.8976
ум	-8.89785
▁средств	-8.89909
▁имеют	-8.90198
▁мор	-8.90256
бира	-8.90702
▁ран	-8.90718
▁объем	-8.90719
▁сразу	-8.90773
тан	-8.90867
лу	-8.9089
▁i	-8.90987
▁l	-8.91016
▁свое	-8.91093
▁потреб	-8.91093
▁компьютер	-8.91129
▁стали	-8.91144
▁должна	-8.91192
ала	-8.91198
▁производ	-8.91207
▁ме	-8.91212
яв	-8.91247
ющий	-8.9129
–	-8.9132
▁решение	-8.91432
▁делать	-8.91483
цев	-8.91524
on	-8.91566
нь	-8.918
кие	-8.91812
▁текст	-8.91837
щих	-8.91845
▁новый	-8.91902
ники	-8.91915
is	-8.91987
▁большой	-8.92053
ющего	-8.92077
она	-8.92079
_	-8.92132
нул	-8.92235
ях	-8.92308
▁транспорт	-8.92365
оп	-8.92379
▁ар	-8.92391
▁муж	-8.92426
▁авто	-8.92429
▁плат	-8.92503
ён	-8.92551
альных	-8.926
илась	-8.92608
▁одна	-8.92671
дж	-8.927
дан	-8.92855
од	-8.92955
ете	-8.92998
ходят	-8.93011
▁которого	-8.93035
ирует	-8.93122
▁слова	-8.93142
▁услуг	-8.9319
▁начал	-8.93246
ча	-8.93305
▁тебя	-8.93384
груз	-8.93432
▁деятельности	-8.93615
▁полу	-8.93641
доб	-8.93651
it	-8.93659
ких	-8.9371
телей	-8.93815
▁благодаря	-8.93849
at	-8.93872
▁информации	-8.93942
▁работу	-8.93981
ro	-8.9405
▁тер	-8.94053
чат	-8.94061
▁свобод	-8.94201
▁найти	-8.94271
▁w	-8.94448
▁значение	-8.94564
шла	-8.9461
▁оста	-8.94797
▁работ	-8.94799
▁режим	-8.94933
рис	-8.95332
▁прост	-8.955
▁ряд	-8.95599
лом	-8.95607
мин	-8.95872
хи	-8.96087
▁клиент	-8.96137
ось	-8.96168
▁пу	-8.96252
скую	-8.96325
▁действия	-8.9634
рас	-8.96463
пар	-8.96473
st	-8.96608
▁дня	-8.96674
др	-8.96685
ств	-8.96743
▁самом	-8.96754
сер	-8.9686
▁ним	-8.96878
▁работает	-8.96908
под	-8.96941
▁одним	-8.97159
вали	-8.97399
стал	-8.97413
▁мира	-8.97468
▁действительно	-8.97478
ул	-8.97597
▁вариант	-8.97628
альные	-8.97671
ad	-8.97716
ющим	-8.97884
▁язык	-8.97915
ун	-8.97934
ье	-8.97989
▁н	-8.98026
сс	-8.98111
ран	-8.98181
работ	-8.98189
▁му	-8.98228
▁норм	-8.98393
▁документ	-8.98554
сон	-8.98651
стоя	-8.98666
тся	-8.9868
стей	-8.98717
▁безопасности	-8.99113
▁жив	-8.99121
▁говорит	-8.99144
▁либо	-8.99145
▁оно	-8.99175
▁происходит	-8.99332
ается	-8.99515
юсь	-8.9956
▁мало	-8.99561
ент	-8.99573
▁мал	-8.9977
щит	-8.99795
нк	-8.99938
говор	-8.9996
ели	-9.00022
▁баз	-9.00078
ол	-9.00137
нуть	-9.00157
▁тест	-9.00212
▁различных	-9.00307
▁ниже	-9.00308
ять	-9.00323
▁уровне	-9.0047
▁постоянно	-9.00584
мат	-9.00652
ины	-9.00661
рен	-9.00711
▁страны	-9.00715
нем	-9.00952
▁стен	-9.00992
▁дней	-9.01044
бл	-9.01248
▁уровень	-9.01408
ению	-9.01439
меня	-9.01602
▁игр	-9.01672
▁женщин	-9.01702
дет	-9.01706
▁проблемы	-9.01776
▁масс	-9.02032
▁след	-9.02085
▁сбор	-9.02535
▁организации	-9.026
▁числе	-9.02663
▁торгов	-9.02888
стан	-9.03078
▁точно	-9.0311
ацию	-9.03186
пор	-9.03187
обыч	-9.03194
▁комплекс	-9.03298
ьные	-9.03372
▁металл	-9.03373
▁использования	-9.03396
▁группы	-9.03412
▁меньше	-9.03657
оч	-9.03676
▁бог	-9.03686
вед	-9.03792
ток	-9.03892
▁проч	-9.03935
▁правильно	-9.03946
гла	-9.04067
▁ле	-9.04132
▁экран	-9.04152
▁второй	-9.04196
▁конце	-9.04202
▁мире	-9.04247
альная	-9.04278
вая	-9.0444
▁средства	-9.04449
▁га	-9.04654
▁голов	-9.04846
▁новые	-9.04966
▁мой	-9.04999
▁кур	-9.05024
фор	-9.05099
▁лес	-9.05113
▁рус	-9.05247
ющая	-9.05363
бе	-9.05399
▁изменения	-9.05412
▁поли	-9.05415
▁материал	-9.05664
тро	-9.05672
▁игра	-9.05777
аться	-9.05793
▁любой	-9.058
ur	-9.05805
▁ней	-9.06028
▁немного	-9.06129
▁магазин	-9.0616
▁источник	-9.06478
▁деле	-9.06486
мент	-9.06491
▁врач	-9.06499
▁ваш	-9.06537
пи	-9.06561
▁высоко	-9.06565
пит	-9.06594
▁чер	-9.06602
▁бизнес	-9.06672
▁призна	-9.06705
ic	-9.06837
▁уровня	-9.06856
▁курс	-9.06904
▁круг	-9.06936
ющей	-9.07238
▁сигнал	-9.07283
▁жил	-9.07386
▁вкус	-9.07395
тар	-9.07435
▁времен	-9.07497
тра	-9.07504
луч	-9.07599
▁ло	-9.07672
▁решения	-9.07843
▁картин	-9.07866
▁тур	-9.07965
пере	-9.07989
него	-9.08028
▁ха	-9.08051
▁сторон	-9.08105
fi	-9.08193
▁верх	-9.08217
ol	-9.08516
▁тра	-9.08541
▁получил	-9.08552
▁вод	-9.08668
тели	-9.08795
▁фи	-9.08848
▁мог	-9.0912
▁пыта	-9.09251
три	-9.09377
ri	-9.09688
ителей	-9.09717
▁состоя	-9.09728
▁прос	-9.09813
▁риск	-9.09939
▁вектор	-9.09988
▁самых	-9.10025
либо	-9.10036
un	-9.10082
▁практически	-9.1011
▁дизайн	-9.10209
кая	-9.10308
▁анти	-9.10395
ями	-9.10445
▁принцип	-9.10461
▁внутри	-9.10496
▁вопросы	-9.10496
▁систем	-9.10529
изм	-9.10613
▁своим	-9.10623
▁побед	-9.10639
▁результате	-9.10712
▁фа	-9.10764
▁нем	-9.10775
▁шаг	-9.10791
▁зад	-9.10825
ско	-9.10862
▁комнат	-9.10905
me	-9.11019
шу	-9.11057
▁k	-9.11082
айте	-9.11097
▁нашей	-9.11147
пуск	-9.11181
▁места	-9.11329
▁продолжа	-9.11345
бр	-9.11429
ложен	-9.11495
▁назад	-9.11615
▁помощи	-9.11625
ed	-9.1169
▁мин	-9.11715
гор	-9.11733
▁сказать	-9.11734
жд	-9.11888
▁ру	-9.11891
ировал	-9.1191
нима	-9.12017
ьная	-9.12028
ера	-9.12136
▁код	-9.12176
след	-9.1219
▁типа	-9.12243
▁роз	-9.12279
вен	-9.1238
равн	-9.12405
▁снова	-9.12623
дать	-9.12652
ез	-9.12706
стро	-9.12794
веден	-9.12912
ностью	-9.1297
лит	-9.13003
мор	-9.13014
нет	-9.13048
▁работе	-9.13051
сь	-9.13061
▁наши	-9.13088
▁часов	-9.13149
зер	-9.13293
▁могу	-9.13346
▁основе	-9.13423
▁соответствии	-9.1352
▁бер	-9.13552
▁рез	-9.13567
▁котором	-9.13603
▁сильно	-9.1369
▁предмет	-9.13795
▁че	-9.13801
рид	-9.13864
▁структур	-9.13949
▁вход	-9.13963
lo	-9.14043
рог	-9.14307
кан	-9.14363
рат	-9.1445
няя	-9.14455
▁эконом	-9.14472
▁слишком	-9.14494
▁теле	-9.14603
▁звук	-9.14618
знач	-9.14646
▁рыб	-9.14692
▁получен	-9.147
▁согласно	-9.14704
'	-9.14723
тр	-9.14738
эт	-9.14744
ший	-9.14787
>	-9.1489
плат	-9.1496
▁люб	-9.15037
фе	-9.15143
▁возможности	-9.15159
 —	-9.15163
овым	-9.15227
вел	-9.15239
ски	-9.15317
▁месте	-9.15357
▁част	-9.15524
▁культур	-9.15558
▁которую	-9.1569
▁ум	-9.15693
▁член	-9.15797
зе	-9.15819
▁тому	-9.15827
▁фон	-9.1583
▁многих	-9.15984
▁re	-9.16035
бра	-9.16092
ует	-9.16185
аж	-9.16196
▁различ	-9.16208
▁круп	-9.16269
дал	-9.16279
▁работать	-9.16499
ики	-9.16519
вяз	-9.16548
щей	-9.16593
рь	-9.16658
▁провод	-9.16715
зем	-9.1677
▁информацию	-9.16788
▁иногда	-9.16799
ир	-9.16905
▁водо	-9.16951
чь	-9.16955
▁отношения	-9.16964
емых	-9.16999
▁факт	-9.17022
ших	-9.17031
▁условия	-9.17033
ования	-9.17041
▁хотел	-9.17067
тол	-9.1714
▁форм	-9.17145
▁тебе	-9.17219
es	-9.17232
дума	-9.17239
пт	-9.17265
▁школ	-9.17357
▁прежде	-9.1741
нд	-9.17422
гре	-9.17532
am	-9.17597
▁связан	-9.17761
овал	-9.17944
▁игры	-9.17959
▁канал	-9.17959
▁тро	-9.17992
▁мил	-9.18039
▁подход	-9.18138
▁прием	-9.1825
▁мм	-9.184
ключа	-9.18412
▁дл	-9.18424
строй	-9.18489
стью	-9.18498
шки	-9.18548
▁др	-9.18641
▁голос	-9.18655
▁лица	-9.18675
ниц	-9.18802
▁совсем	-9.18813
лага	-9.18917
▁уз	-9.1893
▁занима	-9.18956
обра	-9.18959
▁собира	-9.1911
▁пункт	-9.1914
▁товар	-9.19252
чет	-9.19271
шей	-9.19304
лек	-9.19311
пал	-9.19412
▁ак	-9.19554
ительно	-9.19595
▁микро	-9.1967
▁файл	-9.1978
▁иметь	-9.19789
▁препарат	-9.19796
▁каждого	-9.1984
ru	-9.1988
et	-9.20112
▁такого	-9.20144
▁анализ	-9.20167
▁существует	-9.20197
ование	-9.2025
▁набор	-9.20401
▁качества	-9.20485
соглас	-9.20629
▁живот	-9.20637
▁равно	-9.20687
альной	-9.20712
числ	-9.20732
▁глаза	-9.20764
▁долго	-9.20767
▁новых	-9.20786
▁стать	-9.20791
▁+	-9.20843
кро	-9.20901
id	-9.2097
уют	-9.20984
li	-9.21022
лон	-9.21093
енной	-9.21144
▁фе	-9.21145
▁мед	-9.21243
▁программы	-9.21272
▁существ	-9.21345
что	-9.21372
низ	-9.21471
лер	-9.21566
▁рис	-9.21637
аются	-9.21644
вест	-9.21681
▁возник	-9.2177
▁трех	-9.21776
гра	-9.21788
зу	-9.21893
дов	-9.2206
уд	-9.22078
▁начала	-9.22141
▁условиях	-9.22339
шен	-9.22346
▁противо	-9.224
▁сети	-9.22481
▁благо	-9.22566
▁используется	-9.22591
нный	-9.22592
▁роль	-9.22637
th	-9.22664
дол	-9.22686
▁довольно	-9.2277
сад	-9.22807
▁см	-9.22872
▁буду	-9.22879
▁зон	-9.22893
▁вол	-9.22898
ьным	-9.22933
нные	-9.22964
очки	-9.23016
▁особ	-9.23053
▁выступ	-9.23059
▁исследования	-9.23125
лан	-9.23286
▁деньги	-9.23376
▁ман	-9.23378
форм	-9.23475
▁обязательно	-9.23701
сыл	-9.23753
▁групп	-9.23805
▁рядом	-9.23827
▁контакт	-9.23881
▁известно	-9.23913
▁специально	-9.23954
▁опас	-9.24048
▁значительно	-9.24197
брос	-9.24353
▁коп	-9.24403
▁вся	-9.24413
ch	-9.24423
▁использование	-9.24525
▁качество	-9.24532
▁чист	-9.24583
▁душ	-9.2467
▁нельзя	-9.24738
ce	-9.24752
▁разных	-9.24759
▁кос	-9.2487
▁самым	-9.24973
▁яр	-9.24982
пре	-9.24989
▁вз	-9.25075
нибудь	-9.25076
▁•	-9.25123
com	-9.25146
чер	-9.25192
чин	-9.25209
стве	-9.25382
иров	-9.25397
▁сад	-9.25419
ением	-9.25483
щий	-9.25483
стой	-9.25568
▁шт	-9.25764
▁символ	-9.25814
▁вывод	-9.25821
▁меди	-9.25836
▁ожида	-9.25932
▁уверен	-9.25941
▁этому	-9.26015
нут	-9.26188
рей	-9.26269
▁окруж	-9.26348
▁сколько	-9.26416
▁гарант	-9.26416
▁№	-9.26453
ган	-9.26668
▁представляет	-9.26721
▁значит	-9.26726
▁участие	-9.26838
▁взгляд	-9.2694
▁делает	-9.26941
▁права	-9.26945
▁самый	-9.26956
▁тепло	-9.26958
суд	-9.27053
емся	-9.27266
тин	-9.27267
лич	-9.27405
▁машин	-9.2746
ывать	-9.27503
▁цвета	-9.27507
na	-9.2751
▁такая	-9.27521
▁зависимости	-9.27534
▁рост	-9.27571
чу	-9.27606
раж	-9.27644
енным	-9.27684
▁наш	-9.27699
кам	-9.27783
▁проблема	-9.27821
▁нового	-9.27853
de	-9.27911
▁договор	-9.27914
ma	-9.28013
юр	-9.28096
▁модель	-9.28346
▁раствор	-9.28368
ря	-9.28378
▁пост	-9.28402
▁кан	-9.28428
вой	-9.28452
фи	-9.28465
▁цифр	-9.28481
▁труб	-9.28586
щие	-9.28631
▁сме	-9.28661
ta	-9.2867
▁создан	-9.28718
▁модели	-9.2872
as	-9.28733
ируем	-9.28885
▁производства	-9.28903
▁развива	-9.28938
▁некоторых	-9.28972
служ	-9.28975
кле	-9.28981
чив	-9.28984
▁мел	-9.29035
▁правил	-9.2906
бит	-9.29091
▁мастер	-9.29093
▁мат	-9.29105
еть	-9.29106
▁сид	-9.2911
▁ключ	-9.29416
чик	-9.29421
co	-9.29455
di	-9.2948
▁финансов	-9.29498
▁поле	-9.29508
▁самое	-9.29514
кси	-9.29578
▁диск	-9.29592
пло	-9.29643
▁истории	-9.29688
▁распространен	-9.29777
▁руб	-9.29861
▁тысяч	-9.29883
▁мере	-9.2991
гар	-9.29962
▁дев	-9.3007
енного	-9.30076
ители	-9.30123
профессионал	-9.30233
▁устройства	-9.30283
▁ра	-9.30295
сен	-9.30333
гер	-9.30333
ева	-9.30355
▁лист	-9.30356
il	-9.30364
печат	-9.30635
▁произ	-9.30685
▁запад	-9.30706
кус	-9.3071
ион	-9.30754
la	-9.3077
ального	-9.30842
щик	-9.30952
ась	-9.31006
▁груз	-9.3103
▁вашего	-9.31085
лез	-9.31132
цией	-9.31167
j	-9.3118
▁основан	-9.31191
▁команд	-9.31201
ностей	-9.31223
йтесь	-9.31341
▁рассматрива	-9.31361
▁адрес	-9.31381
▁пара	-9.31409
жела	-9.31433
▁экс	-9.31462
▁сын	-9.31492
цин	-9.31515
ёт	-9.31519
se	-9.31607
▁государств	-9.31723
▁информация	-9.31899
);	-9.31913
ался	-9.3205
ическую	-9.32081
▁>	-9.32201
зв	-9.32349
▁л	-9.3238
▁автомат	-9.32413
▁территории	-9.32459
▁переход	-9.32516
▁ограничен	-9.32545
▁тон	-9.32615
▁включен	-9.32631
сред	-9.32745
▁составляет	-9.32782
движ	-9.32812
▁содержа	-9.32875
▁ша	-9.3304
▁удар	-9.33137
кер	-9.33224
евой	-9.33234
▁вне	-9.33265
клон	-9.333
рус	-9.33323
▁функции	-9.33357
▁направлен	-9.33403
ому	-9.33512
▁дети	-9.33641
ину	-9.33692
тельно	-9.33712
▁ти	-9.33762
▁нескольких	-9.33776
▁кредит	-9.33856
os	-9.33897
▁принима	-9.33986
дар	-9.34039
▁широко	-9.34101
▁кра	-9.34143
вес	-9.34216
щего	-9.34226
▁персонал	-9.34265
▁имя	-9.34364
ющее	-9.34425
▁руки	-9.34521
эн	-9.34521
▁всей	-9.34566
воль	-9.34695
тал	-9.34823
лег	-9.3485
▁стоимость	-9.34857
▁подготов	-9.34878
овое	-9.34896
шка	-9.34926
слав	-9.35029
зр	-9.35067
люб	-9.35119
▁став	-9.35135
▁женщина	-9.3518
▁большинство	-9.3521
▁перевод	-9.35254
чные	-9.35263
▁думаю	-9.35346
▁порт	-9.35361
ню	-9.35384
гн	-9.35758
сел	-9.35832
ница	-9.35839
▁желез	-9.35857
▁завод	-9.35964
▁совершенно	-9.36059
▁знаю	-9.36176
▁правило	-9.36207
нных	-9.36247
ia	-9.36269
гром	-9.3632
▁недо	-9.36379
▁ор	-9.364
▁обще	-9.36537
▁поиск	-9.36539
▁состояние	-9.36754
▁всю	-9.36806
рев	-9.36856
ьте	-9.36896
вать	-9.36935
op	-9.36945
▁ребенка	-9.36974
каз	-9.37105
▁состоит	-9.37173
очка	-9.37228
нер	-9.37248
ивает	-9.37318
▁ал	-9.37358
▁гу	-9.3736
▁тай	-9.37467
▁ад	-9.3752
▁остров	-9.37531
▁стрем	-9.376
▁ей	-9.37637
▁задач	-9.37741
▁твор	-9.37817
▁развитие	-9.3792
▁знаком	-9.38028
▁весь	-9.3803
▁настоящее	-9.38184
уз	-9.38204
▁отчет	-9.38241
беж	-9.38361
ическим	-9.38364
▁зим	-9.38396
▁шир	-9.38541
▁представлен	-9.38553
бин	-9.38563
▁ход	-9.38651
фо	-9.3873
вое	-9.38756
куп	-9.38758
ило	-9.38768
▁пути	-9.38829
быт	-9.38848
вол	-9.38936
▁китай	-9.39078
ёр	-9.39164
▁j	-9.39253
▁бан	-9.39317
▁никто	-9.39354
▁наблюда	-9.39364
▁би	-9.39367
▁ст	-9.39455
▁несмотря	-9.39515
▁партнер	-9.39623
▁кам	-9.39629
▁становится	-9.39817
▁зависит	-9.39916
телем	-9.39938
рек	-9.39959
ывает	-9.39968
кол	-9.40032
▁двор	-9.40039
ировки	-9.40098
инг	-9.40136
▁тела	-9.40194
писать	-9.40202
нич	-9.40202
▁выполнен	-9.40304
▁ног	-9.40306
▁заказ	-9.40406
▁наших	-9.40421
▁волн	-9.40609
щая	-9.40651
▁инструмент	-9.40699
кл	-9.407
пат	-9.40738
ируют	-9.40827
сы	-9.40883
крат	-9.40956
реклам	-9.41056
▁пят	-9.41065
лиз	-9.41162
▁другими	-9.41227
so	-9.41294
da	-9.41336
▁любим	-9.41382
нт	-9.41405
▁вечер	-9.41441
▁результаты	-9.4146
енная	-9.41469
емые	-9.41472
ацией	-9.41489
▁плот	-9.4149
вший	-9.415
ром	-9.41591
▁холод	-9.41608
▁стало	-9.4162
пл	-9.41697
▁директор	-9.41708
▁игрок	-9.41721
sh	-9.41778
шим	-9.41796
град	-9.41842
▁точки	-9.41934
▁годы	-9.41971
▁сами	-9.42023
твор	-9.4207
ишь	-9.42136
▁группа	-9.42156
▁сум	-9.42162
глав	-9.42327
▁доход	-9.42329
▁продаж	-9.42361
▁мер	-9.42382
▁ген	-9.42552
▁зуб	-9.42714
▁мои	-9.4276
▁хотите	-9.42771
▁данный	-9.42839
ана	-9.4289
▁повтор	-9.42892
▁подо	-9.42909
▁число	-9.4293
▁вокруг	-9.42936
рес	-9.42964
▁собственно	-9.43022
▁проекта	-9.43112
итесь	-9.43125
▁поезд	-9.43208
мя	-9.4323
▁мон	-9.43277
ким	-9.43294
bo	-9.4332
▁пап	-9.43336
ho	-9.43341
▁семей	-9.43372
▁говорил	-9.43413
▁очередь	-9.43421
ставить	-9.43438
▁мас	-9.43525
▁ремонт	-9.43609
▁руч	-9.43622
▁продукт	-9.43679
▁имел	-9.43889
▁|	-9.43917
▁поток	-9.43953
▁co	-9.43971
▁питания	-9.44015
sa	-9.44037
▁сайт	-9.44065
лем	-9.44205
тяж	-9.44214
▁успех	-9.44242
▁ча	-9.44269
▁ваши	-9.44275
▁удален	-9.44318
нг	-9.44386
цов	-9.44461
▁вашей	-9.44561
▁лично	-9.44597
▁скорость	-9.446
▁осуществля	-9.44658
ируется	-9.44683
▁de	-9.44738
▁хочу	-9.44748
▁содержит	-9.44856
иц	-9.44857
▁примерно	-9.44881
▁сан	-9.44963
ивать	-9.44983
▁воздух	-9.45044
исты	-9.45052
▁рад	-9.45071
казан	-9.45134
▁стала	-9.45143
ницы	-9.4517
▁различные	-9.452
▁#	-9.453
▁движения	-9.45368
▁звезд	-9.4537
and	-9.45414
▁сезон	-9.4546
росс	-9.45465
▁мак	-9.45553
сте	-9.45634
▁механизм	-9.45653
жу	-9.45681
▁корпус	-9.45707
▁марк	-9.45777
▁управление	-9.45785
▁сложно	-9.4579
▁банк	-9.45811
см	-9.45898
▁значения	-9.45947
▁молод	-9.4596
кал	-9.45976
атель	-9.46011
▁александр	-9.46076
▁здоров	-9.46084
▁войны	-9.46086
▁устанавлива	-9.46205
▁власти	-9.46211
▁рамках	-9.46339
яет	-9.46423
▁длинн	-9.4653
▁хим	-9.46596
▁расс	-9.46607
▁союз	-9.46656
▁формы	-9.46667
pa	-9.46695
▁автомобиль	-9.46698
▁бл	-9.46762
▁дис	-9.46763
очные	-9.46796
гр	-9.46856
▁комплект	-9.46882
▁штат	-9.47046
▁волос	-9.4706
▁спасибо	-9.47104
шие	-9.47134
▁полно	-9.47299
▁которым	-9.47401
▁нажмите	-9.47495
▁in	-9.47611
▁могли	-9.47636
▁женщины	-9.47672
щен	-9.47705
do	-9.47755
▁инди	-9.47778
▁лицо	-9.4779
щу	-9.47833
лев	-9.4784
▁ресторан	-9.47856
пр	-9.47856
▁ван	-9.47857
▁глаз	-9.47884
▁создать	-9.47926
▁проб	-9.47959
▁тор	-9.47976
▁обраща	-9.48029
давать	-9.48059
ent	-9.48185
лива	-9.48242
дор	-9.48248
▁=	-9.48259
ульт	-9.48348
креп	-9.48362
▁купить	-9.48396
▁арм	-9.48403
город	-9.48407
очный	-9.48411
▁гер	-9.48453
▁нос	-9.48491
бол	-9.48597
ктор	-9.48621
рав	-9.48624
▁*	-9.48625
метр	-9.48637
▁встреча	-9.48675
тельных	-9.48689
▁бесплатно	-9.48716
▁обеспечивает	-9.48717
▁ново	-9.48818
▁кажется	-9.48822
▁кап	-9.48824
▁ради	-9.48825
▁мини	-9.48838
▁предпо	-9.48843
рожден	-9.48989
▁клуб	-9.49164
▁аппарат	-9.49184
ot	-9.49224
дель	-9.49251
▁гр	-9.49257
▁случаях	-9.49303
слов	-9.49362
овую	-9.49363
▁дже	-9.49374
▁помог	-9.49399
▁предназначен	-9.49508
▁спас	-9.49562
зор	-9.4957
▁запрос	-9.49593
▁знак	-9.49613
лод	-9.49637
▁ранее	-9.49652
▁первой	-9.49775
▁означает	-9.49818
мышлен	-9.49856
нять	-9.49883
бес	-9.49962
ены	-9.49987
это	-9.50046
испыт	-9.50093
▁гран	-9.50192
▁множество	-9.50213
лик	-9.50288
▁выбрать	-9.50362
▁идет	-9.50422
▁пользу	-9.50478
▁цели	-9.50518
очных	-9.50538
маз	-9.5057
].	-9.50596
▁любовь	-9.50658
▁эксперт	-9.507
▁отношении	-9.50743
▁относительно	-9.50768
▁контроль	-9.5081
дем	-9.50818
▁включая	-9.50834
+	-9.50889
▁o	-9.50903
▁сервис	-9.50915
▁реально	-9.50935
ович	-9.51001
ическом	-9.51026
▁далее	-9.5111
▁собак	-9.51153
▁услуги	-9.51171
нев	-9.51184
▁гиб	-9.51198
▁устройство	-9.51304
вших	-9.51321
▁цель	-9.51395
рос	-9.5146
блюд	-9.51493
▁сделан	-9.51522
хорош	-9.51533
▁городе	-9.51602
▁проведен	-9.5162
▁слово	-9.51657
▁температур	-9.51725
дон	-9.51745
▁роман	-9.51798
▁создания	-9.51859
шку	-9.51897
▁сделал	-9.51959
лия	-9.51966
ni	-9.52034
▁описан	-9.52096
▁транс	-9.52107
▁одну	-9.52132
▁целью	-9.52238
▁самые	-9.52268
изация	-9.52365
▁куда	-9.52414
стран	-9.52442
▁состоянии	-9.52446
▁ними	-9.52551
▁самого	-9.52652
▁креп	-9.5266
▁бед	-9.52674
▁север	-9.52695
▁включает	-9.52711
тек	-9.52718
▁защиты	-9.52814
▁st	-9.52861
▁эм	-9.53012
▁музыка	-9.53059
пс	-9.53085
фиц	-9.53119
▁пакет	-9.5316
ba	-9.5317
чный	-9.53179
чная	-9.53204
▁поверхности	-9.53261
▁открыва	-9.53262
▁обеспечения	-9.5327
изма	-9.53298
▁фильтр	-9.53349
ственно	-9.53375
▁the	-9.53436
▁образования	-9.53443
пут	-9.53458
▁лечения	-9.53498
▁сервер	-9.53501
ex	-9.53508
▁рф	-9.53548
▁предлагает	-9.53669
▁отлично	-9.53686
▁закрыт	-9.53701
▁занят	-9.53711
кат	-9.53743
im	-9.53788
▁агент	-9.53797
▁изображения	-9.53815
▁получения	-9.53989
▁фирм	-9.54066
нс	-9.54135
тки	-9.54191
▁буд	-9.54219
▁останов	-9.54298
▁велик	-9.54354
▁район	-9.54409
ген	-9.54417
▁систему	-9.54509
евых	-9.54528
▁помощь	-9.5453
▁каждой	-9.54572
дают	-9.54606
▁своими	-9.54658
▁маг	-9.54708
илось	-9.54719
▁максимально	-9.54823
▁веб	-9.54836
▁пес	-9.54956
кар	-9.55046
фр	-9.55063
▁куп	-9.551
▁силы	-9.55116
трен	-9.55153
десят	-9.55169
▁одном	-9.55236
▁слов	-9.55259
▁одновременно	-9.55332
зов	-9.55342
▁основном	-9.5542
▁сначала	-9.55424
sp	-9.55429
▁кожи	-9.55434
▁населения	-9.5544
pe	-9.55456
зо	-9.55517
▁чаще	-9.55527
▁целом	-9.55572
▁рос	-9.55578
▁деятельность	-9.55607
добр	-9.55613
▁матери	-9.55614
▁тело	-9.55624
▁электриче	-9.55698
част	-9.5572
▁своем	-9.55779
яют	-9.55944
▁ближ	-9.56011
выс	-9.5603
▁кого	-9.56066
ывают	-9.561
истор	-9.56124
▁стат	-9.56141
жал	-9.56168
▁ги	-9.56192
▁господ	-9.56214
▁вместо	-9.5623
▁вполне	-9.5624
ge	-9.56246
▁лог	-9.56268
▁богат	-9.56344
▁решил	-9.56412
▁духов	-9.56445
▁меню	-9.56545
прям	-9.5659
▁данным	-9.56607
▁месяц	-9.56756
no	-9.56823
мож	-9.56865
▁века	-9.56868
▁руковод	-9.57003
альным	-9.5709
▁следующие	-9.5709
нести	-9.57119
ительный	-9.5713
американ	-9.57143
▁евро	-9.57174
▁обмен	-9.5721
▁показал	-9.57231
дра	-9.57277
ющими	-9.57379
▁ситуации	-9.57394
▁мужчин	-9.57449
▁раньше	-9.57505
▁фл	-9.57509
▁зрения	-9.57549
▁девушка	-9.5756
▁особо	-9.57615
мир	-9.57635
мысл	-9.57717
▁земле	-9.57747
▁путем	-9.57805
цар	-9.57861
▁дополнительно	-9.57936
▁процедур	-9.57938
▁заключен	-9.58085
▁веществ	-9.58113
▁— 	-9.58164
украин	-9.58169
мол	-9.58176
▁установки	-9.58225
▁президент	-9.58301
▁фактор	-9.58323
ителем	-9.58331
дает	-9.58334
▁невозможно	-9.58335
▁линии	-9.58374
кого	-9.5838
стра	-9.584
▁акт	-9.58475
ha	-9.58494
▁лег	-9.58563
тел	-9.58591
эй	-9.58628
гляд	-9.58808
▁путешеств	-9.58861
▁задан	-9.58866
▁учет	-9.58942
▁этап	-9.58992
▁половин	-9.59028
▁служб	-9.59075
▁последние	-9.59089
▁mo	-9.59124
▁генерал	-9.59148
щим	-9.59201
еб	-9.59249
▁политик	-9.59281
леч	-9.59363
▁название	-9.5941
▁положение	-9.59418
горяч	-9.59445
▁четыре	-9.59472
илл	-9.59472
▁большое	-9.59481
леп	-9.59486
▁расчет	-9.59536
▁изображение	-9.59551
▁построен	-9.59606
вшего	-9.59633
▁умер	-9.5968
▁степени	-9.59691
раб	-9.59754
тельные	-9.59765
▁пять	-9.5981
▁путь	-9.59835
to	-9.59877
ват	-9.59878
▁камер	-9.59888
▁знал	-9.59904
▁список	-9.59922
▁пал	-9.60003
▁необходимости	-9.60064
▁пла	-9.60073
ивания	-9.60173
провер	-9.60213
▁объект	-9.60304
▁--	-9.60308
vi	-9.60426
шин	-9.60434
ально	-9.60445
▁пожалуйста	-9.60454
ена	-9.60484
▁охран	-9.60505
▁требуется	-9.6057
▁скорее	-9.60678
▁парк	-9.6069
▁отмеча	-9.60719
ющихся	-9.60878
ически	-9.60883
°	-9.60902
▁новой	-9.60949
коп	-9.60951
▁государства	-9.61097
▁правда	-9.6111
заяв	-9.61154
▁аб	-9.61176
▁история	-9.61219
▁комфорт	-9.61254
▁форме	-9.61269
▁другим	-9.61288
▁отель	-9.61295
▁продуктов	-9.61302
▁предполага	-9.61381
ража	-9.61449
▁хозяйств	-9.61453
!!!	-9.61463
▁процесса	-9.61487
▁сердце	-9.6151
▁формат	-9.61553
фон	-9.61567
▁продукции	-9.61613
деж	-9.61637
▁дальше	-9.61649
▁радио	-9.61713
▁трудно	-9.6174
йдет	-9.61876
центр	-9.61921
▁прибор	-9.61922
▁выберите	-9.61944
▁стране	-9.61948
um	-9.61956
▁плохо	-9.61975
строить	-9.62025
прос	-9.62041
▁онлайн	-9.62064
▁стиль	-9.6207
▁внешне	-9.62115
струк	-9.62136
тельный	-9.62139
готов	-9.6214
бел	-9.62195
▁вред	-9.62228
▁правила	-9.62316
хот	-9.6234
▁бюджет	-9.62348
рин	-9.62374
чки	-9.62376
▁частот	-9.6239
коль	-9.62393
▁ц	-9.62398
—	-9.62446
▁действие	-9.62503
▁связ	-9.62507
▁владе	-9.62523
пон	-9.62536
▁хол	-9.62549
▁влияние	-9.62564
сказ	-9.62605
▁фонд	-9.62617
точ	-9.6263
▁технологии	-9.62673
писан	-9.62709
▁уход	-9.62726
жат	-9.62799
▁пользователя	-9.62825
▁первого	-9.62846
ьного	-9.62858
ьную	-9.62878
ходить	-9.63095
▁месяцев	-9.631
▁треть	-9.63139
▁windows	-9.63189
▁дает	-9.63287
▁элемент	-9.6333
почт	-9.63349
скими	-9.63356
▁цена	-9.63369
▁ma	-9.63404
эр	-9.63432
сор	-9.63502
дается	-9.63609
▁кро	-9.63668
веща	-9.63828
▁гре	-9.63834
енд	-9.63946
▁самой	-9.63947
чей	-9.63948
▁смысл	-9.63952
▁институт	-9.64016
уль	-9.6403
▁сыр	-9.6406
енно	-9.64076
▁лекарств	-9.64086
▁исход	-9.64115
ушки	-9.64143
▁устройств	-9.64238
▁основные	-9.64245
▁спорт	-9.64259
дорож	-9.64272
▁материалов	-9.64279
топ	-9.64307
▁футбол	-9.64334
ьной	-9.64369
▁жир	-9.644
▁бр	-9.64451
▁устойчив	-9.64522
▁оказа	-9.64587
ично	-9.64614
▁находи	-9.64636
▁наличие	-9.64653
регистр	-9.6467
▁нашего	-9.64716
скому	-9.64727
▁...	-9.64728
▁российской	-9.64794
▁гал	-9.64806
▁говорить	-9.64829
▁имени	-9.64843
▁помочь	-9.6489
▁наконец	-9.64909
▁используем	-9.64926
ались	-9.65052
▁сама	-9.65139
▁разнообраз	-9.65143
▁непосредственно	-9.65148
▁определя	-9.65266
▁подходит	-9.6537
▁сохраня	-9.65377
лог	-9.65394
▁явля	-9.65418
▁компонент	-9.65419
щи	-9.65545
▁производитель	-9.65609
▁оборудования	-9.6562
худ	-9.65621
гон	-9.65637
ac	-9.65659
▁предел	-9.65662
▁цены	-9.65678
▁крови	-9.65753
▁видел	-9.65767
ne	-9.65815
▁полос	-9.65828
be	-9.65889
▁двига	-9.65977
▁моя	-9.66
▁син	-9.66116
ter	-9.6612
▁данной	-9.66167
▁главное	-9.66298
▁использовал	-9.663
▁цикл	-9.66349
▁стрел	-9.66365
▁кислот	-9.66396
▁зелен	-9.66406
рож	-9.665
шая	-9.66517
значительн	-9.66585
ику	-9.66586
▁рам	-9.66719
казать	-9.66776
ающих	-9.66787
▁улыб	-9.66801
▁достиг	-9.6681
бил	-9.66877
▁пан	-9.66884
свет	-9.6694
един	-9.67002
▁повышен	-9.6703
▁можем	-9.67051
▁представля	-9.67065
▁потенциал	-9.67104
хал	-9.67109
▁большим	-9.67114
▁шар	-9.6712
▁бок	-9.67132
ировка	-9.67182
▁применение	-9.67295
▁давно	-9.67323
▁хи	-9.6739
▁дух	-9.67421
▁свеж	-9.67427
▁организм	-9.67474
мар	-9.67482
ваться	-9.67515
▁обратно	-9.6757
ике	-9.67591
щую	-9.67636
▁серьез	-9.67761
▁капитал	-9.67902
▁приложения	-9.67921
цел	-9.67954
▁процессе	-9.6799
▁самостоятельно	-9.67997
▁возвраща	-9.68081
фу	-9.6813
▁режиме	-9.68167
пред	-9.682
▁рук	-9.68233
▁лу	-9.68233
▁программа	-9.68239
▁большая	-9.6826
▁системе	-9.68265
▁предоставлен	-9.68267
сов	-9.68342
роз	-9.68349
руш	-9.68369
тяг	-9.68413
ведения	-9.68421
▁море	-9.68423
▁масло	-9.68478
мобиль	-9.68529
▁цеп	-9.68536
ns	-9.68569
▁называ	-9.68579
▁берег	-9.68599
▁материала	-9.68624
▁центра	-9.68636
сла	-9.68742
▁увидеть	-9.68787
▁видов	-9.68839
▁земли	-9.68868
▁пляж	-9.68877
ицы	-9.68901
▁принял	-9.68907
очной	-9.6894
меша	-9.69
▁оборудование	-9.69009
▁энергии	-9.6902
основ	-9.69051
пущен	-9.69052
▁данном	-9.69158
▁говорят	-9.69291
▁фигур	-9.69327
ходит	-9.69358
▁речь	-9.69367
▁приложение	-9.69411
▁первую	-9.69465
▁друга	-9.69549
▁кот	-9.69576
▁ресурс	-9.69587
чка	-9.69609
▁применения	-9.69678
сып	-9.69776
ss	-9.6996
▁аль	-9.70046
▁начале	-9.70073
ляр	-9.7008
ляции	-9.70169
щение	-9.70187
ари	-9.70199
▁заболевания	-9.70208
▁автоматически	-9.70268
▁праздник	-9.70431
▁лидер	-9.70443
▁предоставля	-9.70461
цу	-9.7051
wa	-9.70534
▁сторону	-9.70551
ере	-9.70573
▁службы	-9.70615
si	-9.70638
▁журнал	-9.70681
▁pro	-9.70695
▁эффективно	-9.70742
▁психолог	-9.70755
дали	-9.70771
▁памяти	-9.70814
носит	-9.709
чёт	-9.70912
▁организация	-9.70951
ограф	-9.70952
br	-9.70958
▁будем	-9.70983
▁замеча	-9.70992
держать	-9.71038
▁собран	-9.71079
▁отдельно	-9.71102
ap	-9.71118
▁довер	-9.71165
▁плав	-9.71171
таки	-9.71172
▁руководство	-9.71177
▁той	-9.7134
▁проведения	-9.71387
▁сто	-9.71429
▁силу	-9.71446
▁дат	-9.71463
ительных	-9.71469
▁смерти	-9.71475
▁ситуация	-9.71607
▁рублей	-9.71608
▁скоро	-9.71613
нюю	-9.71698
▁разные	-9.71701
тепл	-9.71726
▁уме	-9.71786
▁высокой	-9.71818
▁другом	-9.7185
вели	-9.71854
жения	-9.7188
▁обрати	-9.71955
▁млн	-9.7196
▁весьма	-9.7199
остр	-9.71995
▁машины	-9.72029
щее	-9.72174
▁четвер	-9.72199
▁интересно	-9.72237
нской	-9.72282
▁един	-9.72303
льц	-9.72305
дум	-9.72347
пада	-9.72385
▁предприятия	-9.72427
цвет	-9.72431
▁постоян	-9.72445
▁отзыв	-9.72483
all	-9.72537
нского	-9.72558
▁животных	-9.72564
▁любом	-9.72567
▁авиа	-9.72628
▁семьи	-9.72674
▁доб	-9.72708
▁рынке	-9.72726
▁форма	-9.7274
▁частности	-9.72742
▁станет	-9.72752
фт	-9.7276
пп	-9.72799
▁создание	-9.72801
▁француз	-9.72833
▁исполн	-9.72861
▁нужны	-9.72865
ложить	-9.72963
▁рынка	-9.7298
▁сайте	-9.73012
▁свят	-9.7303
кин	-9.73076
▁долг	-9.73101
▁привод	-9.73163
хват	-9.73178
▁уж	-9.73198
кр	-9.732
ине	-9.73204
▁театр	-9.7322
▁общества	-9.73255
▁каким	-9.73339
влажн	-9.73385
▁обществ	-9.7346
иями	-9.73472
▁описание	-9.73527
бель	-9.73538
етесь	-9.73553
печ	-9.73583
▁нашем	-9.73584
▁чисто	-9.73659
вшись	-9.73708
▁использован	-9.73728
альную	-9.73773
▁км	-9.73795
льд	-9.738
жда	-9.73844
▁спа	-9.73856
▁низко	-9.7386
▁действу	-9.73946
▁условий	-9.73949
▁понять	-9.73991
▁команды	-9.74033
▁гости	-9.74043
▁максим	-9.74043
▁эр	-9.74071
▁даль	-9.74252
ke	-9.74312
▁оформлен	-9.74343
▁u	-9.7437
чал	-9.74435
вала	-9.74459
ющую	-9.74476
▁обязан	-9.74516
▁успешно	-9.7453
тяжел	-9.74538
кую	-9.74577
глуб	-9.74578
очно	-9.74584
▁состояния	-9.74634
▁брат	-9.74638
чит	-9.7467
▁отображ	-9.74672
▁$	-9.74797
▁россия	-9.74801
ительные	-9.74885
▁вызыва	-9.74934
▁секунд	-9.74958
кру	-9.75038
ation	-9.75082
стар	-9.75204
▁маршрут	-9.75227
бир	-9.75244
▁позволя	-9.75252
▁древ	-9.75264
▁чу	-9.75401
▁увеличива	-9.75408
чную	-9.75418
▁vi	-9.75558
▁проис	-9.75582
▁требует	-9.75651
▁фотографии	-9.7566
▁вещи	-9.75796
▁ред	-9.75806
▁кнопку	-9.75844
ti	-9.75853
▁кино	-9.75932
лё	-9.75993
▁приводит	-9.76026
▁взаимо	-9.76038
кри	-9.76059
▁фоне	-9.76066
▁впервые	-9.76077
вшие	-9.76099
ивают	-9.76117
▁контрол	-9.76177
оцен	-9.76194
▁узнать	-9.76284
блок	-9.76307
▁лев	-9.7641
▁установить	-9.76418
мут	-9.76428
▁написан	-9.76467
▁функция	-9.76508
▁добро	-9.76577
ушка	-9.76605
▁случай	-9.76622
ающие	-9.76638
▁кат	-9.76705
▁необходим	-9.76715
▁университет	-9.76725
▁крем	-9.76768
▁гри	-9.76781
▁необходимы	-9.76794
емый	-9.76816
▁размещен	-9.76828
▁бур	-9.76895
▁использованием	-9.769
▁гон	-9.7691
очку	-9.76936
▁стан	-9.76958
знаком	-9.76977
▁соединен	-9.76984
▁май	-9.7699
▁никаких	-9.77014
▁прекрасно	-9.77031
мина	-9.77073
енное	-9.77127
шек	-9.77157
пресс	-9.77297
▁вен	-9.77298
▁рассказ	-9.77316
гл	-9.7734
▁денег	-9.77413
▁удалось	-9.7742
▁wi	-9.77469
правлен	-9.77474
цеп	-9.77495
▁ввод	-9.77496
кова	-9.77501
провод	-9.77511
нием	-9.77528
mo	-9.77564
▁моей	-9.77592
▁действий	-9.77624
есть	-9.77644
▁знать	-9.77744
▁находятся	-9.77788
▁спин	-9.77829
оид	-9.77847
▁аренд	-9.77872
нский	-9.77874
▁самолет	-9.77975
веч	-9.78009
▁разработан	-9.78014
ps	-9.7804
▁подобно	-9.78083
▁здоровья	-9.78125
▁атмосфер	-9.78158
дея	-9.78172
▁европе	-9.78186
▁чуть	-9.78187
▁ca	-9.78214
▁турист	-9.78246
дро	-9.78256
▁первым	-9.78273
▁короб	-9.78289
стрел	-9.78329
изирован	-9.78333
▁остается	-9.78341
сторон	-9.7841
яется	-9.78426
лении	-9.78452
▁производстве	-9.78502
двига	-9.78512
▁требования	-9.78521
▁нормально	-9.78525
▁сп	-9.78537
▁перемен	-9.78553
рит	-9.78586
купа	-9.7862
▁клиентов	-9.7862
▁количества	-9.78621
тил	-9.78637
принят	-9.78644
▁наша	-9.78644
▁другое	-9.78679
▁каб	-9.78702
пят	-9.78756
▁колон	-9.78808
королев	-9.78811
▁добавить	-9.7883
тора	-9.78843
▁существу	-9.78856
▁вклад	-9.78912
▁хо	-9.7894
▁доме	-9.7898
▁воздуха	-9.78986
▁показан	-9.79021
▁определить	-9.79033
▁удовлетвор	-9.79044
▁республики	-9.79056
▁порядке	-9.79058
идент	-9.79067
▁поддержива	-9.79107
▁параметр	-9.79158
▁книг	-9.7916
▁долларов	-9.79167
▁приз	-9.79195
▁позволит	-9.7923
вит	-9.79274
луча	-9.79295
▁эл	-9.79297
▁гос	-9.794
ющиеся	-9.7943
▁отдыха	-9.79452
▁конца	-9.79482
▁основных	-9.79569
тверд	-9.79585
▁страх	-9.79628
▁график	-9.79685
нная	-9.79718
▁труда	-9.79769
▁содержание	-9.79812
▁счастлив	-9.79874
▁граф	-9.79911
▁показать	-9.79918
▁помогает	-9.7997
япон	-9.80102
▁to	-9.80145
▁of	-9.8018
▁основной	-9.80213
ям	-9.80246
▁первые	-9.80248
▁пользова	-9.80285
носить	-9.80322
▁объединен	-9.80343
▁звон	-9.80387
▁события	-9.80404
▁сохранен	-9.80408
овали	-9.80411
▁совершен	-9.80418
▁поль	-9.80422
▁странах	-9.80448
дом	-9.80501
▁бе	-9.80508
▁центре	-9.80536
▁понял	-9.80575
▁продукты	-9.8058
▁номера	-9.80585
ционных	-9.80613
▁пуст	-9.80754
днев	-9.80879
луша	-9.8088
▁большие	-9.80949
истов	-9.80999
▁мальчик	-9.81031
овыми	-9.81087
социал	-9.81117
дачи	-9.81128
кур	-9.81237
▁офис	-9.81247
ало	-9.8131
кт	-9.81312
pl	-9.81334
все	-9.81347
▁независимо	-9.81354
▁сосед	-9.8136
емой	-9.81364
▁возраст	-9.81367
ставил	-9.81395
▁луч	-9.81428
аций	-9.81439
▁утвержда	-9.81587
руд	-9.81683
▁позже	-9.81688
ировали	-9.81698
▁границ	-9.8171
присутств	-9.81714
рад	-9.81813
▁фотограф	-9.81815
▁плод	-9.81856
▁шум	-9.81862
вари	-9.81868
емого	-9.81999
▁вида	-9.82007
mp	-9.8202
sc	-9.82021
шем	-9.82102
▁назначен	-9.82157
▁материалы	-9.82172
порт	-9.82176
▁заявил	-9.82179
▁держа	-9.82193
▁датчик	-9.82222
▁просмотр	-9.82288
▁пусть	-9.82329
чных	-9.82332
▁хочет	-9.82357
▁меж	-9.82381
▁форму	-9.82389
иях	-9.82426
▁производство	-9.82431
▁возраста	-9.82495
станции	-9.82533
▁выпуск	-9.82619
▁гораздо	-9.82674
как	-9.82777
▁подробно	-9.82851
ивается	-9.82901
▁книги	-9.82906
чной	-9.82921
вра	-9.82926
▁среды	-9.82932
▁двумя	-9.82938
чения	-9.82945
▁выражен	-9.82963
▁жить	-9.82968
▁персонаж	-9.82968
▁конкурс	-9.82993
mi	-9.82994
хан	-9.83003
▁успе	-9.83125
ga	-9.83208
ьев	-9.83275
вшим	-9.83333
▁часа	-9.83383
вис	-9.83417
кош	-9.83487
▁жест	-9.83542
fo	-9.8355
▁операции	-9.83566
▁бит	-9.836
▁автомобиля	-9.83735
▁черно	-9.83735
▁нравится	-9.8374
▁контроля	-9.83767
▁комитет	-9.83787
▁усили	-9.83801
pi	-9.83827
вей	-9.83845
дей	-9.83855
▁тю	-9.83857
▁всему	-9.8392
ическими	-9.83945
▁выбран	-9.83955
▁абсолютно	-9.83976
▁данного	-9.84098
мп	-9.84121
▁спрос	-9.84122
енными	-9.84123
жив	-9.84289
евого	-9.84368
▁колес	-9.84391
ата	-9.84431
▁сель	-9.84439
▁сахар	-9.84455
▁добавл	-9.84571
▁чувств	-9.84594
▁активно	-9.84605
=	-9.84626
▁записи	-9.84651
▁био	-9.84667
его	-9.84672
▁хоть	-9.84676
▁диапазон	-9.8473
▁используются	-9.84756
▁лечение	-9.8484
▁гидро	-9.8485
▁секс	-9.84953
▁далеко	-9.84995
▁отсутствие	-9.8503
▁обнаружен	-9.85069
▁аэропорт	-9.85118
▁обращен	-9.85149
con	-9.85154
▁причем	-9.85181
▁баб	-9.85217
▁кофе	-9.85218
▁используют	-9.8526
техник	-9.85306
▁стиле	-9.85308
ry	-9.85312
▁бал	-9.85356
▁<	-9.85374
рет	-9.85406
бой	-9.8541
▁изготовлен	-9.85432
om	-9.85449
▁готовы	-9.85486
жид	-9.85522
▁давление	-9.85544
▁свойств	-9.85559
▁заряд	-9.85586
▁гол	-9.85654
игра	-9.85679
тики	-9.8568
еры	-9.85686
▁бра	-9.85692
москов	-9.85711
▁касается	-9.85753
▁брон	-9.85775
▁птиц	-9.85778
▁художник	-9.85812
ведение	-9.85894
пустил	-9.85929
кра	-9.86008
▁начало	-9.86067
щем	-9.86068
▁знает	-9.86106
ведущ	-9.8618
интер	-9.86185
▁каких	-9.86187
▁обучения	-9.86229
пуст	-9.86241
ve	-9.86255
▁настройки	-9.86261
ирую	-9.86264
▁вниз	-9.86322
тей	-9.86343
ca	-9.86398
▁поможет	-9.86399
полит	-9.86412
▁свойства	-9.86438
▁слав	-9.86441
▁какое	-9.86545
поль	-9.86563
▁смог	-9.86564
кид	-9.86639
▁научно	-9.86668
ph	-9.86671
▁вперед	-9.8669
имо	-9.86695
был	-9.86701
▁удобно	-9.8671
▁передач	-9.8674
▁ходе	-9.8679
сси	-9.86848
евые	-9.86855
ворот	-9.86941
▁изменить	-9.86959
▁вода	-9.86985
▁физически	-9.87061
▁выполнения	-9.87102
▁бассейн	-9.87127
▁естественно	-9.87135
пира	-9.87139
▁украины	-9.87142
▁платформ	-9.87178
▁какая	-9.87182
▁масштаб	-9.87198
ода	-9.87225
ске	-9.87319
▁вероятно	-9.87336
▁идеально	-9.87338
▁губ	-9.87348
▁связь	-9.87527
▁случаев	-9.87565
▁взял	-9.87611
▁запас	-9.87613
▁завершен	-9.87621
трат	-9.87647
чек	-9.87664
▁реализации	-9.87714
▁культуры	-9.87727
▁наук	-9.87741
▁нерв	-9.87747
▁особенности	-9.87751
грамм	-9.87761
▁мая	-9.87913
▁федерации	-9.87919
еров	-9.87987
▁элементов	-9.88048
шив	-9.88057
син	-9.88125
троп	-9.8813
▁использовании	-9.88152
▁пресс	-9.88164
ul	-9.8819
▁образова	-9.882
бли	-9.88229
▁пяти	-9.88261
▁пр	-9.88267
▁кстати	-9.88279
▁виды	-9.88288
▁ри	-9.88336
▁средство	-9.8835
qu	-9.88357
▁бренд	-9.88381
▁языка	-9.88397
▁органов	-9.88453
дела	-9.88474
пан	-9.8849
дин	-9.88509
▁использует	-9.88516
онов	-9.88532
▁образование	-9.88603
глу	-9.88742
▁петр	-9.88757
▁рассмотрен	-9.88762
сек	-9.88769
▁специалист	-9.88791
рт	-9.88803
▁мета	-9.88894
▁вызов	-9.88939
▁конфликт	-9.8894
джи	-9.88989
▁сравнению	-9.88996
▁пару	-9.89026
кач	-9.89028
▁поля	-9.89049
▁располага	-9.89093
▁газ	-9.89122
▁трав	-9.89155
▁словам	-9.89157
жил	-9.8918
▁владимир	-9.89189
▁сфер	-9.89216
▁предусмотрен	-9.8927
▁общем	-9.89275
▁опять	-9.89312
▁оригинал	-9.89329
▁версии	-9.89407
▁сел	-9.8941
рк	-9.89424
▁пас	-9.89431
▁плен	-9.89441
▁кал	-9.89441
▁движение	-9.89463
▁навык	-9.89465
здрав	-9.89475
ъя	-9.89485
енную	-9.8951
cl	-9.89601
стях	-9.89639
деревян	-9.89641
▁таком	-9.89714
▁оператор	-9.89725
▁объектов	-9.89727
▁куб	-9.89739
▁температуры	-9.89745
помни	-9.89746
▁дар	-9.89792
▁ци	-9.89878
▁мысли	-9.89886
▁угол	-9.8998
▁считается	-9.89988
▁фар	-9.8999
▁казахстан	-9.90061
фф	-9.90065
▁социально	-9.90079
гад	-9.90116
регул	-9.90173
▁z	-9.90249
жать	-9.90272
▁меч	-9.90314
▁ду	-9.90369
▁потеря	-9.90382
▁людям	-9.90419
▁элементы	-9.9044
пел	-9.90529
▁облада	-9.90531
оптим	-9.90594
▁охот	-9.90604
▁совместно	-9.90677
▁помимо	-9.9073
▁дороги	-9.90816
▁интерфейс	-9.90819
▁следующий	-9.90868
▁глубин	-9.90887
нную	-9.90932
▁положения	-9.90981
▁войск	-9.91027
▁храм	-9.91045
соедин	-9.91061
ица	-9.91074
щения	-9.91075
▁полезны	-9.91089
▁сфере	-9.91103
he	-9.91202
соб	-9.91216
▁первом	-9.91239
*	-9.91248
▁другого	-9.91255
вор	-9.91298
art	-9.91329
▁ужас	-9.91335
лист	-9.91376
ником	-9.91422
кажите	-9.91442
пенс	-9.91487
▁иначе	-9.9153
фил	-9.91531
▁воспита	-9.91569
▁пут	-9.91611
рг	-9.91625
ими	-9.91728
▁любит	-9.91744
▁посмотреть	-9.91745
тик	-9.91775
мед	-9.91792
▁карты	-9.91847
▁ошиб	-9.91847
▁черт	-9.91859
удив	-9.91913
рик	-9.91915
▁задачи	-9.91918
учеб	-9.91947
шке	-9.91967
так	-9.91993
шее	-9.9203
очного	-9.92042
▁любого	-9.92052
▁ребенок	-9.92077
пустить	-9.92097
нного	-9.92103
▁игру	-9.92138
ставлен	-9.92269
▁брю	-9.92307
▁роста	-9.92347
▁нож	-9.92396
шения	-9.92413
▁расширен	-9.92415
мень	-9.92415
▁спор	-9.92434
руп	-9.92441
пря	-9.92586
традицион	-9.92606
▁школы	-9.92652
▁нико	-9.92657
тика	-9.92665
▁дожд	-9.92686
пле	-9.92698
▁хороший	-9.92732
тип	-9.92739
▁смотреть	-9.92803
нной	-9.92852
▁корм	-9.92873
технолог	-9.92907
ll	-9.92908
реб	-9.92974
▁говоря	-9.92977
сол	-9.93013
▁сообщил	-9.93055
▁обеспечив	-9.9309
▁используя	-9.93114
go	-9.93118
эк	-9.93135
▁сообщения	-9.93145
ял	-9.93269
▁месяца	-9.93328
▁недоста	-9.93334
▁процент	-9.93337
▁рак	-9.9334
▁новая	-9.93354
шего	-9.93401
ard	-9.93483
мон	-9.93502
▁пользователь	-9.93505
▁пояс	-9.93545
изацию	-9.93554
▁смотрит	-9.93643
▁насколько	-9.93646
per	-9.93722
мит	-9.93756
унд	-9.93759
▁роли	-9.93762
▁приведен	-9.93782
▁новым	-9.93802
ec	-9.93909
▁официально	-9.93924
▁иван	-9.93927
▁ch	-9.93935
▁опер	-9.94037
▁поверхность	-9.94049
▁новое	-9.9405
▁кв	-9.94089
ion	-9.94137
вос	-9.94148
селен	-9.94234
▁проявля	-9.94253
площад	-9.94304
реж	-9.94362
изо	-9.94408
▁затрат	-9.94464
▁имеется	-9.94484
▁разговор	-9.94508
пеш	-9.94509
▁команда	-9.94548
▁погиб	-9.94564
ницу	-9.94595
спортив	-9.94695
▁налог	-9.94787
знаменит	-9.94788
верс	-9.94804
▁целях	-9.94898
▁выглядит	-9.94959
▁знания	-9.94983
ab	-9.94985
tion	-9.94999
жение	-9.95003
▁ip	-9.95025
▁волосы	-9.95026
▁перспектив	-9.95035
▁играть	-9.95072
net	-9.95134
▁работают	-9.95144
лиц	-9.95204
ig	-9.95206
▁изделия	-9.95211
▁кров	-9.95228
▁класса	-9.9525
▁пластик	-9.95255
▁статьи	-9.9527
▁архитектур	-9.95291
▁бор	-9.95327
класс	-9.95409
звуч	-9.95475
▁категории	-9.95483
▁раза	-9.95497
▁окна	-9.95522
▁обеспечить	-9.95561
▁золото	-9.95576
золот	-9.95616
ющем	-9.95714
поз	-9.95718
▁исчез	-9.95754
естествен	-9.95766
▁водой	-9.95779
игр	-9.95805
▁пита	-9.95886
▁никак	-9.95911
известны	-9.95955
▁бизнеса	-9.9596
▁ваших	-9.95982
▁область	-9.95982
▁соответственно	-9.95986
физ	-9.96011
ip	-9.96013
публик	-9.96025
▁статус	-9.96057
шую	-9.96061
ate	-9.96118
bi	-9.96146
▁относится	-9.96151
ологии	-9.9618
▁зло	-9.96189
▁монтаж	-9.96212
▁работал	-9.96254
▁час	-9.96257
пин	-9.96261
▁сухо	-9.96319
▁плеч	-9.96321
чувств	-9.96346
▁плит	-9.9637
gr	-9.9638
ьер	-9.96419
▁добавлен	-9.96425
▁сможете	-9.965
▁бро	-9.96506
овом	-9.96514
▁жертв	-9.96559
▁фо	-9.96582
▁страда	-9.96615
▁увидел	-9.96629
той	-9.96648
▁принять	-9.96667
▁рождения	-9.96704
▁статье	-9.96708
▁выгод	-9.9672
▁частью	-9.96783
▁начать	-9.96813
▁принимать	-9.96858
▁сих	-9.9686
взросл	-9.96864
▁обеспечение	-9.96899
▁недавно	-9.96928
▁суб	-9.96945
▁каза	-9.96982
ающий	-9.97012
▁цветов	-9.97014
раст	-9.9706
кли	-9.97064
▁почв	-9.97067
▁машина	-9.97109
▁джон	-9.97112
▁вновь	-9.97125
▁термин	-9.97151
▁ваше	-9.97179
▁голову	-9.97189
мисс	-9.97196
▁придется	-9.97219
▁взять	-9.97221
слу	-9.97224
▁доктор	-9.97319
британ	-9.97337
▁предложен	-9.97348
измен	-9.97352
ступает	-9.97361
▁получает	-9.974
▁показывает	-9.97421
po	-9.97435
чика	-9.9744
▁годов	-9.97451
▁привести	-9.97486
▁величин	-9.97497
▁света	-9.97502
ывается	-9.97505
▁последний	-9.97522
▁передачи	-9.97585
рост	-9.97598
▁рассказал	-9.97607
енко	-9.97625
мель	-9.97655
жива	-9.97655
▁протяжении	-9.97661
▁рим	-9.97683
дроб	-9.97704
▁кому	-9.9772
зд	-9.97722
пил	-9.97763
ификации	-9.97774
▁воду	-9.97786
▁основным	-9.9779
дания	-9.97802
▁жар	-9.97832
▁дни	-9.97863
▁основа	-9.97865
▁оценки	-9.97921
▁обработки	-9.97946
%.	-9.9796
ываю	-9.9796
▁любви	-9.97991
▁табл	-9.9803
консульт	-9.98109
▁обладает	-9.9815
▁доста	-9.98163
▁благодар	-9.98183
▁планет	-9.98196
, —	-9.98197
сущ	-9.98253
▁продукта	-9.98264
▁разум	-9.98292
▁документов	-9.98324
▁писа	-9.98352
▁интерьер	-9.98408
▁первая	-9.98412
ёл	-9.98432
▁конкретно	-9.98456
▁отметить	-9.9849
▁пище	-9.98512
▁костюм	-9.98585
эль	-9.98643
▁ночь	-9.98651
▁будто	-9.98656
▁боев	-9.98673
▁жал	-9.98705
▁кг	-9.98709
▁каса	-9.98717
прово	-9.98747
гин	-9.98749
▁всеми	-9.98774
ag	-9.98791
▁серии	-9.98821
эм	-9.98839
рю	-9.98862
кими	-9.98863
▁сектор	-9.98877
▁компаний	-9.9888
иков	-9.98894
▁большую	-9.9899
тические	-9.99072
бар	-9.99075
▁плюс	-9.99094
▁поражен	-9.99167
▁арт	-9.99185
▁супер	-9.9924
▁кафе	-9.99244
▁нему	-9.99295
▁технически	-9.99307
▁изо	-9.99309
▁недели	-9.99315
▁страхов	-9.99364
хрон	-9.9938
▁вроде	-9.99401
тельной	-9.99427
▁эксплуатации	-9.99481
▁важны	-9.99483
▁используйте	-9.99483
▁поддержки	-9.99509
ляет	-9.99517
▁выделен	-9.99537
▁студент	-9.99541
лип	-9.99547
▁меры	-9.9955
оф	-9.99555
▁туда	-9.99556
▁указ	-9.99575
вались	-9.99625
▁стра	-9.99667
▁обзор	-9.99676
евич	-9.99684
▁делают	-9.9972
ok	-9.99736
▁аромат	-9.99745
гряз	-9.99772
▁урок	-9.99792
праздн	-9.99803
▁давления	-9.99833
▁числа	-9.99849
▁комп	-9.9986
цит	-9.99944
возможны	-10.0001
▁винт	-10.0001
▁районе	-10.0003
▁утвержден	-10.0004
ироваться	-10.0006
▁изменение	-10.0007
чество	-10.0012
фин	-10.0014
io	-10.0018
▁дополнительные	-10.0019
▁образу	-10.0032
▁обстоятельств	-10.0039
▁библиотек	-10.0042
ительным	-10.0046
▁внимания	-10.0049
up	-10.0052
▁семь	-10.0055
▁отношение	-10.0056
▁скорости	-10.0061
▁меш	-10.0064
▁искусств	-10.0068
телями	-10.0069
остью	-10.007
ts	-10.0071
стями	-10.0071
ms	-10.0072
ните	-10.0076
▁итоге	-10.0079
▁главным	-10.0082
▁заключается	-10.0082
▁стоя	-10.0084
▁своему	-10.0086
▁встреч	-10.0101
▁минимум	-10.0112
▁понимаю	-10.012
литератур	-10.0123
▁боя	-10.0125
▁кожа	-10.0131
времен	-10.0138
▁отличие	-10.0139
например	-10.014
▁министерств	-10.0143
▁глубоко	-10.0144
▁такую	-10.0148
▁чай	-10.0151
▁здоровье	-10.0151
▁матч	-10.0153
▁предложения	-10.0157
▁друж	-10.0162
▁платеж	-10.0167
▁исследований	-10.0167
▁коллектив	-10.0168
su	-10.0175
▁способность	-10.0182
▁смен	-10.0182
▁малыш	-10.0184
нцев	-10.0186
▁сообщение	-10.0188
▁отец	-10.0191
▁освещен	-10.0195
▁мисс	-10.0195
pr	-10.0199
sk	-10.021
▁отправля	-10.0215
▁сток	-10.0216
исправ	-10.0217
▁мероприятия	-10.0218
▁дву	-10.0219
▁формул	-10.0222
▁пользователей	-10.0223
▁распределен	-10.0227
▁последовательно	-10.0239
ура	-10.024
▁выпуска	-10.024
тре	-10.0244
▁дать	-10.0249
▁пришлось	-10.0251
▁нью	-10.0251
▁se	-10.0257
дач	-10.0267
ub	-10.0268
▁мост	-10.0268
▁пожар	-10.0277
▁улучшен	-10.0278
▁тяжело	-10.0278
▁киев	-10.0278
▁неделю	-10.028
▁называем	-10.0281
▁нрав	-10.0282
▁расход	-10.0283
▁позво	-10.0285
▁запуска	-10.0288
▁первое	-10.0293
▁бывает	-10.03
монт	-10.03
▁мышц	-10.0302
▁сожалению	-10.0303
настоящ	-10.0305
▁сайта	-10.0306
▁ламп	-10.031
▁шаблон	-10.031
▁считают	-10.0311
сообщ	-10.0318
оваться	-10.0318
tor	-10.0321
▁политики	-10.0323
ичный	-10.0323
▁солнце	-10.0325
▁общего	-10.0326
▁кара	-10.0326
▁сексуальн	-10.0328
коррект	-10.0329
▁редко	-10.0331
план	-10.0331
пир	-10.0333
▁ссср	-10.0333
крыл	-10.0336
ционные	-10.0337
нулся	-10.0337
lu	-10.0345
▁разделе	-10.0346
▁видеть	-10.0348
▁установка	-10.0351
▁доступа	-10.0351
▁хранения	-10.0357
▁эксперимент	-10.0357
▁постепенно	-10.0358
▁пациентов	-10.036
▁температура	-10.0361
▁каждом	-10.0361
реш	-10.0373
▁нами	-10.0374
лений	-10.0375
▁вирус	-10.0376
очек	-10.0377
националь	-10.0378
▁удел	-10.0382
▁лок	-10.0384
▁весел	-10.0395
▁наслед	-10.0396
▁лук	-10.0396
▁христиан	-10.0398
▁панели	-10.0402
▁информа	-10.0404
▁сви	-10.0405
▁денеж	-10.0405
▁площадь	-10.0406
man	-10.0408
▁скачать	-10.0411
принадлеж	-10.0413
▁самая	-10.0415
ставка	-10.0417
▁стимул	-10.0418
▁субъект	-10.0418
▁мотив	-10.042
очист	-10.0421
глас	-10.0426
one	-10.043
ut	-10.043
q	-10.0433
▁детали	-10.0435
▁произведен	-10.0437
▁велико	-10.0439
▁травм	-10.0441
чным	-10.0442
age	-10.0443
хлоп	-10.0445
бож	-10.0451
▁привет	-10.0454
кре	-10.0454
▁слаб	-10.0456
▁пыл	-10.0456
▁бога	-10.0458
▁начинает	-10.0461
чес	-10.0464
эконом	-10.047
▁итог	-10.0476
▁белый	-10.0483
ланд	-10.0483
голов	-10.0485
▁надежно	-10.0487
▁расти	-10.0489
▁имею	-10.049
▁размера	-10.0501
em	-10.0504
▁ныне	-10.0511
▁профил	-10.0512
оген	-10.0513
▁товаров	-10.0516
ix	-10.0517
▁думал	-10.0518
если	-10.0518
▁глава	-10.0519
▁осуществляется	-10.052
▁разве	-10.0521
▁достижения	-10.0523
ie	-10.0525
if	-10.0535
рел	-10.0541
▁задача	-10.0542
▁отметил	-10.0544
▁военно	-10.0545
тряс	-10.0549
▁простой	-10.055
▁предлагаем	-10.055
▁документы	-10.0552
▁масла	-10.0555
▁называют	-10.0558
альное	-10.0563
▁приобрет	-10.0564
схем	-10.0564
▁исключительно	-10.0565
▁инженер	-10.0567
▁философ	-10.0569
▁актер	-10.0571
▁метров	-10.0576
плав	-10.0577
▁дверь	-10.0578
▁направления	-10.0578
▁изобретен	-10.0578
iv	-10.0589
▁методы	-10.059
проб	-10.059
▁двигателя	-10.0594
▁проходит	-10.0597
▁сорт	-10.0597
▁утра	-10.0602
▁спектр	-10.0603
шива	-10.0605
тес	-10.0615
ly	-10.0617
рак	-10.0625
▁атак	-10.0626
▁зачем	-10.0627
tra	-10.063
▁забот	-10.0631
▁бумаг	-10.0632
иностран	-10.0633
смотреть	-10.0637
▁района	-10.0643
тый	-10.0646
▁работник	-10.0651
бега	-10.0653
пыт	-10.0658
▁снижен	-10.0658
▁лю	-10.066
важ	-10.0664
▁момента	-10.0665
▁небольшой	-10.0665
▁поставщик	-10.0665
жут	-10.0666
очная	-10.067
▁совета	-10.0674
▁эс	-10.0676
▁анализа	-10.0677
сам	-10.0678
▁враг	-10.0679
▁крут	-10.0679
▁красив	-10.068
▁лежа	-10.0682
▁четырех	-10.0686
▁каждая	-10.0687
▁объекта	-10.0687
▁убеди	-10.0689
▁доступны	-10.0691
тельным	-10.0691
▁семья	-10.0692
▁поврежден	-10.0692
вай	-10.0696
od	-10.07
▁банков	-10.0701
▁ex	-10.0703
танц	-10.0704
▁доз	-10.0707
▁съем	-10.0708
жизне	-10.0709
▁рынок	-10.071
▁возрасте	-10.0711
▁наверное	-10.0713
▁горизонт	-10.0718
▁магнит	-10.073
▁мужчина	-10.0736
вшая	-10.0737
истин	-10.0741
чем	-10.0741
час	-10.0742
они	-10.0743
▁бег	-10.075
▁эк	-10.075
▁здания	-10.0753
▁пле	-10.0754
▁настолько	-10.0757
▁сотрудник	-10.0759
▁черный	-10.0763
▁провести	-10.0768
▁угроз	-10.077
глоб	-10.0777
▁выделя	-10.0779
▁приятно	-10.078
▁первых	-10.0784
▁завис	-10.0784
▁фаз	-10.0785
▁ответил	-10.0793
▁ответственность	-10.0798
▁людьми	-10.0799
друг	-10.0802
▁вооружен	-10.0805
ируются	-10.081
▁моря	-10.0812
▁мной	-10.0813
▁рекомендуется	-10.0815
досто	-10.0821
шь	-10.0822
▁начали	-10.0826
▁правительство	-10.0829
▁лед	-10.0829
▁склад	-10.0833
▁налогов	-10.0836
актив	-10.0838
dr	-10.0839
▁насос	-10.0843
зра	-10.0846
сан	-10.0846
▁служит	-10.0847
▁прогноз	-10.0854
ждение	-10.0855
▁вверх	-10.0857
▁красно	-10.0857
▁эпи	-10.0857
▁похоже	-10.0859
▁наше	-10.0861
▁проводить	-10.0864
▁больших	-10.0866
▁отношений	-10.0869
буд	-10.0875
▁статья	-10.0876
▁обои	-10.0887
вез	-10.0887
▁мам	-10.0893
▁новую	-10.0895
▁патр	-10.09
мас	-10.0902
▁эффективны	-10.0903
▁недостаточно	-10.0905
убийств	-10.0907
▁версия	-10.0908
спект	-10.0909
ством	-10.0909
▁выполнять	-10.0911
▁декабря	-10.0914
▁декор	-10.0915
▁защища	-10.0925
▁me	-10.0925
▁едино	-10.0926
▁подраздел	-10.0927
шение	-10.0928
▁превыша	-10.0931
▁участников	-10.0936
au	-10.0937
▁ткани	-10.0938
▁отеля	-10.0939
▁повер	-10.0941
▁временем	-10.0942
▁экспорт	-10.0943
▁экономически	-10.0944
способ	-10.0946
▁вещества	-10.0946
петербург	-10.0951
▁отличается	-10.0952
▁суда	-10.0954
▁строк	-10.0957
пись	-10.096
▁министр	-10.0963
▁лент	-10.0966
тельная	-10.0967
ведом	-10.0968
верн	-10.0972
▁целей	-10.0973
▁тыс	-10.0978
▁наличии	-10.0979
гул	-10.0982
популярны	-10.0986
▁спец	-10.0988
▁называется	-10.0989
▁технологий	-10.0991
▁ярко	-10.0992
тир	-10.0993
▁андре	-10.0995
▁церкви	-10.1003
падает	-10.1012
▁сердца	-10.1013
▁общей	-10.1016
▁ученик	-10.1017
рд	-10.102
▁ro	-10.1022
▁местах	-10.1026
▁параметры	-10.1032
▁ii	-10.1032
▁написал	-10.1033
▁помещения	-10.1045
▁рабочих	-10.1045
▁сведения	-10.1048
уса	-10.1055
▁витамин	-10.1056
▁признак	-10.1062
▁q	-10.1063
fe	-10.1063
жим	-10.1064
▁крайне	-10.1068
▁главная	-10.1069
▁результатов	-10.1077
боле	-10.1077
ставляет	-10.1082
▁мое	-10.1087
▁дик	-10.1089
носят	-10.109
▁объясня	-10.109
инга	-10.1092
▁приказ	-10.1092
▁книга	-10.1093
▁мг	-10.1095
▁ноги	-10.1098
ифика	-10.1099
стат	-10.1099
▁регулярно	-10.11
»)	-10.1103
▁боли	-10.1107
▁нужда	-10.1107
▁сотрудников	-10.1112
смерт	-10.1113
▁порядок	-10.1113
вет	-10.1118
▁сообществ	-10.1121
инов	-10.1125
ive	-10.1126
▁семье	-10.1127
▁общественно	-10.113
▁приме	-10.1131
ложения	-10.1136
чё	-10.1138
▁пра	-10.1141
▁считает	-10.1142
цами	-10.1143
▁вопросов	-10.1146
▁главный	-10.1146
▁валют	-10.1148
▁прошло	-10.1149
▁оснащен	-10.115
▁png	-10.1152
работа	-10.1154
▁привлек	-10.1159
der	-10.1159
▁увеличение	-10.1159
▁растения	-10.117
▁отказа	-10.1171
ивание	-10.1173
▁двери	-10.1181
▁рода	-10.1181
▁моно	-10.1192
int	-10.1201
▁обучение	-10.1202
▁решений	-10.1203
преподава	-10.1221
▁возникает	-10.1224
▁правительства	-10.1224
▁соединения	-10.1225
▁мама	-10.1226
ьян	-10.1228
▁алекс	-10.1231
▁определения	-10.1238
▁гостей	-10.124
альном	-10.1246
▁вопросам	-10.1247
▁склон	-10.1248
▁for	-10.1248
va	-10.125
▁сентября	-10.125
▁характеристик	-10.1258
▁сна	-10.1259
▁поднима	-10.1261
линг	-10.1264
▁искусства	-10.1268
▁тщательно	-10.1268
▁аспект	-10.1268
▁требу	-10.127
▁полный	-10.1273
▁болезни	-10.1276
▁резерв	-10.1277
▁бой	-10.1282
▁карьер	-10.1287
ka	-10.1288
▁существенно	-10.1289
▁негатив	-10.1291
▁сте	-10.1292
▁характеристики	-10.1294
▁диаметр	-10.1296
▁po	-10.1297
▁пространство	-10.13
▁языке	-10.1301
▁автобус	-10.1308
▁секрет	-10.1313
▁пассажир	-10.1314
▁'	-10.1318
▁поводу	-10.132
▁лучших	-10.1324
▁покрыт	-10.1324
▁сочета	-10.1325
вернуть	-10.1327
▁сокращен	-10.1328
пас	-10.1331
гран	-10.1334
▁марта	-10.1336
▁no	-10.1342
зин	-10.1345
▁голуб	-10.1347
▁идея	-10.135
▁свер	-10.135
▁огне	-10.1351
ложил	-10.1352
хим	-10.1354
▁mi	-10.1355
работать	-10.1357
▁двойн	-10.1363
▁понрави	-10.1372
пласт	-10.1374
▁техники	-10.1375
▁вызывает	-10.1375
▁вар	-10.1375
уголь	-10.1375
▁считал	-10.1376
▁газет	-10.1376
▁обязательств	-10.1377
ичные	-10.1378
▁регистрации	-10.1379
▁ваша	-10.1383
жима	-10.1383
телю	-10.139
▁спи	-10.139
▁картинки	-10.1391
чить	-10.1394
▁пен	-10.1397
▁платье	-10.1402
▁сказала	-10.1404
тян	-10.141
▁восток	-10.1412
▁мужчины	-10.1413
ящих	-10.1416
▁оружие	-10.1416
▁отлича	-10.1417
▁брать	-10.1417
пед	-10.1421
▁приходится	-10.1428
руб	-10.1428
▁пациент	-10.1428
ировании	-10.1433
бри	-10.1436
энерг	-10.1438
крытия	-10.144
▁домой	-10.1447
атора	-10.1452
▁получили	-10.1454
▁изменений	-10.1454
▁мощность	-10.1455
▁индивидуально	-10.1459
индивидуал	-10.1461
▁допуска	-10.1472
▁встроен	-10.1473
▁мнению	-10.1474
▁рот	-10.1477
▁существуют	-10.1482
▁толст	-10.1487
жан	-10.149
▁посвящен	-10.1497
волю	-10.1502
▁открыл	-10.1504
▁технология	-10.1505
 –	-10.1512
▁объявлен	-10.1513
▁единиц	-10.1515
▁дуб	-10.1517
привыч	-10.1524
альными	-10.1527
▁любое	-10.1527
▁конструкции	-10.1531
▁сеть	-10.1538
▁лат	-10.1544
тического	-10.1546
▁протокол	-10.1547
ительного	-10.1551
ir	-10.1551
▁бен	-10.1551
ждения	-10.1562
▁высоким	-10.1567
▁могла	-10.157
прост	-10.1571
▁окно	-10.1571
▁закона	-10.1572
▁захват	-10.1574
ческой	-10.1579
▁клапан	-10.158
▁позволяют	-10.1581
▁округ	-10.1582
▁обслуживание	-10.1587
гля	-10.1587
▁следующим	-10.1591
▁строительство	-10.1592
министр	-10.1596
▁подтвержден	-10.1601
▁контракт	-10.1602
▁выявлен	-10.1607
▁билет	-10.1611
чества	-10.1612
▁исключен	-10.1615
▁эффективность	-10.1617
▁ясно	-10.1627
▁дал	-10.1627
▁ооо	-10.163
▁люблю	-10.1633
нская	-10.1634
▁армии	-10.1637
имся	-10.1638
▁коллег	-10.1639
▁октября	-10.1639
bl	-10.1639
▁сохранить	-10.1639
▁ресурсов	-10.164
▁кожу	-10.1643
▁климат	-10.1645
▁германии	-10.1646
▁хочется	-10.1649
ty	-10.165
▁руку	-10.1653
▁виду	-10.1653
стабильно	-10.1654
▁вдруг	-10.1656
▁предложение	-10.1656
................	-10.1657
▁удовольствие	-10.1657
▁проверить	-10.166
ред	-10.1665
▁альтернатив	-10.1666
▁быстрее	-10.1677
▁июня	-10.168
vo	-10.1681
сут	-10.1683
▁высокого	-10.1684
▁получается	-10.1687
▁последнее	-10.1689
▁резко	-10.1693
▁историю	-10.1694
▁джо	-10.1698
нным	-10.17
▁запах	-10.1701
▁телевизор	-10.1702
бить	-10.1706
▁девушки	-10.171
кончи	-10.1711
▁выбора	-10.1712
▁баланс	-10.1713
ci	-10.1716
▁дерево	-10.1716
▁инвестици	-10.1717
▁миллионов	-10.1718
▁полной	-10.172
▁требованиям	-10.1723
▁перво	-10.1727
береж	-10.1727
▁продолжитель	-10.1731
▁уменьшен	-10.1732
▁сможет	-10.1735
▁произошло	-10.1735
мощн	-10.1737
▁нашим	-10.1745
дыха	-10.1746
ываем	-10.1755
▁взрыв	-10.1756
охран	-10.1762
▁ат	-10.1767
лять	-10.1768
▁букв	-10.1771
уточн	-10.1771
▁знаете	-10.1772
йдите	-10.1774
▁оценив	-10.1775
развит	-10.1776
испан	-10.178
зон	-10.1781
рам	-10.1781
▁мнение	-10.1785
▁посад	-10.1785
▁относятся	-10.1788
▁степень	-10.1792
▁термо	-10.1795
▁рецепт	-10.1796
кажет	-10.1796
▁мировой	-10.1799
▁сохрани	-10.1801
кнул	-10.1808
▁направля	-10.1815
лях	-10.1816
▁поиска	-10.1816
\	-10.1818
щет	-10.1819
ver	-10.1819
ированных	-10.1823
▁будете	-10.1826
ствовал	-10.1827
тельного	-10.1828
▁направлении	-10.1829
меч	-10.1833
▁видно	-10.1837
▁удобны	-10.1841
▁многочислен	-10.1841
son	-10.1844
▁&	-10.1847
▁порно	-10.1848
▁псих	-10.1849
конча	-10.185
▁темно	-10.1853
▁начинается	-10.1858
▁usb	-10.186
▁спустя	-10.1862
честве	-10.1863
евым	-10.1863
▁изменил	-10.1866
▁эн	-10.1872
курс	-10.1877
▁посредством	-10.188
левой	-10.1884
мур	-10.1888
▁нарушения	-10.1891
чуж	-10.1891
▁января	-10.1892
▁красиво	-10.1898
▁шанс	-10.1898
роч	-10.1903
учить	-10.1903
ft	-10.1904
▁поддерживает	-10.1905
генер	-10.1909
est	-10.1911
▁овощ	-10.1913
▁la	-10.1916
лению	-10.192
▁удач	-10.1933
тека	-10.1937
быстр	-10.1938
▁стороне	-10.1957
▁показ	-10.1958
▁отдельных	-10.1967
▁топ	-10.1969
▁которому	-10.1977
▁европы	-10.1981
▁сюда	-10.1983
чего	-10.1987
▁быт	-10.1988
▁земля	-10.199
ительной	-10.1994
▁любые	-10.1995
▁необходимость	-10.1995
▁столько	-10.1996
▁крест	-10.1998
▁москве	-10.1999
▁обеща	-10.2004
чение	-10.2006
▁остальные	-10.2008
ock	-10.2008
▁начальник	-10.2009
▁надежд	-10.2009
ированные	-10.2009
чел	-10.2013
▁мозг	-10.2016
▁входит	-10.2017
ируйте	-10.2021
уникальн	-10.2026
▁обслуживания	-10.2027
▁солдат	-10.2027
▁часы	-10.2033
отрица	-10.2035
началь	-10.2036
▁йо	-10.2036
▁государственной	-10.2038
▁проектов	-10.2059
▁применять	-10.2059
очке	-10.2066
▁сцена	-10.2067
▁вскоре	-10.2067
▁окружающей	-10.2073
зол	-10.2074
▁чувство	-10.208
▁фактически	-10.208
рош	-10.208
az	-10.2082
▁событий	-10.2084
▁толщ	-10.2084
bu	-10.2086
конкрет	-10.209
▁хотелось	-10.2095
▁июля	-10.2095
ющийся	-10.2101
мал	-10.2104
▁хор	-10.2107
шкой	-10.2111
▁столь	-10.2114
тических	-10.2115
▁мать	-10.212
@	-10.2122
▁вашем	-10.2127
▁лучший	-10.2128
▁стоимости	-10.2129
▁друзья	-10.213
эл	-10.2132
лятор	-10.2134
▁сек	-10.2134
▁нужна	-10.2137
▁учетом	-10.2138
▁власть	-10.214
иваем	-10.2142
участник	-10.2142
▁герман	-10.2143
▁диагност	-10.2143
▁функций	-10.2146
▁которыми	-10.2149
▁запись	-10.2151
▁бре	-10.2152
ствовать	-10.216
▁мечта	-10.2162
▁применен	-10.2164
▁спросил	-10.2167
▁зеркал	-10.2173
▁фотография	-10.2174
▁пород	-10.2178
▁будущем	-10.218
▁фронт	-10.2182
▁танк	-10.2185
▁газа	-10.2195
ell	-10.2199
ki	-10.2199
▁намного	-10.2203
▁li	-10.2208
тический	-10.2209
▁гипер	-10.2209
▁процедуры	-10.2213
▁большого	-10.2215
▁исторически	-10.2224
▁превосход	-10.2225
▁связанные	-10.2226
▁близки	-10.2236
▁лучшие	-10.2238
▁дорога	-10.2242
▁небо	-10.2242
▁файлов	-10.2247
▁менеджер	-10.2253
▁вернуться	-10.2257
▁банка	-10.2259
▁журналист	-10.2267
пуга	-10.227
маш	-10.227
▁джа	-10.2273
▁паро	-10.2277
▁нужен	-10.2282
▁видимо	-10.2285
▁снег	-10.2285
▁поддержку	-10.2285
▁хирург	-10.2287
▁перенос	-10.229
вшихся	-10.229
воздуш	-10.229
коло	-10.2293
лина	-10.2296
▁диа	-10.2297
▁желание	-10.2298
ставьте	-10.2302
▁сопровожда	-10.2305
▁исследование	-10.2312
шёл	-10.2315
▁питание	-10.2318
▁партии	-10.2323
казывать	-10.2324
▁здание	-10.2325
▁аккумулятор	-10.2329
▁брак	-10.233
виг	-10.2334
▁опор	-10.2336
iii	-10.2337
▁доказательств	-10.2337
▁стены	-10.2343
▁повышение	-10.2343
▁апреля	-10.2343
ифицирован	-10.2343
▁соответствует	-10.2344
▁прогресс	-10.2353
▁уменьша	-10.2353
▁организма	-10.2358
▁организаций	-10.2358
▁измерения	-10.236
▁моего	-10.2361
люд	-10.2368
религиоз	-10.2369
▁позиции	-10.2376
▁форум	-10.2377
бург	-10.2389
▁договора	-10.2398
fa	-10.2399
▁медленно	-10.2408
▁лун	-10.2411
▁снят	-10.2415
▁последствия	-10.2416
лыш	-10.2416
▁океан	-10.242
нулась	-10.2422
▁кандидат	-10.2423
брать	-10.2423
правляю	-10.2427
части	-10.2435
кость	-10.2437
ber	-10.2437
▁представитель	-10.2438
страда	-10.2438
ящие	-10.244
лежа	-10.2443
▁намерен	-10.2444
ity	-10.2445
▁своё	-10.2451
▁определение	-10.2457
дес	-10.2461
для	-10.2462
▁проверки	-10.2464
▁шесть	-10.2468
теле	-10.2472
писал	-10.2473
rs	-10.2474
▁появляется	-10.2474
▁квадрат	-10.2476
▁считать	-10.2478
▁ноября	-10.2481
ицу	-10.2488
вил	-10.2489
▁мотор	-10.2492
▁кризис	-10.2511
газ	-10.2512
▁смерть	-10.2517
ничтож	-10.252
▁оценка	-10.2523
▁аналог	-10.2524
▁сообща	-10.2526
▁прошлом	-10.2527
ступен	-10.2531
▁концерт	-10.2534
▁стекло	-10.2536
▁hd	-10.254
▁безопасность	-10.2541
▁хар	-10.2541
англ	-10.2541
▁группе	-10.2543
▁ката	-10.2543
хар	-10.2544
▁руками	-10.2545
hi	-10.2546
▁объектив	-10.2556
▁необходимые	-10.2558
▁возврат	-10.2559
▁измерен	-10.2562
ированный	-10.2563
счет	-10.2566
gi	-10.2567
▁итальян	-10.2568
rt	-10.2568
▁салон	-10.2572
▁педагог	-10.2573
▁доклад	-10.2576
кос	-10.2578
ывая	-10.2578
▁композици	-10.2582
▁получать	-10.2584
ack	-10.2585
▁избежать	-10.2587
▁обратите	-10.259
эс	-10.2593
валась	-10.2596
▁близ	-10.26
▁беспоко	-10.2602
▁членов	-10.2602
операцион	-10.2607
ард	-10.2608
▁ху	-10.2608
▁умолчанию	-10.2613
вшиеся	-10.2614
выполня	-10.2617
▁единственно	-10.2619
ированы	-10.2625
▁миру	-10.2632
▁приход	-10.2633
▁причиной	-10.2644
▁вашим	-10.2649
▁экономики	-10.2659
▁полезно	-10.2671
ass	-10.2674
▁память	-10.2677
дешев	-10.2678
▁твое	-10.2681
▁такими	-10.2687
йорк	-10.269
терапии	-10.2694
▁свободно	-10.2695
смеш	-10.2695
гур	-10.27
▁заметил	-10.2704
▁мульти	-10.2712
▁гг	-10.2717
▁связано	-10.2718
▁включают	-10.2723
мес	-10.2723
▁идти	-10.2728
▁разработки	-10.2732
▁понятно	-10.2733
▁красный	-10.2738
ционный	-10.2739
▁обед	-10.2744
▁признан	-10.2748
арх	-10.2754
▁сюжет	-10.2757
▁противник	-10.2759
▁отпуск	-10.2764
▁кем	-10.2766
▁причины	-10.2768
тай	-10.2769
читыв	-10.2774
енько	-10.2778
▁усилен	-10.278
▁занимает	-10.2785
▁играет	-10.2791
▁предварительно	-10.2791
акт	-10.2792
▁улице	-10.2795
▁демон	-10.2795
▁человеком	-10.2796
▁подготовки	-10.2796
▁мари	-10.28
▁какую	-10.2809
▁итак	-10.2809
▁http	-10.2811
▁родителей	-10.2811
port	-10.2815
▁ул	-10.2817
▁энерго	-10.2817
▁давайте	-10.2818
▁поддержка	-10.2819
str	-10.2823
▁описыва	-10.2824
ящий	-10.2825
▁поведение	-10.2835
▁десяти	-10.2839
боль	-10.284
▁основании	-10.2842
изатор	-10.2846
▁бутыл	-10.2847
▁жена	-10.285
▁августа	-10.2851
▁ведет	-10.2853
▁двигатель	-10.2854
▁скрыт	-10.2856
зен	-10.2858
карт	-10.2865
▁сумма	-10.2868
▁искусство	-10.2869
▁исполнитель	-10.2872
тельную	-10.2874
ительная	-10.2877
▁школе	-10.288
▁шер	-10.2882
▁линия	-10.2884
▁выполнить	-10.2885
▁ошибки	-10.2888
▁создавать	-10.2889
тянут	-10.2893
▁высокий	-10.2894
▁проход	-10.2896
▁площади	-10.2896
▁электронной	-10.2896
▁коммун	-10.2897
▁автомобилей	-10.2897
▁проявлен	-10.2898
▁идеи	-10.2903
▁кровь	-10.2904
▁письмо	-10.292
вязан	-10.2921
▁предоставляет	-10.2933
▁края	-10.2933
молодеж	-10.2938
плачива	-10.2938
▁получают	-10.2939
▁строительства	-10.2943
▁виктор	-10.2943
▁хлеб	-10.2944
▁писал	-10.2947
rm	-10.2948
▁напряжение	-10.2951
ment	-10.2955
▁четко	-10.2955
ill	-10.2958
▁сосуд	-10.2959
▁толк	-10.2959
чев	-10.2959
▁дорого	-10.2961
иан	-10.2962
инф	-10.2965
sd	-10.2968
▁принес	-10.2969
▁каталог	-10.2974
▁воздействие	-10.2979
▁велосипед	-10.298
▁назван	-10.2984
we	-10.299
строитель	-10.299
▁алюмини	-10.2991
▁церковь	-10.3
▁преимущества	-10.3009
://	-10.301
▁воздействия	-10.301
топлив	-10.3011
ant	-10.3013
▁попыта	-10.302
▁(«	-10.302
▁изменен	-10.3022
гресс	-10.3023
▁украине	-10.3026
▁художеств	-10.3026
▁стоял	-10.3029
▁оборот	-10.3035
ue	-10.3037
▁следовательно	-10.3037
▁способом	-10.3038
▁талант	-10.3042
енности	-10.3044
▁поэт	-10.3045
лес	-10.3045
▁рейтинг	-10.3048
▁google	-10.3052
▁импорт	-10.3052
ляется	-10.3053
▁заболеваний	-10.3057
коммуника	-10.3059
▁крайней	-10.306
▁одни	-10.3064
tt	-10.3071
▁базе	-10.3073
▁колен	-10.3077
fl	-10.3079
▁удобств	-10.3082
▁файлы	-10.3085
▁природы	-10.3086
пали	-10.3087
▁диалог	-10.3092
▁варианты	-10.3095
av	-10.3096
▁зоны	-10.3101
▁заниматься	-10.3114
▁повторя	-10.3115
▁бактери	-10.3116
▁альбом	-10.312
▁поверх	-10.312
▁фикс	-10.3121
®	-10.3121
▁президента	-10.3128
▁соверша	-10.3129
▁землю	-10.3131
▁промышленности	-10.3135
▁следующих	-10.314
▁очевидно	-10.3142
▁спокойно	-10.3145
тинг	-10.3146
▁поздне	-10.3152
!»	-10.3153
прежнему	-10.3153
щими	-10.3159
▁федерал	-10.316
▁пределах	-10.316
шев	-10.316
▁tr	-10.3174
работал	-10.3175
ess	-10.3177
▁снижение	-10.318
▁руках	-10.318
▁привлекательн	-10.3181
▁решить	-10.3182
▁забыв	-10.3183
▁гриб	-10.3185
ственных	-10.3185
ведите	-10.3185
▁заказчик	-10.3187
▁смартфон	-10.319
▁провел	-10.3208
▁элемента	-10.3209
кост	-10.3216
▁клавиш	-10.3217
ворачива	-10.3217
▁товары	-10.3218
▁университета	-10.3221
арт	-10.323
снабжен	-10.3234
▁высокая	-10.3242
▁открыть	-10.3243
▁составе	-10.3243
совместим	-10.3245
▁ес	-10.3249
определ	-10.3252
ko	-10.3254
▁надеюсь	-10.3256
▁эффективности	-10.3261
▁специалистов	-10.3262
сайт	-10.3264
▁настройка	-10.3264
▁памятник	-10.3264
ect	-10.3265
▁связанных	-10.3268
▁родители	-10.3269
▁обсужден	-10.327
держал	-10.3271
гент	-10.3273
▁видим	-10.3274
du	-10.3274
▁пережив	-10.3277
▁профессионально	-10.3283
▁пик	-10.3288
▁обеспечен	-10.3291
▁структуры	-10.3293
▁желуд	-10.3299
▁узнал	-10.3302
▁новом	-10.3304
▁аудитор	-10.3307
совет	-10.3308
▁комнаты	-10.3309
▁обсужда	-10.3309
▁наград	-10.3309
▁пропа	-10.3314
пользов	-10.3318
ds	-10.332
тической	-10.3322
▁оказалось	-10.3325
▁карте	-10.3326
▁усилия	-10.3328
▁приоритет	-10.333
▁читать	-10.3332
▁вспомни	-10.3333
ine	-10.3334
▁факторов	-10.334
стабил	-10.3345
▁увеличен	-10.3349
йдут	-10.335
▁сделали	-10.335
разруш	-10.3353
▁эпох	-10.3355
▁заказа	-10.3356
▁растений	-10.3358
▁кабель	-10.3358
▁впрочем	-10.336
▁явно	-10.3362
▁процессов	-10.3366
▁представлены	-10.3371
▁модел	-10.338
▁интенсивно	-10.3383
рождеств	-10.3386
▁проблему	-10.3392
▁начиная	-10.3398
обще	-10.34
▁ошибка	-10.3401
▁шоу	-10.3402
вернул	-10.3404
▁земель	-10.3407
▁русский	-10.3412
▁молодой	-10.3412
▁конец	-10.3421
▁личности	-10.3427
ложение	-10.3432
▁соблюден	-10.3432
▁фре	-10.3435
▁видит	-10.344
▁тихо	-10.344
▁принимает	-10.3442
▁социальных	-10.3442
▁лондон	-10.3452
▁осуществлен	-10.3454
▁системой	-10.3458
распредел	-10.3461
▁решили	-10.3462
▁выплат	-10.3463
анг	-10.3466
▁ракет	-10.3476
▁составил	-10.3479
▁пет	-10.3479
инноваци	-10.3486
▁указыва	-10.3487
▁порядка	-10.3492
▁отправил	-10.3499
▁пребыва	-10.3503
▁обез	-10.3507
специал	-10.3508
правил	-10.3508
▁индикатор	-10.3513
ческого	-10.3514
▁динамик	-10.3516
▁камеры	-10.3517
%)	-10.3522
ea	-10.3528
▁занятия	-10.353
▁демократ	-10.3534
▁программу	-10.3535
свидетельств	-10.3536
▁количестве	-10.3538
▁создает	-10.3539
▁коротко	-10.3539
бек	-10.3541
ометр	-10.3542
▁тормоз	-10.3545
туры	-10.3549
▁процентов	-10.3549
▁балл	-10.355
▁смесь	-10.355
▁пространства	-10.3552
▁использоваться	-10.3554
крест	-10.3557
▁качеств	-10.3562
▁вино	-10.3564
▁отца	-10.3566
▁покрытие	-10.3572
▁жителей	-10.3573
▁обнаружил	-10.3573
▁дизайнер	-10.3575
▁заранее	-10.3575
▁второго	-10.3577
▁параметров	-10.3581
▁минерал	-10.3587
спор	-10.3594
▁пациента	-10.3595
▁принято	-10.3595
чая	-10.3596
юж	-10.3597
▁оборудован	-10.3598
летний	-10.3601
▁государство	-10.3602
▁клетки	-10.3608
▁поворот	-10.361
одно	-10.3614
анта	-10.3619
строен	-10.3619
▁чемпионат	-10.362
первых	-10.3627
▁команду	-10.3633
▁большинстве	-10.3634
▁хотят	-10.3636
▁большей	-10.3638
▁начинают	-10.3639
▁расходы	-10.3639
ллер	-10.3644
▁базы	-10.3644
этаж	-10.3647
▁инициатив	-10.3656
pu	-10.3656
очеред	-10.3656
▁завтрак	-10.3658
▁закончил	-10.3663
▁ответственности	-10.3669
▁горд	-10.3678
конференц	-10.3679
▁традиционно	-10.3682
▁друзей	-10.3684
▁коэффициент	-10.3684
▁вариантов	-10.3684
▁казалось	-10.3687
▁учреждения	-10.3688
▁этапе	-10.3689
▁легенд	-10.3691
▁инфраструктур	-10.3692
▁фин	-10.3692
▁расстояние	-10.3696
джер	-10.3696
▁промышленно	-10.37
емая	-10.3702
▁сериал	-10.3703
▁обслужива	-10.3704
▁воде	-10.3706
▁схема	-10.3708
▁храни	-10.3712
▁мебель	-10.3712
▁клеток	-10.3712
▁искать	-10.3717
▁возможностей	-10.3717
чков	-10.3722
▁нарушение	-10.3722
гро	-10.373
▁бак	-10.3735
▁шп	-10.3736
▁старт	-10.3737
out	-10.3738
исследова	-10.3741
осозна	-10.3741
современ	-10.3743
▁мозга	-10.3745
емым	-10.3745
▁аксессуар	-10.3749
▁частиц	-10.3753
▁мягко	-10.3753
пев	-10.3753
▁участка	-10.3756
▁крово	-10.3756
▁важным	-10.3758
▁массив	-10.3759
цер	-10.3765
конститу	-10.3765
▁пройти	-10.377
▁недель	-10.3771
изировать	-10.3775
▁специалисты	-10.3779
финанс	-10.3779
андр	-10.3788
▁живопис	-10.379
ичных	-10.3792
oo	-10.3793
▁заканчива	-10.3795
▁настроен	-10.38
▁типов	-10.3802
граф	-10.3804
бан	-10.3806
симптом	-10.3806
▁индекс	-10.3811
нят	-10.3811
▁детям	-10.3817
▁реформ	-10.3818
▁азербайджан	-10.3818
▁процессор	-10.3818
▁·	-10.3821
производ	-10.3824
▁видом	-10.3826
▁развитию	-10.3832
редакт	-10.3836
▁следующем	-10.3839
предупрежд	-10.384
ощущ	-10.3845
▁данная	-10.3847
▁гостиниц	-10.385
▁одежды	-10.3851
▁операций	-10.3852
▁повышения	-10.3856
▁словами	-10.3857
ставлять	-10.3864
▁разработчик	-10.3867
▁вашу	-10.3874
▁отказ	-10.3874
▁названием	-10.3875
▁внедрен	-10.3875
▁образован	-10.3883
▁основная	-10.3888
▁современных	-10.3892
вшийся	-10.3892
▁крупных	-10.3893
▁вызван	-10.3894
▁общество	-10.3897
▁получение	-10.3899
▁миг	-10.3899
ep	-10.3906
▁откуда	-10.3908
▁юг	-10.3908
▁проще	-10.3908
▁отличи	-10.3909
▁похожи	-10.3909
▁жидкости	-10.3912
иммун	-10.3919
▁множеств	-10.3923
зия	-10.3923
▁предприятий	-10.3924
гель	-10.3925
▁сертификат	-10.3927
▁проводят	-10.393
▁чувства	-10.3933
▁флаг	-10.3935
▁частей	-10.3938
механ	-10.394
▁способности	-10.394
цом	-10.3941
▁характеризу	-10.3942
▁древне	-10.3945
▁словно	-10.3947
▁реакции	-10.3952
▁бумаги	-10.3957
▁наоборот	-10.3957
▁приступ	-10.3958
вле	-10.3962
▁мероприятий	-10.397
▁коже	-10.3976
государственного	-10.3979
человеч	-10.3987
иваются	-10.3991
дук	-10.3993
▁кир	-10.4005
▁пишет	-10.4009
▁запрет	-10.402
▁музей	-10.4024
▁общий	-10.4028
▁листья	-10.4029
cu	-10.4034
▁америка	-10.4036
▁среднем	-10.4038
▁размеры	-10.404
вшей	-10.4042
▁прожив	-10.4044
▁определяется	-10.4045
ордин	-10.4047
▁//	-10.4048
▁представить	-10.4055
▁социальной	-10.4055
код	-10.406
▁разрешение	-10.4069
▁кабинет	-10.407
авто	-10.4071
air	-10.4076
очкой	-10.4078
категор	-10.4084
▁участву	-10.4085
▁слабо	-10.4085
▁однажды	-10.4089
▁пластин	-10.4094
▁модуль	-10.4094
▁ежедневно	-10.4098
никами	-10.4099
▁мощности	-10.4099
зар	-10.41
▁направление	-10.4103
христ	-10.4108
очным	-10.4112
▁рисунок	-10.4114
▁мл	-10.412
▁ленин	-10.4124
ster	-10.4139
▁млрд	-10.414
▁выясни	-10.4141
▁представляют	-10.4143
человечески	-10.415
▁шести	-10.415
▁слух	-10.4151
▁выполнение	-10.4152
▁становятся	-10.4154
▁сообщает	-10.4154
▁премьер	-10.4155
▁иисус	-10.4156
app	-10.4169
ight	-10.4174
▁атом	-10.4183
▁руко	-10.4186
▁проведение	-10.4189
▁строго	-10.4191
информ	-10.4193
клиник	-10.4193
▁современные	-10.4195
▁сверху	-10.4196
gu	-10.4197
презент	-10.4197
▁другую	-10.4197
ответ	-10.4198
▁удалить	-10.4199
▁утром	-10.4201
▁палат	-10.4203
чил	-10.4203
▁никакого	-10.4206
▁удаля	-10.4209
▁растение	-10.4214
энд	-10.4215
▁напряжения	-10.4217
анна	-10.422
▁шкаф	-10.4221
▁эд	-10.4225
▁знаний	-10.4226
▁детьми	-10.4229
▁столб	-10.4233
▁стадии	-10.4235
▁опубликован	-10.4235
▁осмотр	-10.4235
бег	-10.4238
▁международных	-10.4241
▁точка	-10.4241
▁знают	-10.4243
▁кнопки	-10.4246
▁разрушен	-10.4246
▁продажи	-10.4247
потреб	-10.4249
▁увеличи	-10.4253
▁каждому	-10.4253
▁концов	-10.4254
гал	-10.4259
▁взят	-10.4267
▁подключен	-10.4268
▁исключением	-10.4269
▁методов	-10.4275
дева	-10.4276
▁организован	-10.4285
чики	-10.4285
сид	-10.4288
mb	-10.4288
▁найден	-10.4302
▁рекомендации	-10.4302
▁вырос	-10.4305
▁ситуацию	-10.4314
www	-10.4314
▁назначения	-10.4317
▁смысле	-10.432
▁предложил	-10.4321
ee	-10.4324
▁заверши	-10.4327
▁сумму	-10.4335
▁природа	-10.4336
▁париж	-10.4339
▁оружия	-10.434
нув	-10.434
▁android	-10.4341
▁портрет	-10.4347
▁возвращен	-10.435
▁закрыв	-10.435
▁содержат	-10.435
▁ограничения	-10.4352
▁понят	-10.4353
▁проводится	-10.4355
▁последних	-10.4358
обяз	-10.4358
▁любых	-10.4361
▁деталь	-10.4361
▁обуча	-10.4366
▁осуществления	-10.4367
трансформ	-10.4374
ляция	-10.4376
▁выража	-10.4381
▁слой	-10.4384
▁февраля	-10.4384
рабат	-10.4385
сторож	-10.4386
▁представление	-10.4391
▁позволил	-10.4392
▁перемещен	-10.4392
▁приобретен	-10.4395
▁печати	-10.4395
▁экологи	-10.4399
▁методик	-10.4399
▁странице	-10.4402
▁практике	-10.4402
здоров	-10.4407
▁заявление	-10.4407
▁разрешения	-10.4412
▁мониторинг	-10.4412
▁применяется	-10.4413
▁пользоваться	-10.4415
интегр	-10.4416
тех	-10.4417
▁больных	-10.4426
▁делал	-10.4431
▁души	-10.4436
▁приложений	-10.4436
▁аналоги	-10.4437
именова	-10.4445
критик	-10.4447
▁пропуск	-10.4448
▁контекст	-10.4448
▁вынужден	-10.4454
▁специальные	-10.4455
корпоратив	-10.4457
▁устранен	-10.4459
▁семен	-10.4459
▁примечание	-10.4461
▁плоско	-10.4463
▁указывает	-10.4471
▁головы	-10.4479
▁тонн	-10.4486
▁инструментов	-10.4487
академ	-10.4488
ствия	-10.4489
таль	-10.449
▁отличный	-10.4492
стям	-10.4493
▁качественно	-10.4494
▁контейнер	-10.4494
ai	-10.45
▁одежда	-10.4504
▁работников	-10.4511
▁воспринима	-10.4513
ct	-10.4517
▁сверх	-10.4519
▁хорошее	-10.4521
▁аудио	-10.4522
▁пить	-10.4524
▁внутренних	-10.4528
▁продолжает	-10.4531
▁ветер	-10.4533
▁франции	-10.4535
влечь	-10.4537
▁ночью	-10.4537
▁мяс	-10.4538
tu	-10.454
▁похож	-10.4549
▁многим	-10.4554
▁спутник	-10.4557
▁представления	-10.4562
▁лазер	-10.4563
▁пришел	-10.4564
▁внешний	-10.4566
▁тренер	-10.4568
▁обновления	-10.4572
нинг	-10.4577
▁массаж	-10.4581
▁слышал	-10.4583
▁норматив	-10.4584
▁панель	-10.4587
sm	-10.4589
▁кадр	-10.4591
▁страницы	-10.4593
▁понимает	-10.4595
▁изолирован	-10.4599
▁топлива	-10.4601
▁моделей	-10.4606
систем	-10.461
▁вещей	-10.4612
▁основания	-10.4613
▁грунт	-10.4615
▁турнир	-10.4615
нижне	-10.4615
жден	-10.4618
▁зл	-10.4623
▁тысячи	-10.4623
▁протест	-10.4628
▁оказывается	-10.4629
▁вдох	-10.4632
▁украшен	-10.4639
▁прошлого	-10.4641
▁улучша	-10.4643
священ	-10.4647
▁page	-10.4649
▁оказался	-10.4652
▁способствует	-10.4656
▁машину	-10.4662
©	-10.4664
▁предусматрива	-10.4664
▁логотип	-10.4664
▁международного	-10.4665
▁идеал	-10.4665
▁парков	-10.4666
▁поведения	-10.4666
▁хорошие	-10.4666
▁отдых	-10.4667
▁уголовно	-10.4668
▁другая	-10.467
▁дерева	-10.4676
▁инструменты	-10.468
▁психо	-10.4682
чиков	-10.4683
▁подключения	-10.4684
▁профессор	-10.4689
▁требуют	-10.4694
▁белом	-10.4694
▁требований	-10.4696
▁поднял	-10.4697
▁вечером	-10.4698
▁развед	-10.4699
▁черн	-10.47
ходящих	-10.4704
nc	-10.4705
▁взрослых	-10.4705
орган	-10.4711
▁кип	-10.4711
▁здравоохранения	-10.4713
«	-10.4718
▁дополнительных	-10.4719
ируя	-10.4719
▁маркетинг	-10.472
тамож	-10.4725
бежал	-10.4726
▁загрязнен	-10.4733
били	-10.4737
▁хорошая	-10.4744
▁стресс	-10.4745
▁положении	-10.4745
▁конструкция	-10.4749
▁центральной	-10.4751
ированию	-10.4758
▁отражен	-10.476
ствие	-10.4763
▁гост	-10.4766
▁средней	-10.4773
даёт	-10.4773
▁десять	-10.4792
ическому	-10.4792
▁беремен	-10.4795
▁внимательно	-10.4795
▁дмитр	-10.4796
▁юн	-10.4797
чай	-10.4799
▁настоящего	-10.48
ываются	-10.48
▁имеются	-10.4802
▁удержива	-10.4803
▁подъем	-10.4804
▁диет	-10.4807
следовал	-10.4808
log	-10.4808
▁компакт	-10.4811
▁подобные	-10.4811
▁газо	-10.4814
▁супруг	-10.4816
▁студентов	-10.482
▁огромное	-10.4822
▁песни	-10.4822
▁сотрудники	-10.4823
▁старше	-10.4823
индустри	-10.4827
▁вовсе	-10.483
▁нагрева	-10.4831
▁приобрести	-10.4833
▁честно	-10.4833
пух	-10.4834
лями	-10.4836
москв	-10.4838
▁отношению	-10.4842
щин	-10.4843
получи	-10.4846
’	-10.4848
▁арест	-10.4848
▁изделий	-10.4852
ite	-10.4858
▁лак	-10.486
компан	-10.486
▁функцию	-10.4861
▁группу	-10.4866
▁охват	-10.4866
▁моих	-10.4866
[	-10.4868
▁дальнейшем	-10.4883
▁светодиод	-10.4883
достопримечатель	-10.4896
▁разрешен	-10.4896
▁отели	-10.4903
ers	-10.4904
▁оперативно	-10.4904
▁интервью	-10.4904
▁частично	-10.4905
фран	-10.4906
▁местных	-10.4907
муниципал	-10.4909
▁помещ	-10.4909
▁подарок	-10.4912
▁ребята	-10.4913
▁объекты	-10.4916
▁законодатель	-10.4918
▁влияет	-10.4923
станция	-10.4924
▁темп	-10.4926
▁плох	-10.4931
▁некоторое	-10.4931
рач	-10.4934
▁добавил	-10.4942
▁приходит	-10.4945
глад	-10.4946
усь	-10.4946
▁универсал	-10.4948
line	-10.4948
▁среднего	-10.4949
ak	-10.4953
▁широкий	-10.4956
▁хватает	-10.4958
▁втором	-10.4961
фан	-10.4968
▁представители	-10.4969
ang	-10.497
ственные	-10.4971
мел	-10.4974
электрон	-10.4976
▁болезнь	-10.4979
▁встречи	-10.498
▁эфир	-10.4983
физик	-10.4987
▁связыва	-10.4991
rl	-10.4998
by	-10.4999
▁воин	-10.4999
▁определяет	-10.4999
▁голод	-10.4999
▁рай	-10.5002
▁осталось	-10.5003
▁показатели	-10.5005
лизован	-10.5006
▁компонентов	-10.5006
▁смогут	-10.5012
чист	-10.5013
▁источников	-10.5014
▁одному	-10.5021
▁борьбы	-10.5021
▁мудр	-10.5022
▁вторая	-10.5028
▁защита	-10.5032
без	-10.5032
▁тракт	-10.5035
▁увеличить	-10.5036
лицей	-10.5036
ированной	-10.5037
▁рабочего	-10.504
▁думает	-10.5041
ser	-10.5047
▁отправить	-10.5048
▁азии	-10.505
▁теории	-10.5058
ace	-10.5059
▁обратиться	-10.506
берг	-10.5062
end	-10.5065
▁завтра	-10.5069
шеб	-10.5079
▁бесед	-10.5087
cc	-10.5088
▁конкурент	-10.5098
▁первоначально	-10.5098
▁монет	-10.5104
▁обрабатыва	-10.5106
▁настоящий	-10.5106
▁упомина	-10.5107
▁безопасно	-10.511
▁император	-10.5118
▁новости	-10.5119
▁дым	-10.5125
▁ядер	-10.5126
▁верхней	-10.5134
▁длина	-10.5135
▁третий	-10.5136
▁край	-10.5136
хождение	-10.5136
▁торговли	-10.5148
▁вашему	-10.5151
▁газов	-10.5156
рацион	-10.5157
sta	-10.5163
▁зарегистрирован	-10.5164
▁среде	-10.5165
цид	-10.5167
▁получите	-10.5173
play	-10.5175
▁депутат	-10.5176
▁производится	-10.5177
▁сегмент	-10.5177
▁товарищ	-10.5178
▁появление	-10.5179
▁прибыль	-10.5181
▁книгу	-10.5181
▁мертв	-10.5182
▁архив	-10.5188
▁ограничива	-10.5197
▁справедливо	-10.5205
▁собственности	-10.5206
▁фундамент	-10.5208
▁километр	-10.5211
международн	-10.5211
▁аэро	-10.5218
▁правительств	-10.522
▁поставлен	-10.5222
▁учебно	-10.5222
▁вершин	-10.5223
нарушен	-10.5224
▁дю	-10.5233
▁отвечает	-10.5236
хон	-10.5241
▁карман	-10.5241
▁война	-10.5248
▁близко	-10.5252
act	-10.5257
квартир	-10.5264
▁спортсмен	-10.527
▁границы	-10.5272
▁австрали	-10.5273
▁компанией	-10.5273
▁беременности	-10.5282
▁чемпион	-10.5284
ившись	-10.5285
▁привлечен	-10.5288
my	-10.5304
cs	-10.5305
▁твердо	-10.5309
▁оплаты	-10.531
▁охлажден	-10.5311
▁неправильно	-10.5316
▁подверга	-10.5316
ориент	-10.5318
▁крым	-10.5322
▁участия	-10.5323
▁показано	-10.5325
▁назвал	-10.5325
▁общая	-10.5327
▁речи	-10.533
▁модерн	-10.533
блест	-10.5333
mon	-10.5334
▁достоинств	-10.5338
▁парламент	-10.5344
пишу	-10.5347
флор	-10.535
▁каждое	-10.5353
▁главной	-10.5355
▁импульс	-10.5356
▁мысль	-10.536
▁информационно	-10.5365
▁предлагают	-10.5367
▁различными	-10.5367
бат	-10.5379
▁парень	-10.5381
рассчитыва	-10.5384
her	-10.5385
▁единственный	-10.5387
▁дочь	-10.539
чар	-10.5391
▁ощущение	-10.5394
▁мясо	-10.5396
▁планирует	-10.5397
ывания	-10.5398
▁контент	-10.5399
▁чрезвычайно	-10.5399
▁фраз	-10.5404
импер	-10.5404
▁буквально	-10.5405
безопас	-10.5406
▁ликвид	-10.5406
шир	-10.541
▁раду	-10.5413
tal	-10.5414
▁каш	-10.5414
больше	-10.5417
▁ассоци	-10.5418
▁высокие	-10.542
▁появились	-10.542
▁комиссии	-10.5421
▁английский	-10.5428
▁запрещен	-10.5429
вард	-10.5439
▁вчера	-10.5439
▁случайно	-10.544
служил	-10.5441
▁будущее	-10.5442
▁честь	-10.5442
ография	-10.5443
▁слоя	-10.5446
пишите	-10.5446
▁еже	-10.5447
ev	-10.5454
▁средне	-10.5454
▁испытания	-10.5455
▁маленький	-10.5463
▁способны	-10.5464
▁пейзаж	-10.5469
▁москва	-10.5473
▁заполнен	-10.5477
▁стратегическ	-10.548
▁воспользоваться	-10.5481
▁солнца	-10.5481
▁науки	-10.5481
▁судебно	-10.5482
▁желаю	-10.5483
▁серьезно	-10.5483
▁красивые	-10.5493
▁познакоми	-10.5495
▁гам	-10.5497
▁старый	-10.5499
▁щел	-10.5503
▁отеле	-10.5508
▁блюда	-10.551
▁вероятность	-10.5512
▁заинтересован	-10.5518
▁кодекс	-10.5519
рошен	-10.5519
▁расположение	-10.552
хождения	-10.5521
▁офицер	-10.5524
▁показатель	-10.5526
▁ящик	-10.5533
ющейся	-10.5536
▁жалоб	-10.5536
▁твои	-10.5538
функцио	-10.5539
▁родственник	-10.5539
емое	-10.5539
тическая	-10.554
професси	-10.554
▁добиться	-10.554
ичным	-10.5542
▁государственных	-10.5543
▁девочка	-10.5545
▁ждать	-10.5547
▁содержания	-10.555
▁microsoft	-10.5554
клар	-10.5557
▁актрис	-10.556
▁национальной	-10.5567
европейски	-10.557
▁сотрудничества	-10.5576
лён	-10.5577
▁большинства	-10.5579
экс	-10.558
област	-10.5583
▁поддержан	-10.5585
▁попробовать	-10.5586
▁возле	-10.5586
эш	-10.5586
▁собственной	-10.5589
▁огонь	-10.5591
▁сергей	-10.5594
▁перечислен	-10.5595
реал	-10.5596
▁соответствующие	-10.5597
▁следующее	-10.5597
▁ткань	-10.5602
хлад	-10.5605
▁борт	-10.5605
▁собрал	-10.5611
▁визит	-10.5617
▁сегодняшний	-10.5622
▁поддерживать	-10.5625
▁чудес	-10.5626
▁закуп	-10.5627
▁служа	-10.563
▁взаимодействия	-10.5634
▁участники	-10.5635
▁лучшим	-10.5635
ителю	-10.5638
▁сталь	-10.564
▁немедленно	-10.5641
iz	-10.5648
▁держит	-10.5652
▁поколения	-10.5652
имость	-10.5655
ist	-10.5656
▁обозначен	-10.5658
▁современной	-10.5659
▁внутренней	-10.566
▁алгоритм	-10.5661
▁курорт	-10.5662
▁встретил	-10.5669
▁управлять	-10.5669
повседнев	-10.5676
▁уважа	-10.5681
▁занял	-10.5688
миллион	-10.5688
▁груб	-10.5688
▁череп	-10.5691
▁ущерб	-10.5691
▁неудач	-10.5692
▁никакой	-10.5693
▁использу	-10.5695
▁действует	-10.5695
▁цилиндр	-10.5696
▁выбрал	-10.57
mer	-10.5703
шифр	-10.5705
▁камен	-10.5709
страш	-10.5709
▁гормон	-10.5711
><	-10.5712
▁ассортимент	-10.5715
▁вижу	-10.5726
слыша	-10.5728
▁мороз	-10.5736
▁отличаются	-10.5739
▁кислород	-10.574
▁выходит	-10.5744
тира	-10.5745
▁потери	-10.5746
▁оставил	-10.5747
▁изначально	-10.5749
▁говорится	-10.5749
▁иностранных	-10.575
▁пищи	-10.5751
фрукт	-10.5755
представ	-10.5757
▁сути	-10.576
▁противоречи	-10.5766
▁международной	-10.5767
конфигур	-10.5771
▁касс	-10.5776
▁нагрузки	-10.5777
огранич	-10.5777
ls	-10.5779
▁появилась	-10.578
▁инвестор	-10.5782
алкогол	-10.5782
азиат	-10.5783
▁восстановления	-10.5788
▁расходов	-10.5791
эффект	-10.5795
che	-10.5802
относи	-10.581
▁разрабатыва	-10.5813
водится	-10.5813
▁ежегодно	-10.5813
зрел	-10.5814
▁понятие	-10.5816
▁идеальны	-10.5819
▁данное	-10.582
практ	-10.5822
▁превраща	-10.5822
ификация	-10.5823
▁зеленый	-10.5826
▁отдельные	-10.5828
▁смеси	-10.5829
▁бетон	-10.583
nu	-10.5832
мад	-10.5834
▁оказыва	-10.5834
▁текстур	-10.5835
▁пк	-10.5835
▁доставка	-10.5836
▁легче	-10.584
▁москвы	-10.5851
jo	-10.5852
▁операция	-10.5852
книж	-10.5861
▁живет	-10.5866
секретар	-10.5867
ходящие	-10.5868
▁некоторым	-10.5869
формирова	-10.5871
▁перевозк	-10.5876
▁немало	-10.5877
▁лестниц	-10.5877
▁учитывать	-10.588
▁жестко	-10.5884
▁согласован	-10.5884
ировку	-10.5886
▁молодых	-10.5887
групп	-10.5887
тянул	-10.5887
▁вызвать	-10.589
▁собор	-10.5891
▁нашли	-10.5893
гуля	-10.5897
▁северной	-10.5907
▁окончательно	-10.5909
▁представителей	-10.5911
▁обоих	-10.5911
монастыр	-10.5917
▁избран	-10.5919
▁письма	-10.5924
вторых	-10.5938
▁насыщен	-10.5938
▁назвать	-10.5939
▁деталей	-10.5941
▁допустим	-10.5943
▁нескольким	-10.5949
▁мою	-10.595
▁сустав	-10.5958
электр	-10.5959
▁соединение	-10.5961
▁шут	-10.5961
кладки	-10.5974
ографии	-10.5975
▁разъем	-10.5977
▁приехал	-10.598
▁борьбе	-10.598
следовать	-10.5981
▁обусловлен	-10.5982
▁подробнее	-10.5985
жир	-10.5986
бумаж	-10.5987
▁обеспечивают	-10.5989
▁громко	-10.5993
бед	-10.5994
ешься	-10.6003
▁гроз	-10.6004
▁понимать	-10.6005
▁отрасли	-10.6005
▁вследствие	-10.6013
▁назнача	-10.6019
ron	-10.602
▁позитив	-10.6023
▁исходя	-10.6032
▁думать	-10.6036
▁напряжен	-10.6039
▁оставить	-10.604
▁груд	-10.6046
▁южной	-10.6048
min	-10.6049
▁туалет	-10.6059
язы	-10.6061
▁дороге	-10.6061
▁днем	-10.6067
риф	-10.6069
▁посмотрел	-10.6072
▁слегка	-10.6073
▁ослаб	-10.6077
▁северо	-10.6081
меди	-10.6081
ii	-10.6088
▁каждую	-10.6092
работки	-10.6093
строил	-10.6096
)))	-10.6096
▁исправлен	-10.6098
культур	-10.6101
▁араб	-10.6107
▁скот	-10.6109
густ	-10.6112
▁командир	-10.6112
▁метро	-10.6118
▁торжеств	-10.6118
▁специфич	-10.6119
▁защиту	-10.6121
▁рейс	-10.6128
▁появился	-10.6131
▁асс	-10.6134
устройств	-10.6139
▁квартиры	-10.6139
▁страница	-10.6141
▁привык	-10.6141
▁холодильник	-10.6143
резан	-10.6144
▁iphone	-10.615
▁обновлен	-10.6164
▁отслежива	-10.617
lt	-10.6172
▁обита	-10.6178
▁преобразован	-10.6178
продукт	-10.6179
▁лав	-10.6182
▁купил	-10.6191
ult	-10.6195
▁эксплуата	-10.6199
▁освобожден	-10.6199
▁рукой	-10.62
▁режиссер	-10.6208
банк	-10.621
▁пришли	-10.6215
▁хуже	-10.6216
интерес	-10.6219
наслажда	-10.6222
▁головой	-10.6226
▁божеств	-10.6227
▁достигнут	-10.6233
▁артист	-10.6234
▁красивая	-10.6235
▁рабочий	-10.6239
▁формиру	-10.6245
раста	-10.6252
▁штраф	-10.6256
▁адвокат	-10.6258
▁страшно	-10.6258
переключа	-10.6259
▁эпизод	-10.6261
тензи	-10.6263
водят	-10.6264
▁считаю	-10.627
▁неожиданно	-10.6278
▁знаем	-10.6279
серебр	-10.6284
▁стру	-10.6285
▁глазами	-10.6285
▁китае	-10.6296
▁миф	-10.6298
▁кухня	-10.6298
▁главе	-10.6303
▁покупки	-10.6306
чан	-10.6312
крут	-10.6317
▁известный	-10.6319
▁родился	-10.6321
▁лежит	-10.6322
▁дина	-10.6326
▁предприятие	-10.6327
▁кольцо	-10.6329
▁санкт	-10.6332
mail	-10.6334
▁полиции	-10.6337
▁шоколад	-10.6337
▁участок	-10.634
▁появится	-10.6342
▁понятия	-10.6343
▁сталкива	-10.6349
плет	-10.635
▁республика	-10.6356
uc	-10.6362
лаб	-10.6363
▁иллюстрация	-10.6364
▁событие	-10.6365
▁хвост	-10.6372
▁болт	-10.6373
популярно	-10.6374
динг	-10.6374
▁разработка	-10.6375
закон	-10.6379
▁призыв	-10.6379
▁останавлива	-10.6381
▁контроллер	-10.6382
▁рекомендую	-10.6383
▁сложности	-10.6388
і	-10.6391
пузыр	-10.6398
▁ислам	-10.6399
▁хорошим	-10.64
sl	-10.64
▁дур	-10.6403
время	-10.6409
ash	-10.641
▁инструкции	-10.641
▁джин	-10.6411
▁активность	-10.6411
▁блог	-10.6412
▁удивительно	-10.6413
▁продолжен	-10.6416
▁помогут	-10.6419
▁прекрати	-10.6426
когда	-10.6435
▁мэр	-10.6436
▁михаил	-10.6439
▁общие	-10.6439
▁украшения	-10.644
▁радость	-10.6443
плазм	-10.6443
▁произведения	-10.6446
▁активности	-10.6449
▁контр	-10.6452
▁акции	-10.6454
▁отключен	-10.6455
▁окончания	-10.6456
▁принятия	-10.6456
▁понимание	-10.6458
▁разрыв	-10.6468
▁национально	-10.647
▁сутки	-10.6474
▁жители	-10.6474
▁грех	-10.6482
▁учитывая	-10.6483
падают	-10.6488
греб	-10.6493
▁равны	-10.6495
▁стратегии	-10.6496
▁формирования	-10.6496
▁джу	-10.6501
▁mac	-10.6507
зарубеж	-10.6508
звезд	-10.6515
▁молча	-10.6516
помога	-10.6517
▁принтер	-10.6524
сечен	-10.6528
▁подвес	-10.6531
▁груди	-10.6531
обща	-10.6533
▁хозяин	-10.654
▁симптомы	-10.654
анализ	-10.6541
▁списка	-10.6541
▁стоят	-10.6543
▁займ	-10.6543
▁природе	-10.6543
ya	-10.6545
▁простор	-10.6546
▁исследован	-10.6551
▁пошли	-10.6551
ze	-10.6554
нвестицион	-10.6555
миллиард	-10.6559
ганд	-10.656
фабрик	-10.6565
лёт	-10.6567
▁стоковое	-10.6574
▁живут	-10.6575
гат	-10.6585
▁кратко	-10.6587
▁приготовления	-10.6592
▁ошибок	-10.6593
▁подобных	-10.6593
▁осторожно	-10.6596
▁главных	-10.6602
▁тариф	-10.6605
▁высоких	-10.6606
▁известных	-10.6606
медвед	-10.661
гнут	-10.6611
▁обман	-10.6618
▁соответствующих	-10.662
▁стихи	-10.6621
▁кондиционер	-10.6623
▁впечатление	-10.6623
моему	-10.6625
прыг	-10.6629
▁употребля	-10.6631
▁влияния	-10.6636
резать	-10.6638
▁заявлен	-10.6642
▁создании	-10.6643
▁улучшения	-10.6644
▁вещь	-10.6644
▁мусор	-10.6647
▁нижней	-10.6649
▁объявил	-10.6653
▁выйти	-10.6659
▁ноутбук	-10.6661
▁достигает	-10.6668
▁скрыва	-10.667
▁изучен	-10.6673
▁исполня	-10.6674
чеч	-10.6676
▁apple	-10.6681
▁красивый	-10.6681
▁рабочей	-10.6684
hy	-10.6693
▁творчески	-10.67
“	-10.6703
▁уничтожен	-10.6704
▁капитан	-10.6706
ide	-10.6706
▁получал	-10.671
хватил	-10.6712
▁герои	-10.6713
▁улица	-10.6713
ast	-10.6715
▁середине	-10.6716
▁музыки	-10.6717
▁хром	-10.6718
скорб	-10.6719
▁камень	-10.672
▁бывают	-10.6722
клавиатур	-10.6724
доступ	-10.6727
▁укреплен	-10.6728
▁ориентир	-10.6734
▁синий	-10.6734
▁интервал	-10.6738
▁мяч	-10.6738
▁экземпляр	-10.6744
mm	-10.6744
▁градусов	-10.6745
▁могло	-10.6749
▁звер	-10.6761
▁деревья	-10.6774
▁робот	-10.678
ряжен	-10.678
ib	-10.6781
▁ствол	-10.6788
▁отмечен	-10.6792
▁объединя	-10.6793
▁кухни	-10.6795
календар	-10.6802
▁обладают	-10.6802
▁тату	-10.6806
▁личных	-10.6807
▁важных	-10.6813
▁изготовления	-10.6814
▁глуп	-10.6817
проект	-10.6818
pc	-10.682
▁главного	-10.6824
▁сидел	-10.6825
ринг	-10.6827
▁говорю	-10.6828
▁стул	-10.6829
оскоп	-10.6831
▁молоко	-10.6832
страниц	-10.684
▁паспорт	-10.684
▁разница	-10.6844
▁лицензии	-10.6848
tic	-10.6854
&	-10.6861
▁российских	-10.6864
pro	-10.6867
▁тобой	-10.6871
▁убедитесь	-10.6871
les	-10.6874
▁составлен	-10.6879
ставке	-10.6879
▁положительно	-10.6884
▁объяснен	-10.6885
▁флот	-10.6888
▁повыша	-10.6896
▁аргумент	-10.6905
▁названия	-10.6906
▁любую	-10.6911
гармон	-10.6914
▁японии	-10.6917
▁редактор	-10.6918
▁специальных	-10.6919
▁иллюстрации	-10.6919
▁немецко	-10.6921
▁контур	-10.6921
▁светло	-10.6928
ступать	-10.6931
снеж	-10.6935
▁пользователи	-10.6936
▁развитии	-10.6942
живание	-10.6944
▁квартал	-10.6947
эп	-10.6947
▁выращива	-10.6951
▁соглашения	-10.6952
ind	-10.6953
вред	-10.6954
▁защищен	-10.6955
▁фокус	-10.6956
▁вызвал	-10.6957
▁подумал	-10.6958
▁население	-10.6961
▁безусловно	-10.6962
▁целый	-10.6962
▁кнопка	-10.6964
▁доставки	-10.6965
восточной	-10.6969
▁загрузки	-10.697
▁имена	-10.6972
▁зачастую	-10.698
▁стакан	-10.6985
▁рассказывает	-10.6985
▁очевид	-10.6986
▁оказались	-10.6989
▁домашних	-10.6991
▁одинаковы	-10.6993
eg	-10.6995
▁ингредиент	-10.6997
▁заменить	-10.6998
▁ангел	-10.6999
▁наблюдается	-10.6999
▁проверка	-10.7003
поглощ	-10.7003
„	-10.7004
▁полимер	-10.7006
▁посмотрите	-10.7006
▁кадров	-10.7009
ance	-10.7013
существ	-10.7019
▁конференции	-10.7019
▁кирпич	-10.702
ализации	-10.7021
▁визуал	-10.7022
▁чувствует	-10.7024
▁прибыли	-10.7026
▁синхрон	-10.7031
▁едва	-10.7043
▁информацией	-10.7044
▁потребности	-10.7044
▁появляются	-10.7045
▁франц	-10.7048
▁убежден	-10.7052
$	-10.7056
▁нефте	-10.7058
▁свадеб	-10.7058
tri	-10.706
▁китая	-10.7063
▁экологически	-10.7063
предотвращ	-10.7069
▁непрерывно	-10.7069
▁внутреннего	-10.7069
▁драйвер	-10.7073
▁браузер	-10.7073
▁нейро	-10.7077
▁функционал	-10.7078
▁проверьте	-10.7079
▁глобально	-10.7087
▁подписан	-10.7087
оксид	-10.7089
▁нарко	-10.7091
▁вечно	-10.7098
остат	-10.7104
▁специализирован	-10.7104
▁цирк	-10.7109
▁рассмотрим	-10.7109
карди	-10.7115
▁алле	-10.7116
▁напротив	-10.7124
▁остаются	-10.7139
нович	-10.714
set	-10.7143
▁гипо	-10.7144
~	-10.716
▁швейцар	-10.7164
хозяй	-10.7166
доброволь	-10.7168
оратор	-10.7174
стрель	-10.7176
надзор	-10.7177
ирующие	-10.7179
▁упражнения	-10.7182
ana	-10.7182
кож	-10.7184
▁способен	-10.7185
адрес	-10.7186
▁руководитель	-10.7187
▁шест	-10.7192
▁ожидания	-10.7195
магистр	-10.7199
▁зарплат	-10.7203
▁монитор	-10.7204
▁собственные	-10.7204
▁снижа	-10.7205
▁любят	-10.7209
тельность	-10.7213
▁трасс	-10.7214
▁синтез	-10.7219
▁производителя	-10.7223
▁явление	-10.7224
▁приготовлен	-10.7228
▁белорус	-10.7234
▁достичь	-10.7234
инфекции	-10.7243
▁обувь	-10.7245
▁увеличения	-10.7245
▁помогают	-10.7247
▁кук	-10.725
▁дефект	-10.7254
настоящему	-10.7254
▁техника	-10.7257
▁проходил	-10.726
▁большом	-10.7262
▁воспроизведен	-10.7269
▁степ	-10.727
▁имеющих	-10.727
▁впоследствии	-10.7271
адекват	-10.7271
ica	-10.7272
▁высокую	-10.7273
пенсион	-10.7273
▁бухгалтер	-10.7276
▁каст	-10.7278
▁еврей	-10.7281
▁семи	-10.7281
▁обоснован	-10.7281
▁идут	-10.7282
труд	-10.7287
▁синдром	-10.7297
отеч	-10.7299
▁национального	-10.7301
▁уплотн	-10.7306
▁геометр	-10.7307
▁повреждения	-10.7309
▁формирование	-10.7309
▁центрально	-10.7312
ирующих	-10.7324
▁ученые	-10.7326
▁включить	-10.7331
▁метра	-10.7334
▁выбирать	-10.7334
матри	-10.7335
▁недвижимости	-10.7336
вибр	-10.7338
free	-10.7341
▁покров	-10.7343
▁каждым	-10.7345
▁xx	-10.7346
nn	-10.7349
▁остальных	-10.7352
▁фрагмент	-10.7358
▁par	-10.736
ческих	-10.7363
бесплатн	-10.7363
ностями	-10.7363
▁расширя	-10.7366
долгосрочн	-10.7366
▁приблизительно	-10.7368
▁будучи	-10.7376
sql	-10.7379
▁установите	-10.7379
люкс	-10.738
▁минимально	-10.7389
▁присоедини	-10.739
▁небольшие	-10.7394
ja	-10.7398
▁преимущество	-10.74
▁занимается	-10.7401
▁отказыва	-10.7417
▁везде	-10.7417
▁чувствовал	-10.7417
вшейся	-10.742
▁рукав	-10.7422
▁минус	-10.7423
▁диван	-10.7423
▁украина	-10.7435
▁приняты	-10.7437
абстрактн	-10.7437
▁среду	-10.7444
▁успел	-10.7444
▁смогли	-10.7445
▁финансовых	-10.7449
ick	-10.7451
▁уникально	-10.7451
lan	-10.7455
▁героя	-10.7465
▁контролировать	-10.7467
▁отвечаю	-10.7469
the	-10.7471
иллюстр	-10.7473
▁колеба	-10.7475
ывание	-10.7478
▁суп	-10.7479
▁городской	-10.748
▁технологически	-10.748
волокн	-10.7481
▁путин	-10.7486
▁председатель	-10.7488
▁крестьян	-10.7489
▁посетите	-10.7491
ian	-10.7494
▁схемы	-10.7494
▁макро	-10.7496
▁хочешь	-10.7496
чища	-10.7503
▁представил	-10.7503
▁получится	-10.7506
▁исполнения	-10.751
прозрачно	-10.7511
▁южно	-10.7519
▁стекла	-10.7519
▁чувствую	-10.752
▁максимум	-10.7523
оператив	-10.7524
▁великобритании	-10.7524
марк	-10.7529
▁заболевание	-10.753
▁рекомендуем	-10.753
▁популярность	-10.7531
▁mar	-10.7532
▁помню	-10.7532
▁возникновения	-10.7532
▁приглашен	-10.7536
▁нейтрал	-10.7538
▁будущего	-10.754
pt	-10.7541
▁последнего	-10.7549
▁начнет	-10.7549
▁сенсор	-10.7555
inter	-10.7557
▁суммы	-10.7561
▁общин	-10.7561
контрол	-10.7564
неприят	-10.7569
▁общения	-10.7572
регулирован	-10.7579
▁удивлен	-10.7579
виртуал	-10.7583
ходящий	-10.7584
▁современный	-10.7589
зелен	-10.7593
▁потребуется	-10.7595
▁предоставить	-10.7598
▁собственный	-10.7603
▁финал	-10.7608
▁представителя	-10.7612
▁таблице	-10.7612
▁стиля	-10.7615
▁семинар	-10.7618
▁помощник	-10.7619
▁жанр	-10.762
▁следствие	-10.7624
▁подготовлен	-10.7625
пряж	-10.7633
терапевт	-10.7635
▁отсюда	-10.7639
▁август	-10.7643
▁заметно	-10.7648
time	-10.7649
▁модуля	-10.765
▁находиться	-10.7652
▁практики	-10.7655
штейн	-10.7663
▁учителя	-10.7664
ton	-10.7664
tch	-10.7666
▁вмешательств	-10.7666
▁вручную	-10.7672
▁вентилятор	-10.7674
▁uni	-10.7681
▁высота	-10.7682
▁включать	-10.7683
▁мик	-10.7688
▁категория	-10.769
▁кровать	-10.769
▁получилось	-10.7693
▁попробуйте	-10.7693
▁сельскохозяйств	-10.7693
▁отверстия	-10.7693
▁показывают	-10.7701
несения	-10.7701
▁второе	-10.7708
▁балкон	-10.7708
▁фри	-10.7708
другому	-10.7709
эстет	-10.7709
фир	-10.7714
▁туризм	-10.7719
▁огромный	-10.7722
▁предпринима	-10.7723
▁обязанности	-10.7724
▁нередко	-10.7724
▁искр	-10.7734
▁невероятно	-10.7736
▁враща	-10.7737
▁появления	-10.7742
▁керам	-10.7748
▁настроение	-10.7748
ящим	-10.7748
обыкновен	-10.7751
▁выглядеть	-10.7751
▁терминал	-10.7755
▁обязательны	-10.7755
▁преступления	-10.7757
подвижн	-10.7763
▁симпат	-10.7769
▁квартира	-10.7774
▁мультфильм	-10.7775
пустит	-10.7776
▁изучения	-10.7777
▁печать	-10.7778
▁действовать	-10.7781
▁затрудн	-10.7786
только	-10.7793
скольз	-10.7801
▁установил	-10.7806
▁италии	-10.7811
{	-10.7818
▁моче	-10.782
▁остались	-10.7821
хранилищ	-10.7821
учрежден	-10.7823
▁музыку	-10.7824
▁совокуп	-10.7824
▁аккуратно	-10.7828
▁традиции	-10.7828
▁бонус	-10.783
стекля	-10.7832
ong	-10.7835
▁выражение	-10.7836
ud	-10.7837
▁поставля	-10.7844
▁случаи	-10.7847
▁приезж	-10.7854
▁лоб	-10.7855
}	-10.7857
▁этаже	-10.7857
бород	-10.7859
▁оценить	-10.7861
федер	-10.7863
▁расстройств	-10.7865
▁общественного	-10.7869
ies	-10.7873
▁снижает	-10.7879
▁заявления	-10.7881
▁оказывает	-10.7882
▁устраива	-10.7889
▁размеща	-10.7895
▁внезапно	-10.7896
▁учитель	-10.7897
</	-10.7898
▁можешь	-10.7901
элегант	-10.7904
▁потерял	-10.7908
▁золота	-10.7918
следователь	-10.7924
▁инвалид	-10.7928
▁значений	-10.7928
▁внесен	-10.7932
▁случилось	-10.7932
▁нанесен	-10.7932
▁грудь	-10.7933
▁жидкость	-10.7934
▁объяснить	-10.7934
▁изучение	-10.7935
▁подключение	-10.7939
ализм	-10.7939
владе	-10.7939
▁мусульман	-10.7942
▁пилот	-10.7943
▁недалеко	-10.7944
▁соединя	-10.7948
▁обновление	-10.7955
▁повышает	-10.7956
▁соглашение	-10.7956
▁разработке	-10.7958
▁практика	-10.7961
▁спирт	-10.7963
▁скуч	-10.7968
▁наблюдения	-10.7972
▁возникают	-10.7972
gen	-10.7976
▁получив	-10.7976
**	-10.7979
▁списке	-10.798
троф	-10.7982
▁акцент	-10.7982
▁ощущения	-10.7986
▁остановить	-10.7991
бразил	-10.7994
▁благоприят	-10.7998
▁твой	-10.7998
▁диагноз	-10.8
▁современного	-10.8001
▁лот	-10.8005
▁расширение	-10.8007
ran	-10.8009
▁напрямую	-10.801
▁воздушно	-10.8019
▁русской	-10.8021
▁перейти	-10.8022
▁интеллектуал	-10.8029
▁знаешь	-10.8034
▁знание	-10.8035
услуг	-10.8037
▁обвинен	-10.804
▁экзамен	-10.8043
▁происхождения	-10.8046
▁экономической	-10.8048
▁суть	-10.8049
▁подчеркива	-10.8049
▁web	-10.8051
▁сочетание	-10.8051
▁замок	-10.8052
▁усилива	-10.8055
серебрян	-10.8062
▁производителей	-10.8065
▁русского	-10.8065
▁родителям	-10.8066
глот	-10.8067
▁отсутствует	-10.8078
▁обнаружив	-10.8078
▁любил	-10.8079
▁аварий	-10.808
▁профиль	-10.8082
▁сара	-10.8085
▁осложнен	-10.8086
▁изображен	-10.8091
ina	-10.8091
▁придержива	-10.8095
▁дополнение	-10.8095
▁тепла	-10.8095
▁разреша	-10.8098
▁важна	-10.8098
▁помните	-10.8099
▁ужин	-10.8101
▁главы	-10.8102
▁сотни	-10.8105
крашен	-10.811
▁записыва	-10.8112
фрак	-10.8117
▁биолог	-10.8117
▁батареи	-10.8122
▁святого	-10.8125
углерод	-10.8128
▁реализу	-10.8128
▁следующей	-10.8128
▁попросил	-10.8131
▁оставаться	-10.8136
▁значок	-10.8139
▁железнодорожн	-10.814
▁пароль	-10.814
▁воспален	-10.8145
▁солнечно	-10.8146
▁кольца	-10.815
▁нефти	-10.8151
▁перемеща	-10.8167
подвод	-10.8167
▁муч	-10.8168
▁наркотик	-10.8172
▁восемь	-10.8173
▁лишен	-10.8175
▁встретить	-10.8175
▁высказыва	-10.8176
▁эндо	-10.8176
▁сильнее	-10.8185
▁рыноч	-10.8185
▁сотрудничество	-10.8187
▁собственных	-10.8187
▁составляют	-10.8191
▁собрать	-10.8194
ставляют	-10.8196
▁рассчитан	-10.8198
▁равен	-10.8198
▁оказалась	-10.8207
морф	-10.8208
▁условие	-10.8212
▁фут	-10.8215
технических	-10.8217
▁растет	-10.8217
▁улучшить	-10.8217
▁неплохо	-10.8232
▁имеющие	-10.8233
shi	-10.8244
оранж	-10.8248
▁выполняется	-10.8251
школьник	-10.8253
▁красоты	-10.8254
предостав	-10.8256
▁тонко	-10.8258
▁израиль	-10.8258
▁мэ	-10.8259
▁платья	-10.8261
▁лимон	-10.8263
▁желания	-10.8264
▁покрыв	-10.8268
▁основу	-10.8268
▁безопасны	-10.8269
▁администрации	-10.8275
▁одинаково	-10.8276
ml	-10.8278
▁предприниматель	-10.8279
льник	-10.828
▁точность	-10.8291
▁молодые	-10.8293
▁умира	-10.8295
▁церемон	-10.8295
▁америки	-10.8295
rp	-10.8295
▁рабочие	-10.8303
▁броса	-10.8305
▁департамент	-10.8308
▁показателей	-10.832
▁бесплатный	-10.8328
→	-10.8334
▁неизвестно	-10.8334
▁зданий	-10.8338
▁составлял	-10.8343
▁администратор	-10.8349
▁разумеется	-10.8349
▁всемирно	-10.835
▁решаю	-10.8354
▁прояви	-10.8356
▁имущества	-10.8357
▁организатор	-10.8358
горел	-10.8363
▁яйца	-10.8363
ступают	-10.8364
пустын	-10.8367
▁одежду	-10.8369
▁прекращен	-10.8376
▁международный	-10.8376
▁восстановление	-10.8376
▁наряду	-10.8377
регуляр	-10.8377
▁преобразова	-10.838
▁рубеж	-10.839
▁руководства	-10.8391
▁реакция	-10.8398
▁откровен	-10.84
▁выполняет	-10.8403
▁обид	-10.8405
▁салат	-10.8407
▁предложить	-10.8414
▁миллиона	-10.8416
▁компанию	-10.8418
▁камня	-10.8418
▁высококачествен	-10.8421
программ	-10.8425
▁любым	-10.8429
вторич	-10.8436
йдёт	-10.8439
▁читал	-10.8439
клеточ	-10.8451
▁генератор	-10.8453
▁вернулся	-10.8455
стратег	-10.8457
плач	-10.846
▁координат	-10.8461
▁помещение	-10.8467
▁попасть	-10.8467
▁отклонен	-10.847
▁ссылки	-10.8479
▁дистанцион	-10.8484
▁друзьями	-10.849
▁столкну	-10.8495
▁сердечно	-10.8499
ационной	-10.8504
ner	-10.8504
▁участвовал	-10.8505
▁вентиля	-10.8508
▁чиновник	-10.852
▁комментарии	-10.8524
▁независим	-10.8525
решен	-10.8529
начина	-10.8529
▁угодно	-10.8531
▁проводим	-10.8533
▁медицинской	-10.8534
▁подозрева	-10.8538
▁атрибут	-10.8545
▁еды	-10.8552
▁чувствовать	-10.8555
▁особенность	-10.8559
очарова	-10.8568
▁обшир	-10.8568
▁ритм	-10.8568
▁покупать	-10.8571
▁выполняют	-10.8579
ram	-10.8593
▁экономического	-10.8597
▁дважды	-10.8597
▁царств	-10.8599
▁изображений	-10.8599
▁счастье	-10.86
▁подверг	-10.86
терапия	-10.8603
▁известна	-10.861
▁механически	-10.8611
▁принадлежит	-10.8616
▁желательно	-10.8619
▁очистки	-10.8621
▁решать	-10.8633
▁хлор	-10.8633
▁версию	-10.8635
▁маленькие	-10.8638
▁последней	-10.8638
▁встречаются	-10.8641
▁песня	-10.8642
que	-10.8646
▁накоплен	-10.8658
▁колледж	-10.8661
▁мимо	-10.8661
▁оптимально	-10.8661
▁кухне	-10.8677
▁бюро	-10.8678
хожу	-10.8683
▁российского	-10.8684
▁скажу	-10.8687
бывал	-10.8688
▁личность	-10.8696
лайн	-10.8699
▁увлека	-10.87
▁будьте	-10.8701
▁точку	-10.8701
крытие	-10.8701
носил	-10.8702
▁планшет	-10.8703
▁энергию	-10.8704
▁сообщений	-10.8706
разреши	-10.8707
летел	-10.871
▁низким	-10.8712
▁акций	-10.8712
▁повысить	-10.8713
▁поклонник	-10.8715
▁напомним	-10.8716
▁тесно	-10.8722
патолог	-10.8724
▁жилищ	-10.8726
▁гигант	-10.8736
work	-10.8738
▁наверняка	-10.874
press	-10.8747
▁хранить	-10.875
▁раскрыва	-10.875
▁сопротивление	-10.8753
box	-10.8762
▁регулятор	-10.8764
▁восстановить	-10.8771
▁рассказать	-10.8773
▁территория	-10.8775
▁спортивно	-10.8782
▁инструкция	-10.8783
▁коллекции	-10.8783
▁желаем	-10.8784
▁добавьте	-10.8788
▁штук	-10.8788
▁киш	-10.8789
▁хорошего	-10.8792
▁установке	-10.8792
▁подойдет	-10.8795
▁среда	-10.8807
▁коммерческих	-10.881
▁тревог	-10.881
▁опасность	-10.8811
регулиру	-10.8816
▁средний	-10.8816
▁внутрь	-10.8827
▁имущество	-10.8827
▁английском	-10.8831
▁появля	-10.8832
▁плакат	-10.8833
▁хотим	-10.8834
▁таблица	-10.8839
▁посетить	-10.884
▁забав	-10.8842
▁поступил	-10.8843
морожен	-10.8843
▁гарри	-10.8844
max	-10.8848
val	-10.885
▁автомобили	-10.8852
читывает	-10.8852
▁портал	-10.8853
девят	-10.8856
▁легкий	-10.8857
углевод	-10.8859
sch	-10.888
▁виноград	-10.8882
▁найдете	-10.8884
▁сибир	-10.8886
▁двое	-10.8887
▁обознача	-10.8891
аналит	-10.8893
▁сознание	-10.8894
ьтесь	-10.8904
▁прошли	-10.8914
▁научных	-10.8922
data	-10.8925
▁помещений	-10.8929
▁калибр	-10.893
▁печени	-10.893
▁дракон	-10.8934
▁тканей	-10.8936
▁ускорен	-10.894
▁возбужден	-10.8942
▁музыкант	-10.8949
▁жизненно	-10.8952
▁ролик	-10.8953
▁медицинских	-10.8964
соединен	-10.8967
▁остался	-10.897
▁фасад	-10.8973
▁показателя	-10.8979
cha	-10.8981
▁орех	-10.8988
▁таблицы	-10.899
▁дисциплин	-10.8991
▁суток	-10.8993
▁крупным	-10.8996
▁практику	-10.8997
▁пожалуй	-10.9
▁ведут	-10.9002
фикс	-10.9003
▁сравнива	-10.9006
▁освободи	-10.9006
▁игрушки	-10.9006
▁проверен	-10.9014
▁преимуществ	-10.9015
казывал	-10.9015
▁пальца	-10.9018
▁оригинально	-10.9022
▁восстанавлива	-10.9028
▁послан	-10.9036
энергетик	-10.9036
▁java	-10.9043
able	-10.905
дюймов	-10.905
▁массово	-10.9053
▁измеря	-10.9055
▁концепция	-10.9057
▁террас	-10.9063
▁багаж	-10.9063
▁исследователь	-10.9066
▁прекрасный	-10.9068
▁применяются	-10.9068
▁мотоцикл	-10.907
страст	-10.9073
▁слева	-10.9082
<	-10.9082
−	-10.9083
▁упомянут	-10.9083
▁продукция	-10.9088
▁справа	-10.9088
▁письме	-10.909
▁восстановлен	-10.9092
▁актуальны	-10.9095
▁рекорд	-10.9103
▁защите	-10.9106
▁молекул	-10.9123
▁избавиться	-10.9123
фантаз	-10.9133
▁концентрации	-10.915
▁антон	-10.9153
▁основы	-10.9162
гнал	-10.9178
▁пойти	-10.9181
▁концепции	-10.9181
▁сознания	-10.9184
▁ждал	-10.9187
▁узбекистан	-10.919
▁отказаться	-10.9194
▁почты	-10.9197
▁житель	-10.92
▁миш	-10.9201
▁ключевые	-10.9214
▁энергия	-10.9214
▁коронавирус	-10.922
▁попытки	-10.922
▁проводил	-10.9222
летнего	-10.9224
▁сыграл	-10.9225
▁бросил	-10.9232
▁участникам	-10.9234
▁борис	-10.9236
магазин	-10.9237
▁конфигурации	-10.9242
▁ровно	-10.9246
▁политической	-10.9252
▁приобрел	-10.9256
▁расстоянии	-10.9258
игнор	-10.9261
сердеч	-10.9263
экстр	-10.9264
▁доллар	-10.9266
▁приспособлен	-10.9266
законодательства	-10.9267
▁дорогу	-10.927
▁водитель	-10.9273
▁обороны	-10.9276
▁кровати	-10.9279
▁именем	-10.9281
▁окне	-10.9287
▁исполнение	-10.929
▁слома	-10.9292
▁эмоции	-10.9299
▁государственный	-10.9299
▁явления	-10.9316
совершен	-10.9317
land	-10.9318
▁шрифт	-10.9319
▁замуж	-10.9321
файл	-10.9323
▁пистолет	-10.9326
▁хорошей	-10.933
▁обеих	-10.933
vel	-10.9333
▁получаем	-10.9333
▁библи	-10.9334
▁превратил	-10.934
▁болгар	-10.934
▁преимущественно	-10.9342
▁погода	-10.9343
▁периодически	-10.9346
▁быстрый	-10.9354
▁ворота	-10.9357
▁фруктов	-10.9358
▁происходил	-10.9358
мобил	-10.936
▁единственным	-10.936
▁поздно	-10.9361
▁филиал	-10.9363
▁армян	-10.9366
▁агрегат	-10.9367
▁сетей	-10.937
▁уменьшить	-10.9372
▁соблюдать	-10.9372
low	-10.9378
▁сложных	-10.938
▁девочки	-10.9381
▁клинически	-10.9392
ирующий	-10.9394
▁руководителя	-10.9395
▁империи	-10.9396
ach	-10.9398
▁специальный	-10.9399
▁концу	-10.9402
▁огня	-10.9404
▁страницу	-10.9404
▁национальный	-10.9413
▁настоящей	-10.9416
▁фур	-10.9423
ходящего	-10.9424
яснен	-10.9426
▁настоящим	-10.9427
▁неприятно	-10.9429
▁ребенку	-10.9434
▁отверстие	-10.9434
▁запреща	-10.9443
▁конверт	-10.9446
▁коридор	-10.9455
▁ориентирован	-10.9456
▁внутренний	-10.9464
▁оптимизаци	-10.9468
наушник	-10.95
▁чудо	-10.9501
▁алкоголь	-10.9502
▁корзин	-10.9505
▁понимал	-10.9506
изирует	-10.9511
▁аккаунт	-10.9512
▁контраст	-10.9515
▁небольших	-10.9517
▁сочетании	-10.9524
▁решает	-10.9527
▁снизить	-10.9531
▁основного	-10.9536
▁отсутствии	-10.954
▁областях	-10.9545
▁выглядел	-10.9545
▁послуш	-10.9549
▁защитить	-10.9554
▁государственно	-10.9561
▁функционально	-10.9561
▁участков	-10.9566
▁смешива	-10.9567
▁ждет	-10.9567
▁актуально	-10.9568
▁выделить	-10.9581
▁началась	-10.9582
▁объедини	-10.9582
▁обновля	-10.9582
▁определён	-10.9585
▁диабет	-10.9585
▁параллельно	-10.9586
▁агрессивн	-10.9587
▁высоте	-10.9589
eur	-10.959
▁вагон	-10.9591
физиолог	-10.9594
▁константин	-10.9596
▁означа	-10.9603
▁помещении	-10.9606
▁физической	-10.9608
▁server	-10.9611
▁трубопровод	-10.9613
▁заражен	-10.9616
▁известен	-10.9627
технической	-10.9642
view	-10.9643
▁избиратель	-10.9646
демонстра	-10.9663
▁присутствует	-10.9664
вертикаль	-10.9665
▁существования	-10.9668
английски	-10.9672
▁фермент	-10.9674
▁академии	-10.9679
▁коллекция	-10.9688
▁административно	-10.969
▁подтвердил	-10.9693
гигиен	-10.9695
▁потребителей	-10.9697
скорост	-10.9697
материал	-10.9698
▁очищен	-10.9701
▁небольшим	-10.9702
кредит	-10.9713
▁следующего	-10.9726
▁реальность	-10.9727
▁акционер	-10.9728
▁мебели	-10.9736
▁конфиденциаль	-10.9738
▁позицию	-10.9738
▁бесплатные	-10.9738
казывает	-10.9742
▁взаимодействие	-10.9742
▁дефицит	-10.9745
▁желто	-10.9753
▁добраться	-10.9759
▁эмоционально	-10.9766
крепление	-10.9774
визион	-10.9775
▁историк	-10.978
▁средняя	-10.9781
▁племен	-10.9783
▁складыва	-10.9783
▁высоты	-10.9785
▁роберт	-10.979
▁барабан	-10.9792
▁войне	-10.98
▁вакцин	-10.9802
▁суббот	-10.9802
▁обвиня	-10.9803
▁драгоцен	-10.9807
▁сделает	-10.981
▁дрож	-10.9816
справедлив	-10.9827
▁иссле	-10.983
▁каждые	-10.9831
▁внешних	-10.9833
▁англии	-10.9834
▁казн	-10.984
администраци	-10.9841
▁христа	-10.9843
▁длины	-10.9852
▁реализован	-10.9852
▁фанат	-10.9853
▁озера	-10.9855
???	-10.9857
▁начинаю	-10.9862
▁обработка	-10.9867
▁заместитель	-10.9872
йдя	-10.9872
▁квартире	-10.9873
плыв	-10.9873
▁напоминает	-10.9876
мгновен	-10.9876
▁соревнования	-10.9881
▁орден	-10.9889
▁замена	-10.9895
▁поддержке	-10.9895
▁любопыт	-10.9898
▁публикации	-10.9899
▁консерв	-10.9902
▁возможных	-10.9913
▁пещер	-10.9913
▁поставки	-10.9915
▁настраива	-10.9918
▁публика	-10.9919
▁улицы	-10.9925
▁учреждений	-10.9927
▁вертикально	-10.9931
▁перечень	-10.9932
надлеж	-10.9948
▁распространя	-10.9948
▁навсегда	-10.9949
▁приходилось	-10.995
▁музея	-10.9951
▁национальных	-10.9951
▁недостатки	-10.996
▁маленькая	-10.9961
▁мощно	-10.9965
▁требовал	-10.9967
▁бригад	-10.997
▁чтения	-10.9978
▁катастроф	-10.998
▁международным	-10.9983
▁гнезд	-10.9983
практик	-10.9983
▁основное	-10.9984
ходящим	-10.9998
▁ювелир	-11.0004
▁ведомств	-11.0005
▁истинно	-11.0013
▁революции	-11.0014
▁мембран	-11.0014
грамот	-11.0015
сомнева	-11.0018
прикосн	-11.0019
▁кишечник	-11.0031
▁подобрать	-11.0033
▁рэ	-11.0047
▁озеро	-11.0048
▁оценку	-11.0051
▁управляем	-11.0051
▁форт	-11.0051
▁сделки	-11.0052
▁шарик	-11.0058
▁губернатор	-11.0063
▁экипаж	-11.0063
▁политических	-11.0066
▁внутренние	-11.0073
▁останется	-11.0076
▁легких	-11.0076
▁крепления	-11.0078
▁испытаний	-11.0088
▁письменно	-11.0103
▁бесконечно	-11.0105
▁бензин	-11.0106
▁откройте	-11.0108
▁социальные	-11.011
▁помнить	-11.0116
свят	-11.0118
▁америке	-11.0122
▁современном	-11.0124
▁очередной	-11.0129
▁бомб	-11.0136
▁россию	-11.0141
▁сквозь	-11.0147
▁скром	-11.0158
▁детские	-11.017
▁отражает	-11.0173
продолж	-11.0176
▁николаев	-11.0177
▁наполнен	-11.0182
раскрыт	-11.0189
▁натурально	-11.0191
▁свыше	-11.0192
греческ	-11.0193
▁деревьев	-11.0201
html	-11.0201
территориал	-11.0201
▁возможным	-11.0204
▁экстра	-11.0208
▁узнав	-11.0211
▁факультет	-11.0211
▁ссылка	-11.0214
▁современным	-11.0221
кладывать	-11.0223
ирующим	-11.0224
▁квартиру	-11.0225
▁изображ	-11.0227
▁американский	-11.0233
ture	-11.0237
▁двадцать	-11.0247
own	-11.0249
коммерчески	-11.0253
первич	-11.0257
дивизи	-11.026
▁матриц	-11.0261
▁позиция	-11.0261
▁собственным	-11.0264
▁непонят	-11.0277
▁соотношение	-11.0279
▁николай	-11.0281
▁лыж	-11.0289
▁почте	-11.0294
#	-11.0295
▁гитар	-11.0297
▁начинал	-11.0301
▁сомнения	-11.0304
▁замены	-11.0314
сотруднича	-11.0321
▁понравилось	-11.0324
▁природно	-11.0327
▁приемлем	-11.033
▁зажига	-11.0335
▁общественных	-11.0344
▁восточно	-11.0346
свои	-11.0352
▁значимо	-11.0361
▁ассоциации	-11.0364
▁драма	-11.037
▁человеческого	-11.0377
▁олимпийск	-11.0382
▁емкость	-11.0384
▁потребностей	-11.0385
▁теория	-11.0385
▁станут	-11.0385
▁куст	-11.0389
▁несомненно	-11.0389
▁требование	-11.0392
нефть	-11.0394
▁продукцию	-11.0395
▁взглян	-11.0395
▁автомобиле	-11.0396
▁углов	-11.0401
▁маленьких	-11.0402
▁храня	-11.0405
▁объём	-11.0405
▁facebook	-11.0422
мигрант	-11.0426
▁существовал	-11.0432
▁клипарт	-11.0433
▁нагрузка	-11.0434
▁младен	-11.0438
▁макияж	-11.0441
▁учащ	-11.0441
▁детский	-11.0442
эмоционал	-11.0445
▁условии	-11.0446
▁корабль	-11.0456
▁hotel	-11.0456
уязвим	-11.0456
▁дополнен	-11.0457
▁сказано	-11.0461
позицион	-11.0474
▁конкретных	-11.0476
▁посетителей	-11.0476
▁накопи	-11.0477
▁случая	-11.0482
▁регламент	-11.0484
▁разобраться	-11.0484
▁бороться	-11.0484
▁ограничи	-11.0486
▁загружа	-11.0509
ращен	-11.052
▁подтверждаю	-11.052
параллел	-11.0521
▁осознан	-11.0526
▁груст	-11.0533
▁девочек	-11.0537
▁тренировки	-11.0538
▁основыва	-11.0544
динамически	-11.0546
▁подростков	-11.055
vers	-11.0556
▁аналогично	-11.0566
▁дополнительный	-11.0571
▁дипломат	-11.0571
▁привело	-11.0576
байт	-11.0578
▁комиссия	-11.0584
▁дольше	-11.0584
▁пришло	-11.0585
▁восьми	-11.0587
▁трамп	-11.0591
▁адаптер	-11.0597
▁литературы	-11.0597
▁важную	-11.0607
▁учащихся	-11.0607
габарит	-11.061
▁противоположно	-11.0612
▁изыскан	-11.0615
▁обычный	-11.0619
▁собственник	-11.0623
▁очереди	-11.0625
▁квалифицирован	-11.063
▁дискусси	-11.0631
▁длиной	-11.0633
▁проживания	-11.0634
▁свидетельствует	-11.0638
кыргыз	-11.0649
▁дыхание	-11.065
word	-11.0655
▁comp	-11.0657
▁сделайте	-11.0667
▁добавляет	-11.0668
▁предстоит	-11.0672
продаж	-11.0676
▁идеолог	-11.0676
▁скульптур	-11.0677
▁титул	-11.0686
▁успоко	-11.0688
▁промежуточн	-11.0698
следствен	-11.0701
▁закреплен	-11.0712
ирланд	-11.0713
памят	-11.0714
пиксел	-11.0717
▁популярных	-11.0722
▁подшипник	-11.0724
▁ведущих	-11.0727
▁лечении	-11.0727
▁печаль	-11.0736
▁радикал	-11.0738
black	-11.0741
▁предотвратить	-11.0743
▁стационар	-11.0743
▁материально	-11.0743
▁вплоть	-11.0744
▁выбирает	-11.0745
▁соответствовать	-11.0748
▁попытка	-11.0754
▁номинал	-11.077
двинул	-11.0774
▁диплом	-11.078
▁перерыв	-11.078
принцесс	-11.0782
▁силуэт	-11.0784
▁болезнен	-11.0798
▁понадобится	-11.0798
▁отличная	-11.0804
процесс	-11.0804
▁трещин	-11.0807
▁отсутствия	-11.0811
▁выиграл	-11.0828
▁power	-11.0835
▁запланирован	-11.0836
▁участвовать	-11.084
великолепны	-11.0841
хватываю	-11.0852
▁апартаменты	-11.0854
▁испании	-11.0855
▁относящ	-11.0856
▁обучен	-11.0858
▁участке	-11.0864
▁вакуум	-11.0867
▁осенью	-11.0872
▁отходов	-11.088
▁трёх	-11.088
▁почувствовал	-11.0886
▁диаграмм	-11.0889
▁владельца	-11.0891
▁небольшое	-11.0893
▁подчеркн	-11.0898
развлека	-11.0898
▁участки	-11.0899
▁реестр	-11.0905
▁своевременно	-11.0905
▁российско	-11.0905
▁бесплатная	-11.0915
▁мораль	-11.092
▁искусственно	-11.0932
▁воспоминания	-11.0952
▁финансирования	-11.0952
▁понимания	-11.0955
▁свидетельство	-11.0957
▁церков	-11.0964
▁отображается	-11.0971
▁девушек	-11.0974
средневеков	-11.0979
▁дыр	-11.0986
▁молока	-11.0993
▁последняя	-11.1001
▁начинать	-11.1002
▁блеск	-11.1002
действительности	-11.1009
▁проверку	-11.1014
▁партий	-11.1022
▁задержан	-11.1026
▁регулирования	-11.1029
принципиальн	-11.103
▁ребенком	-11.103
▁заполня	-11.1032
убийц	-11.1035
▁каркас	-11.1038
▁светильник	-11.1041
▁франк	-11.1042
▁отрыв	-11.1045
▁увидите	-11.1053
▁выключен	-11.1057
▁блондин	-11.1063
▁сложные	-11.1065
▁мобильных	-11.1069
▁третьего	-11.1071
синтет	-11.108
▁оценке	-11.108
▁жестоко	-11.1083
▁уникальный	-11.1088
▁филипп	-11.1095
▁стерео	-11.1098
▁войну	-11.1098
▁оказывают	-11.1109
▁несчастн	-11.1115
▁борьба	-11.1117
▁идёт	-11.1118
▁скрип	-11.1126
▁просматрива	-11.1128
▁патент	-11.1129
▁уважение	-11.1131
▁заповед	-11.1136
служеб	-11.1138
▁эксклюзив	-11.1139
▁экспресс	-11.1139
▁героев	-11.1142
▁присутствие	-11.1144
▁эксперименталь	-11.115
динамич	-11.1151
▁дополнительную	-11.1155
▁рычаг	-11.1158
▁партия	-11.1158
конструктив	-11.1161
▁слушать	-11.1161
▁стоматолог	-11.1163
▁рассказывал	-11.1164
▁​​	-11.1171
▁грузовик	-11.1179
world	-11.1185
реабилит	-11.1185
▁абсолют	-11.1192
▁уйти	-11.1192
▁диагностики	-11.1196
▁услышал	-11.1202
▁кузов	-11.1205
▁ответственны	-11.121
пламен	-11.1212
▁auto	-11.1217
▁выглядят	-11.1218
ставлял	-11.1223
▁целесообразн	-11.1224
▁антенн	-11.1225
▁последним	-11.1227
▁заметить	-11.1227
▁выставки	-11.123
▁джордж	-11.1237
▁шикар	-11.1249
▁печень	-11.1252
▁скважин	-11.1254
▁пружин	-11.1255
▁замечательно	-11.1258
контакт	-11.126
▁наличия	-11.1266
▁адаптаци	-11.1271
гидравли	-11.1274
▁музее	-11.1274
▁эластич	-11.1283
▁расстояния	-11.1284
▁площадка	-11.1286
system	-11.129
▁территорию	-11.1304
▁искал	-11.1308
▁клетка	-11.1313
▁щелкните	-11.1315
▁архитектор	-11.1318
▁традиция	-11.132
▁подчинен	-11.1321
созда	-11.1322
▁голланд	-11.1325
▁похорон	-11.1326
▁интегрирован	-11.1326
▁узнает	-11.1329
▁корабле	-11.133
▁предпочтительно	-11.134
▁интеллект	-11.134
▁высказа	-11.134
▁фиксирован	-11.1342
▁беларуси	-11.1348
▁возглавля	-11.1354
ответствен	-11.1368
▁соответствие	-11.1371
▁известным	-11.1377
конодательством	-11.1379
▁bluetooth	-11.1379
▁соперник	-11.1379
▁сеанс	-11.1382
▁локально	-11.1388
▁консоли	-11.139
▁серьёз	-11.1393
▁сокраща	-11.1393
▁опуска	-11.1395
▁континент	-11.1396
▁федерального	-11.1397
▁изменяет	-11.1401
▁потенциально	-11.1409
▁конструктор	-11.141
▁угрожа	-11.1413
▁сорок	-11.1415
▁снимать	-11.1415
▁ритуал	-11.1416
▁подчеркнул	-11.142
▁сестра	-11.1424
▁звучит	-11.1426
▁джеймс	-11.1438
▁хранение	-11.1444
▁якобы	-11.1444
▁вокзал	-11.1454
▁космос	-11.1456
▁облегчен	-11.1456
▁санитар	-11.1458
▁высшего	-11.1461
▁майкл	-11.1462
▁авторитет	-11.147
▁организовать	-11.1472
▁низкий	-11.1472
▁настроек	-11.1475
берег	-11.1485
▁шляп	-11.1493
▁детства	-11.1498
▁вселенной	-11.1503
▁стадион	-11.1511
▁экзо	-11.1511
▁священник	-11.1521
▁революцион	-11.1526
▁рациональн	-11.1538
▁приближа	-11.1548
▁стойко	-11.1562
▁европейских	-11.1564
сасыва	-11.1566
▁одобрен	-11.157
▁последствий	-11.1574
▁срочно	-11.1575
сульф	-11.1579
▁воплощен	-11.1584
▁вычислен	-11.1585
▁дисплей	-11.1608
▁небольшая	-11.1614
▁подключить	-11.1616
▁справиться	-11.1617
▁кабеля	-11.162
▁шнур	-11.1621
▁дочери	-11.1629
забот	-11.1632
концентрир	-11.1651
▁покупателя	-11.1652
вероятны	-11.1655
▁принадлежности	-11.1658
▁соответствующий	-11.1668
▁публично	-11.1677
▁сзади	-11.168
▁льгот	-11.1683
стандарт	-11.1689
ound	-11.169
▁подарки	-11.169
▁специальным	-11.1695
script	-11.1697
▁эквивалент	-11.1697
over	-11.1701
благодар	-11.1707
▁понижен	-11.171
▁визуально	-11.1714
▁теоретически	-11.1715
▁азот	-11.1715
▁соответствуют	-11.1723
▁медицинского	-11.1738
▁трафик	-11.1739
▁учебник	-11.1739
▁твоя	-11.1747
▁неоднократно	-11.1752
▁скажем	-11.1767
реагиру	-11.1767
▁равномерно	-11.1769
▁международном	-11.1769
▁вращения	-11.177
токсич	-11.1772
поляр	-11.1773
▁рентген	-11.1775
▁биологически	-11.1776
▁зависимость	-11.1791
▁вторую	-11.1792
▁дешевле	-11.1796
▁кампании	-11.1816
▁европейского	-11.1819
▁однозначно	-11.1824
▁вблизи	-11.1828
▁приведет	-11.1829
▁мероприятие	-11.1831
▁облач	-11.1836
компетентн	-11.1837
▁республике	-11.1851
▁приготовить	-11.1859
транспорт	-11.1859
карбон	-11.1862
▁научиться	-11.1873
▁уполномочен	-11.1875
решительн	-11.189
▁аллах	-11.1896
▁усовершенствова	-11.1898
▁счастью	-11.1904
▁снаружи	-11.1913
▁защитник	-11.1915
▁сосредоточен	-11.1919
▁воскрес	-11.192
▁общаться	-11.1928
▁решении	-11.1929
▁дереве	-11.194
▁остальное	-11.1943
▁ландшафт	-11.1951
▁председателя	-11.1951
▁прийти	-11.1952
▁мгновенно	-11.1952
▁нежно	-11.1957
▁соответствующей	-11.1957
▁подтверждает	-11.1964
▁возможна	-11.1967
▁стратегия	-11.1969
▁реализация	-11.1969
▁издание	-11.1973
▁ученых	-11.1977
▁хватит	-11.1983
▁археолог	-11.1984
▁чертеж	-11.1986
▁беларусь	-11.199
▁приложении	-11.1993
▁короля	-11.1995
▁сентябре	-11.1999
▁детской	-11.2005
▁необычно	-11.2006
▁недвижимость	-11.2008
▁фитнес	-11.2011
▁исправить	-11.2013
▁георг	-11.2027
▁истреб	-11.203
▁счастья	-11.2032
▁рабочем	-11.2044
▁аналитик	-11.2044
▁человечества	-11.2047
▁появилось	-11.2059
▁дорожно	-11.2061
двадцат	-11.2066
font	-11.2071
▁болезней	-11.2074
▁отвечать	-11.2074
​	-11.208
▁корабля	-11.2086
соответствующего	-11.2092
▁юрист	-11.2103
▁столице	-11.2106
▁короткие	-11.211
▁осужден	-11.2116
полковник	-11.2117
двенадцат	-11.2125
▁карандаш	-11.2128
▁внешним	-11.2128
▁ссылку	-11.2129
▁полагаю	-11.2132
устойчив	-11.2132
▁изменять	-11.2135
▁фестиваль	-11.214
инфекцион	-11.214
▁раздражен	-11.2144
▁зритель	-11.2149
▁впечатля	-11.215
менеджмент	-11.2152
▁конвенции	-11.2152
▁научил	-11.2157
▁консультации	-11.2167
▁судьба	-11.217
▁посетил	-11.219
▁new	-11.2203
▁уильям	-11.2212
▁продолжить	-11.2215
▁достижение	-11.2219
|	-11.4301
№	-12.1172
·	-12.4619
•	-12.5147
