<unk>	0
<s>	0
</s>	0
<TOK0>	0
<TOK10>	0
<TOK11>	0
<TOK12>	0
<TOK13>	0
<TOK14>	0
<TOK15>	0
<TOK16>	0
<TOK17>	0
<TOK18>	0
<TOK19>	0
<TOK1>	0
<TOK20>	0
<TOK21>	0
<TOK22>	0
<TOK23>	0
<TOK24>	0
<TOK25>	0
<TOK26>	0
<TOK27>	0
<TOK28>	0
<TOK29>	0
<TOK2>	0
<TOK30>	0
<TOK31>	0
<TOK32>	0
<TOK33>	0
<TOK34>	0
<TOK35>	0
<TOK36>	0
<TOK37>	0
<TOK38>	0
<TOK39>	0
<TOK3>	0
<TOK40>	0
<TOK41>	0
<TOK42>	0
<TOK43>	0
<TOK44>	0
<TOK45>	0
<TOK46>	0
<TOK47>	0
<TOK48>	0
<TOK49>	0
<TOK4>	0
<TOK50>	0
<TOK51>	0
<TOK52>	0
<TOK53>	0
<TOK54>	0
<TOK55>	0
<TOK56>	0
<TOK57>	0
<TOK58>	0
<TOK59>	0
<TOK5>	0
<TOK60>	0
<TOK61>	0
<TOK62>	0
<TOK63>	0
<TOK64>	0
<TOK65>	0
<TOK66>	0
<TOK67>	0
<TOK68>	0
<TOK69>	0
<TOK6>	0
<TOK70>	0
<TOK71>	0
<TOK72>	0
<TOK73>	0
<TOK74>	0
<TOK75>	0
<TOK76>	0
<TOK77>	0
<TOK78>	0
<TOK79>	0
<TOK7>	0
<TOK80>	0
<TOK81>	0
<TOK82>	0
<TOK83>	0
<TOK84>	0
<TOK85>	0
<TOK86>	0
<TOK87>	0
<TOK88>	0
<TOK89>	0
<TOK8>	0
<TOK90>	0
<TOK91>	0
<TOK92>	0
<TOK93>	0
<TOK94>	0
<TOK95>	0
<TOK96>	0
<TOK97>	0
<TOK98>	0
<TOK99>	0
<TOK9>	0
<0x00>	0
<0x01>	0
<0x02>	0
<0x03>	0
<0x04>	0
<0x05>	0
<0x06>	0
<0x07>	0
<0x08>	0
<0x09>	0
<0x0A>	0
<0x0B>	0
<0x0C>	0
<0x0D>	0
<0x0E>	0
<0x0F>	0
<0x10>	0
<0x11>	0
<0x12>	0
<0x13>	0
<0x14>	0
<0x15>	0
<0x16>	0
<0x17>	0
<0x18>	0
<0x19>	0
<0x1A>	0
<0x1B>	0
<0x1C>	0
<0x1D>	0
<0x1E>	0
<0x1F>	0
<0x20>	0
<0x21>	0
<0x22>	0
<0x23>	0
<0x24>	0
<0x25>	0
<0x26>	0
<0x27>	0
<0x28>	0
<0x29>	0
<0x2A>	0
<0x2B>	0
<0x2C>	0
<0x2D>	0
<0x2E>	0
<0x2F>	0
<0x30>	0
<0x31>	0
<0x32>	0
<0x33>	0
<0x34>	0
<0x35>	0
<0x36>	0
<0x37>	0
<0x38>	0
<0x39>	0
<0x3A>	0
<0x3B>	0
<0x3C>	0
<0x3D>	0
<0x3E>	0
<0x3F>	0
<0x40>	0
<0x41>	0
<0x42>	0
<0x43>	0
<0x44>	0
<0x45>	0
<0x46>	0
<0x47>	0
<0x48>	0
<0x49>	0
<0x4A>	0
<0x4B>	0
<0x4C>	0
<0x4D>	0
<0x4E>	0
<0x4F>	0
<0x50>	0
<0x51>	0
<0x52>	0
<0x53>	0
<0x54>	0
<0x55>	0
<0x56>	0
<0x57>	0
<0x58>	0
<0x59>	0
<0x5A>	0
<0x5B>	0
<0x5C>	0
<0x5D>	0
<0x5E>	0
<0x5F>	0
<0x60>	0
<0x61>	0
<0x62>	0
<0x63>	0
<0x64>	0
<0x65>	0
<0x66>	0
<0x67>	0
<0x68>	0
<0x69>	0
<0x6A>	0
<0x6B>	0
<0x6C>	0
<0x6D>	0
<0x6E>	0
<0x6F>	0
<0x70>	0
<0x71>	0
<0x72>	0
<0x73>	0
<0x74>	0
<0x75>	0
<0x76>	0
<0x77>	0
<0x78>	0
<0x79>	0
<0x7A>	0
<0x7B>	0
<0x7C>	0
<0x7D>	0
<0x7E>	0
<0x7F>	0
<0x80>	0
<0x81>	0
<0x82>	0
<0x83>	0
<0x84>	0
<0x85>	0
<0x86>	0
<0x87>	0
<0x88>	0
<0x89>	0
<0x8A>	0
<0x8B>	0
<0x8C>	0
<0x8D>	0
<0x8E>	0
<0x8F>	0
<0x90>	0
<0x91>	0
<0x92>	0
<0x93>	0
<0x94>	0
<0x95>	0
<0x96>	0
<0x97>	0
<0x98>	0
<0x99>	0
<0x9A>	0
<0x9B>	0
<0x9C>	0
<0x9D>	0
<0x9E>	0
<0x9F>	0
<0xA0>	0
<0xA1>	0
<0xA2>	0
<0xA3>	0
<0xA4>	0
<0xA5>	0
<0xA6>	0
<0xA7>	0
<0xA8>	0
<0xA9>	0
<0xAA>	0
<0xAB>	0
<0xAC>	0
<0xAD>	0
<0xAE>	0
<0xAF>	0
<0xB0>	0
<0xB1>	0
<0xB2>	0
<0xB3>	0
<0xB4>	0
<0xB5>	0
<0xB6>	0
<0xB7>	0
<0xB8>	0
<0xB9>	0
<0xBA>	0
<0xBB>	0
<0xBC>	0
<0xBD>	0
<0xBE>	0
<0xBF>	0
<0xC0>	0
<0xC1>	0
<0xC2>	0
<0xC3>	0
<0xC4>	0
<0xC5>	0
<0xC6>	0
<0xC7>	0
<0xC8>	0
<0xC9>	0
<0xCA>	0
<0xCB>	0
<0xCC>	0
<0xCD>	0
<0xCE>	0
<0xCF>	0
<0xD0>	0
<0xD1>	0
<0xD2>	0
<0xD3>	0
<0xD4>	0
<0xD5>	0
<0xD6>	0
<0xD7>	0
<0xD8>	0
<0xD9>	0
<0xDA>	0
<0xDB>	0
<0xDC>	0
<0xDD>	0
<0xDE>	0
<0xDF>	0
<0xE0>	0
<0xE1>	0
<0xE2>	0
<0xE3>	0
<0xE4>	0
<0xE5>	0
<0xE6>	0
<0xE7>	0
<0xE8>	0
<0xE9>	0
<0xEA>	0
<0xEB>	0
<0xEC>	0
<0xED>	0
<0xEE>	0
<0xEF>	0
<0xF0>	0
<0xF1>	0
<0xF2>	0
<0xF3>	0
<0xF4>	0
<0xF5>	0
<0xF6>	0
<0xF7>	0
<0xF8>	0
<0xF9>	0
<0xFA>	0
<0xFB>	0
<0xFC>	0
<0xFD>	0
<0xFE>	0
<0xFF>	0
▁the	-3.18004
.	-3.289
,	-3.32694
s	-3.3868
▁of	-3.75747
▁	-3.84973
▁and	-4.11055
▁to	-4.15067
▁a	-4.21272
▁in	-4.33019
▁is	-4.64349
▁for	-5.0497
0	-5.05509
1	-5.10002
ing	-5.14705
▁with	-5.22669
-	-5.23068
▁The	-5.23521
ed	-5.2572
▁that	-5.30635
▁on	-5.38702
2	-5.40038
▁I	-5.44579
▁it	-5.4597
t	-5.4677
▁are	-5.49852
'	-5.51954
▁you	-5.54989
▁be	-5.58029
d	-5.58098
▁not	-5.6416
▁(	-5.71443
▁was	-5.71962
▁this	-5.79613
:	-5.79782
▁from	-5.82377
ly	-5.83304
▁-	-5.84991
▁by	-5.92826
▁as	-5.9635
▁will	-5.99308
3	-5.99335
er	-6.00353
y	-6.01244
5	-6.013
▁at	-6.04006
▁can	-6.0587
)	-6.06136
▁or	-6.06375
▁an	-6.06841
▁have	-6.17574
4	-6.18124
9	-6.18245
e	-6.20971
▁A	-6.21142
▁In	-6.2198
?	-6.24306
n	-6.25023
▁"	-6.26333
al	-6.27461
▁all	-6.37871
6	-6.39683
▁your	-6.4121
8	-6.4132
▁which	-6.42372
▁he	-6.42611
▁but	-6.46781
▁has	-6.51613
7	-6.5189
▁one	-6.54048
▁his	-6.55429
▁It	-6.56806
m	-6.57242
▁time	-6.62202
▁we	-6.62357
"	-6.63895
in	-6.65359
es	-6.65955
▁“	-6.67469
▁about	-6.6867
▁they	-6.68866
!	-6.70973
▁there	-6.71775
▁were	-6.71879
▁more	-6.73358
▁S	-6.73649
r	-6.74115
▁out	-6.74344
;	-6.74916
▁their	-6.75798
▁This	-6.76008
a	-6.77163
▁also	-6.78838
’	-6.79804
th	-6.80879
▁And	-6.82209
or	-6.8245
▁do	-6.86164
re	-6.87154
▁only	-6.87169
▁so	-6.89725
▁up	-6.91272
i	-6.92875
o	-6.93126
▁no	-6.93467
▁other	-6.93996
▁me	-6.95691
▁into	-6.95901
▁who	-6.97629
▁her	-7.00688
▁my	-7.01623
▁re	-7.02755
▁them	-7.04169
▁work	-7.09036
▁if	-7.10477
▁when	-7.10947
ation	-7.11555
▁what	-7.12743
▁first	-7.14291
▁people	-7.14308
/	-7.14974
▁very	-7.15223
▁like	-7.15769
▁We	-7.16299
).	-7.18312
▁new	-7.18604
ic	-7.1879
▁our	-7.19564
▁such	-7.19787
l	-7.22408
▁C	-7.22986
▁He	-7.23262
▁But	-7.23957
ar	-7.24407
▁its	-7.24427
▁B	-7.26597
▁been	-7.27011
▁F	-7.27153
▁than	-7.27406
b	-7.27835
▁had	-7.28084
▁should	-7.28938
▁most	-7.29703
p	-7.30404
▁use	-7.30524
▁any	-7.30955
▁then	-7.31225
le	-7.32491
▁P	-7.32995
▁over	-7.33452
▁him	-7.34127
▁You	-7.34189
on	-7.34283
ers	-7.34776
▁If	-7.3541
c	-7.35568
▁two	-7.36411
▁For	-7.36712
▁some	-7.37508
▁D	-7.3761
▁after	-7.38198
▁would	-7.38573
able	-7.3891
▁same	-7.39051
g	-7.3928
▁well	-7.40412
an	-7.41254
▁E	-7.41273
S	-7.41285
▁she	-7.41478
ion	-7.42237
▁how	-7.42937
”	-7.43181
▁these	-7.43422
▁even	-7.43871
▁need	-7.45183
A	-7.45224
▁just	-7.45475
en	-7.45793
el	-7.45955
ity	-7.46862
▁used	-7.49164
▁de	-7.50032
k	-7.51753
D	-7.5243
ll	-7.52946
▁may	-7.53582
▁system	-7.54527
▁life	-7.55431
▁get	-7.55494
li	-7.55905
▁G	-7.56149
▁To	-7.56969
st	-7.57175
▁There	-7.57255
▁years	-7.57284
f	-7.57379
▁where	-7.57515
us	-7.57719
▁M	-7.57948
▁did	-7.58193
il	-7.58468
at	-7.58833
▁way	-7.59842
ate	-7.60128
▁make	-7.60353
ive	-7.61664
▁many	-7.62791
▁T	-7.63266
▁Russian	-7.63604
x	-7.63865
C	-7.6408
▁under	-7.64248
▁Re	-7.64387
▁water	-7.6449
u	-7.65615
▁does	-7.66531
▁take	-7.6658
B	-7.67332
T	-7.6743
▁un	-7.67513
it	-7.67568
P	-7.67892
▁K	-7.67908
I	-7.6815
▁different	-7.68462
▁now	-7.68768
ment	-7.6947
▁So	-7.69555
▁good	-7.70399
h	-7.70528
▁made	-7.70667
▁right	-7.70999
M	-7.71678
▁p	-7.71742
▁R	-7.72041
▁world	-7.72281
▁place	-7.72283
F	-7.72446
ve	-7.732
),	-7.73256
▁part	-7.73475
▁see	-7.73844
ia	-7.7392
▁They	-7.74199
▁know	-7.74208
um	-7.74606
▁through	-7.74785
na	-7.7508
▁order	-7.75288
▁number	-7.76001
ur	-7.76072
▁us	-7.76163
▁What	-7.76199
ry	-7.76316
▁day	-7.76646
▁V	-7.76685
et	-7.76782
▁must	-7.76829
▁go	-7.77911
▁don	-7.78317
G	-7.78473
▁without	-7.78559
▁end	-7.79046
▁long	-7.79105
▁high	-7.79237
ent	-7.79689
V	-7.79775
z	-7.79877
ter	-7.79906
L	-7.80409
▁At	-7.80818
▁information	-7.81777
age	-7.81903
▁between	-7.82695
▁b	-7.82764
▁said	-7.8292
ary	-7.8459
▁back	-7.84768
▁could	-7.85077
w	-7.85297
...	-7.85592
▁each	-7.85861
▁As	-7.86157
est	-7.86247
%	-7.86637
▁here	-7.87012
▁much	-7.88284
▁help	-7.8836
▁head	-7.88872
▁car	-7.88922
E	-7.89001
▁year	-7.89384
▁own	-7.89663
ma	-7.90342
ch	-7.90594
▁W	-7.90827
de	-7.90872
▁case	-7.91478
▁want	-7.91663
▁–	-7.91949
to	-7.91967
▁example	-7.92447
▁main	-7.92493
ness	-7.92725
ist	-7.92988
▁All	-7.92995
▁because	-7.93346
▁N	-7.9377
▁set	-7.94665
▁during	-7.95101
▁person	-7.95853
▁before	-7.96111
ant	-7.96262
K	-7.96479
im	-7.96822
te	-7.97175
ra	-7.973
▁When	-7.9804
id	-7.98122
▁power	-7.98335
is	-7.98968
as	-7.99197
▁already	-7.99416
up	-8.00059
▁possible	-8.00523
ov	-8.00786
▁both	-8.00816
se	-8.00933
me	-8.00982
▁L	-8.01101
ol	-8.0112
▁down	-8.0137
▁man	-8.01781
▁On	-8.01795
▁O	-8.0214
ge	-8.02442
co	-8.02468
▁No	-8.02507
▁con	-8.02708
▁important	-8.02898
▁De	-8.03303
▁children	-8.03375
▁state	-8.03549
▁development	-8.0371
▁those	-8.03812
▁still	-8.05129
▁three	-8.05322
▁find	-8.05858
ance	-8.06039
ated	-8.06214
▁using	-8.06261
▁body	-8.06318
▁great	-8.06827
O	-8.07573
▁c	-8.07785
▁small	-8.07828
man	-8.08185
ne	-8.08206
ce	-8.0886
▁H	-8.0898
▁process	-8.09206
W	-8.09335
▁off	-8.09601
▁She	-8.09703
▁fact	-8.09762
ir	-8.09996
▁form	-8.1077
▁St	-8.10871
▁love	-8.11006
▁course	-8.11136
ro	-8.11464
N	-8.11577
▁control	-8.11833
▁found	-8.12197
▁everything	-8.122
▁data	-8.1224
▁light	-8.12247
▁How	-8.12461
H	-8.12515
▁Russia	-8.12647
ri	-8.12878
ine	-8.12882
ty	-8.13362
▁After	-8.13621
▁city	-8.13796
▁Do	-8.14065
ies	-8.15049
▁hand	-8.15117
U	-8.15261
▁An	-8.15468
▁look	-8.15746
the	-8.15899
▁[	-8.16005
▁level	-8.16236
▁However	-8.16271
▁best	-8.16484
▁special	-8.16496
sh	-8.16618
▁large	-8.17193
ul	-8.17243
▁e	-8.1735
lo	-8.17644
ka	-8.1803
▁company	-8.18138
▁always	-8.18171
ian	-8.18599
ta	-8.18715
▁second	-8.18861
▁U	-8.19139
▁around	-8.19178
▁service	-8.19249
▁business	-8.19834
ous	-8.20573
▁name	-8.2073
▁design	-8.21154
▁another	-8.21407
▁free	-8.21621
▁necessary	-8.21643
ad	-8.21963
▁think	-8.22272
▁support	-8.22402
▁every	-8.22466
▁per	-8.22499
▁come	-8.22702
▁home	-8.22896
▁last	-8.22993
R	-8.23139
▁being	-8.23837
ism	-8.24345
▁co	-8.24433
v	-8.24575
▁...	-8.24896
▁dis	-8.24954
▁say	-8.25807
un	-8.26032
▁lot	-8.26469
ating	-8.26792
tic	-8.26845
▁result	-8.27166
sk	-8.27952
ga	-8.28408
mo	-8.2876
less	-8.29135
▁am	-8.29266
▁area	-8.29812
▁old	-8.30016
▁something	-8.30126
▁often	-8.3033
Y	-8.31045
▁while	-8.31084
▁quality	-8.3128
▁ex	-8.31337
▁point	-8.31593
▁since	-8.31678
▁change	-8.3181
la	-8.31861
▁real	-8.31935
▁left	-8.32069
▁again	-8.32474
▁give	-8.32496
▁little	-8.33881
▁f	-8.34058
be	-8.3422
▁against	-8.34329
▁country	-8.34899
]	-8.35621
▁too	-8.35819
ot	-8.36195
ut	-8.36343
▁room	-8.36463
ial	-8.36799
▁Ma	-8.36932
▁open	-8.36971
▁become	-8.37126
▁according	-8.377
▁group	-8.38367
▁products	-8.38588
▁side	-8.38815
▁st	-8.38907
ac	-8.38981
▁market	-8.38998
▁period	-8.39041
▁pre	-8.39234
▁called	-8.39338
▁general	-8.39665
am	-8.39734
ev	-8.39926
ak	-8.40114
no	-8.40342
▁air	-8.40665
▁family	-8.40939
▁color	-8.41073
▁really	-8.41099
▁days	-8.41295
▁following	-8.41369
▁better	-8.41485
▁put	-8.41566
ru	-8.42051
▁g	-8.43418
▁human	-8.43526
▁With	-8.43699
▁Con	-8.43967
▁several	-8.44033
▁next	-8.44095
▁kind	-8.44328
▁/	-8.44468
▁start	-8.44528
▁amount	-8.44629
▁product	-8.44768
com	-8.44848
and	-8.44976
per	-8.45172
▁house	-8.45294
ization	-8.45447
▁game	-8.45476
ill	-8.46294
▁pro	-8.46307
▁due	-8.46334
▁problem	-8.46355
▁Ba	-8.46668
▁project	-8.46726
▁line	-8.4747
▁money	-8.47594
▁child	-8.47631
▁production	-8.47672
▁took	-8.47762
son	-8.47925
▁account	-8.48415
▁experience	-8.48482
vi	-8.48734
▁type	-8.48891
▁play	-8.48993
."	-8.49619
▁hard	-8.4964
▁program	-8.50216
ling	-8.5023
▁addition	-8.50251
▁Le	-8.50258
ally	-8.50402
▁center	-8.50409
▁m	-8.50588
▁conditions	-8.5085
▁di	-8.5097
▁means	-8.51009
con	-8.51553
min	-8.51639
▁One	-8.5166
,”	-8.51701
▁Co	-8.51891
▁New	-8.52086
▁few	-8.52086
▁began	-8.52146
▁w	-8.52237
▁within	-8.52361
▁away	-8.52454
▁food	-8.52458
one	-8.52498
ni	-8.52804
▁understand	-8.52817
▁social	-8.53144
em	-8.53427
ti	-8.53645
ish	-8.53722
ba	-8.5431
▁region	-8.54372
▁turn	-8.54394
▁team	-8.54509
ized	-8.54585
ted	-8.54746
▁face	-8.54782
ci	-8.55176
ure	-8.552
▁La	-8.55286
ny	-8.55454
▁available	-8.55527
▁various	-8.55651
▁i	-8.55932
▁value	-8.55974
▁why	-8.56017
ence	-8.56147
ig	-8.56228
ck	-8.56278
▁These	-8.56368
▁full	-8.56573
▁material	-8.56576
▁film	-8.56769
op	-8.5681
ting	-8.56893
▁short	-8.56895
▁sub	-8.56932
▁working	-8.57001
ie	-8.57052
mon	-8.573
▁create	-8.57436
ite	-8.57449
od	-8.57867
▁almost	-8.58046
▁came	-8.58201
▁including	-8.58395
mb	-8.58475
▁view	-8.58844
▁local	-8.58898
▁thing	-8.59029
▁never	-8.59205
▁show	-8.59207
rs	-8.5926
▁less	-8.59435
go	-8.59442
▁Be	-8.59491
va	-8.59497
▁Mo	-8.59731
▁—	-8.59984
▁size	-8.60074
▁oil	-8.60083
▁Al	-8.60712
▁law	-8.60882
▁book	-8.6128
▁didn	-8.6131
▁Ra	-8.61459
▁Li	-8.61668
▁until	-8.61674
The	-8.6172
▁got	-8.62061
▁countries	-8.62109
▁post	-8.62135
▁method	-8.62198
di	-8.62257
▁services	-8.62641
▁That	-8.62708
▁position	-8.62712
▁space	-8.63367
▁whole	-8.63669
ful	-8.63695
▁school	-8.63709
▁white	-8.63946
▁able	-8.64199
▁Bo	-8.642
▁God	-8.64208
▁later	-8.6445
▁let	-8.64609
he	-8.64719
▁based	-8.64779
▁Moscow	-8.64984
".	-8.65498
▁increase	-8.65516
▁video	-8.65658
▁above	-8.65787
▁keep	-8.66017
▁young	-8.66049
ative	-8.66064
ap	-8.66109
▁low	-8.66179
▁live	-8.66285
▁Me	-8.66346
▁provide	-8.6667
▁things	-8.66765
▁check	-8.66775
▁times	-8.66835
▁read	-8.67002
▁natural	-8.67012
▁least	-8.67039
▁price	-8.67218
▁fire	-8.67391
▁land	-8.67415
▁non	-8.67426
▁art	-8.6754
▁call	-8.67762
▁equipment	-8.67854
ho	-8.67933
▁J	-8.68111
▁pay	-8.68192
om	-8.68261
▁along	-8.68288
▁went	-8.68354
▁cannot	-8.6839
X	-8.68393
▁became	-8.68401
▁results	-8.68408
▁Sa	-8.68589
▁top	-8.68701
▁Now	-8.68956
▁public	-8.69231
ph	-8.69244
▁going	-8.69441
",	-8.6946
▁modern	-8.69491
▁X	-8.69602
ub	-8.69771
▁Pro	-8.69879
▁given	-8.69928
▁temperature	-8.69985
der	-8.69987
▁close	-8.69996
ya	-8.70149
▁skin	-8.70319
▁situation	-8.7033
▁field	-8.70425
▁problems	-8.70465
▁himself	-8.7077
▁treatment	-8.70924
▁war	-8.7115
▁women	-8.71338
▁among	-8.71434
▁turned	-8.71452
▁tell	-8.71678
▁certain	-8.71688
▁front	-8.71695
ton	-8.71768
▁question	-8.71904
▁current	-8.72281
▁enough	-8.7251
▁everyone	-8.72555
▁model	-8.72638
ard	-8.72676
▁located	-8.72961
▁clear	-8.73025
▁device	-8.73569
▁table	-8.73727
▁list	-8.73776
▁completely	-8.73776
▁building	-8.73799
▁sp	-8.74176
▁Then	-8.74282
▁hair	-8.74469
tra	-8.74552
▁According	-8.74751
pe	-8.74794
▁black	-8.74979
▁surface	-8.75024
▁itself	-8.75055
ow	-8.75308
▁present	-8.75328
ster	-8.75553
tor	-8.75687
▁energy	-8.75935
gu	-8.76048
ha	-8.76192
▁key	-8.76312
▁taken	-8.7651
▁heart	-8.76542
▁range	-8.76635
▁By	-8.76665
▁cost	-8.7675
▁From	-8.76893
line	-8.7694
▁quite	-8.76995
ger	-8.77382
▁night	-8.77416
ver	-8.7743
▁ma	-8.77477
out	-8.77496
▁Ta	-8.77564
▁&	-8.77595
▁today	-8.77702
▁simple	-8.77767
ex	-8.77783
ide	-8.77794
dy	-8.78017
▁known	-8.78044
ron	-8.78078
▁effect	-8.78119
▁age	-8.78222
▁contact	-8.78264
▁blood	-8.7827
▁difficult	-8.78331
ology	-8.78337
▁care	-8.78356
▁sure	-8.78392
▁eyes	-8.78443
▁gas	-8.78481
▁feel	-8.78504
ber	-8.78506
ize	-8.78596
▁anti	-8.78619
▁girl	-8.78719
▁etc	-8.78739
ina	-8.78743
▁personal	-8.78917
▁received	-8.78979
▁future	-8.78994
ag	-8.79062
fi	-8.79146
▁half	-8.79552
▁bar	-8.79556
▁woman	-8.7967
▁run	-8.79679
ities	-8.79763
▁health	-8.7977
▁complex	-8.79773
▁return	-8.79884
▁beautiful	-8.79909
▁individual	-8.80035
▁image	-8.80298
▁common	-8.80398
▁plant	-8.8053
▁subject	-8.80579
do	-8.80596
▁far	-8.80778
ft	-8.80836
▁application	-8.81203
da	-8.81399
▁once	-8.81415
▁specific	-8.81442
os	-8.81497
▁d	-8.81572
▁sh	-8.81623
▁Po	-8.81668
▁words	-8.81755
▁access	-8.81878
▁en	-8.81968
sky	-8.82118
nd	-8.82131
▁near	-8.82137
▁Ka	-8.82335
▁Ca	-8.82337
▁Or	-8.82394
ator	-8.82432
▁r	-8.82569
▁test	-8.82576
▁nothing	-8.82618
▁Ex	-8.82672
▁mode	-8.82713
tro	-8.82746
▁My	-8.82794
▁reason	-8.82928
▁Mar	-8.82933
▁single	-8.82997
▁moment	-8.83078
▁carried	-8.8315
▁site	-8.83421
▁fall	-8.83503
bo	-8.83577
▁red	-8.83674
▁easy	-8.83704
▁together	-8.8391
▁try	-8.83934
que	-8.84287
men	-8.84333
po	-8.84507
▁thought	-8.84644
▁article	-8.85149
▁version	-8.85156
▁strong	-8.85183
▁nature	-8.85289
ab	-8.85344
▁Ne	-8.8535
▁considered	-8.85579
▁section	-8.85606
▁rest	-8.85611
▁done	-8.85617
ke	-8.85748
▁allow	-8.85819
(	-8.85923
▁role	-8.85926
▁attention	-8.85928
▁million	-8.85935
▁minutes	-8.85938
▁construction	-8.86014
ible	-8.86104
▁performance	-8.86392
▁mother	-8.86396
ang	-8.86647
▁content	-8.86777
les	-8.86852
▁study	-8.86983
▁especially	-8.87012
▁answer	-8.87097
▁past	-8.87116
▁function	-8.87156
mi	-8.87225
tion	-8.87403
▁Na	-8.87461
fe	-8.875
ium	-8.87596
▁activity	-8.87668
▁cases	-8.87695
▁similar	-8.87802
ice	-8.87838
mer	-8.881
old	-8.88251
ile	-8.88324
mp	-8.88798
▁Z	-8.8884
▁immediately	-8.88905
▁file	-8.88964
▁yourself	-8.8898
oc	-8.88984
▁Some	-8.89405
▁required	-8.89473
end	-8.90013
▁created	-8.90114
▁four	-8.9027
▁Here	-8.90399
▁stop	-8.90664
▁imp	-8.90712
▁activities	-8.90856
▁connection	-8.90898
ward	-8.91057
▁matter	-8.91155
▁hotel	-8.91279
▁Ro	-8.91395
▁total	-8.91569
▁consider	-8.91596
▁thousand	-8.91615
.”	-8.91623
▁hours	-8.91751
▁bring	-8.9183
▁changes	-8.91853
▁won	-8.92241
▁big	-8.92504
▁features	-8.92622
▁economic	-8.92703
▁international	-8.92706
▁condition	-8.92849
way	-8.92905
▁provided	-8.92926
▁structure	-8.92988
▁government	-8.93042
ring	-8.93059
▁types	-8.93115
▁phone	-8.93155
▁inter	-8.93242
red	-8.93342
▁lower	-8.93456
▁speed	-8.93488
▁professional	-8.9357
▁works	-8.9368
ud	-8.93842
▁men	-8.93844
ca	-8.93932
▁stage	-8.93943
▁risk	-8.94001
▁meeting	-8.94004
ors	-8.94065
▁history	-8.94083
▁needs	-8.94131
▁operation	-8.94136
▁cut	-8.94192
▁national	-8.94301
▁training	-8.94313
▁talk	-8.94447
▁computer	-8.94451
▁Well	-8.94527
▁Let	-8.94795
▁yet	-8.9492
for	-8.94966
▁materials	-8.95003
▁machine	-8.95087
▁clean	-8.95105
▁death	-8.95193
land	-8.95325
mm	-8.95386
▁text	-8.95577
▁self	-8.9565
▁pressure	-8.95866
▁Lo	-8.95897
▁offer	-8.95967
▁move	-8.96075
▁official	-8.96134
▁button	-8.96138
▁card	-8.96266
lin	-8.96337
…	-8.96416
ical	-8.96541
▁organization	-8.9656
▁hands	-8.96625
▁path	-8.96669
▁cover	-8.96699
ions	-8.96761
▁having	-8.96804
▁include	-8.96926
ning	-8.96989
▁months	-8.97008
ko	-8.97071
▁background	-8.97077
▁block	-8.97133
▁heat	-8.97273
▁h	-8.97398
ip	-8.97404
▁press	-8.9742
▁State	-8.97452
▁believe	-8.97501
▁class	-8.97626
king	-8.97646
▁particular	-8.97914
▁Therefore	-8.9792
▁systems	-8.97994
▁themselves	-8.98023
io	-8.98158
ep	-8.98199
▁Federation	-8.98214
▁anything	-8.98349
▁office	-8.98379
▁leave	-8.98492
▁floor	-8.98514
▁Car	-8.98559
▁drive	-8.98622
▁k	-8.98654
▁network	-8.98724
tan	-8.9876
▁mind	-8.98824
vo	-8.98864
▁add	-8.98916
▁interesting	-8.99082
▁break	-8.9923
pro	-8.99243
▁legal	-8.99393
▁Ko	-8.99425
▁road	-8.99434
▁quickly	-8.99622
ner	-8.99642
▁base	-8.99697
▁store	-8.99703
▁photo	-8.99714
▁Ukraine	-8.99829
▁management	-8.99842
▁Can	-9.00045
str	-9.00069
▁style	-9.00181
▁Our	-9.0023
ash	-9.00279
ach	-9.00389
▁solution	-9.00412
▁basis	-9.00587
kin	-9.00601
▁third	-9.00612
by	-9.00623
lu	-9.00697
▁sea	-9.00697
▁complete	-9.00987
qu	-9.00993
lic	-9.01188
▁doesn	-9.01217
▁soon	-9.01331
▁military	-9.01368
▁direction	-9.01569
▁unit	-9.01579
▁normal	-9.01713
ven	-9.01738
▁word	-9.01885
▁receive	-9.01939
ick	-9.01952
▁original	-9.02056
▁$	-9.02107
port	-9.02145
▁ca	-9.02242
▁makes	-9.02413
▁choose	-9.02551
▁screen	-9.0274
▁sound	-9.02775
ction	-9.02822
▁terms	-9.02991
ability	-9.03045
▁visit	-9.0307
▁higher	-9.03104
▁entire	-9.03119
▁weight	-9.03129
hy	-9.03176
bi	-9.03231
▁language	-9.03492
▁la	-9.03634
▁author	-9.03672
▁share	-9.03754
▁issue	-9.03802
▁bit	-9.03817
_	-9.03829
▁Su	-9.04028
▁ground	-9.04187
▁step	-9.04224
form	-9.04225
▁write	-9.04281
gi	-9.04294
sha	-9.04329
▁contract	-9.04414
▁century	-9.04506
▁technology	-9.04544
▁additional	-9.04832
▁either	-9.04935
▁vi	-9.05078
▁ask	-9.05088
▁buy	-9.05198
▁v	-9.05424
▁Ha	-9.05447
▁others	-9.05457
▁job	-9.05468
▁fl	-9.05517
▁Go	-9.05609
▁engine	-9.05719
▁looking	-9.05776
ual	-9.0583
▁allows	-9.05843
▁built	-9.05923
ship	-9.05955
che	-9.05975
pa	-9.06188
▁further	-9.06369
▁court	-9.06371
▁address	-9.06417
let	-9.0646
▁Of	-9.06484
▁please	-9.06547
▁develop	-9.06593
▁comp	-9.06725
▁dream	-9.06732
▁US	-9.0674
▁rate	-9.0675
ze	-9.06798
yl	-9.06875
▁early	-9.0689
▁load	-9.06898
▁prevent	-9.06945
zh	-9.07042
▁sun	-9.07146
▁areas	-9.0715
▁station	-9.07168
▁code	-9.07189
▁user	-9.07198
▁option	-9.07347
▁attack	-9.07389
▁developed	-9.07442
▁metal	-9.07461
ki	-9.07563
▁making	-9.07811
▁Why	-9.07848
ious	-9.07874
▁might	-9.0794
▁date	-9.07954
▁search	-9.08006
▁village	-9.08068
▁ch	-9.08095
▁idea	-9.08183
▁War	-9.0828
▁cause	-9.08411
ten	-9.08488
▁knowledge	-9.08543
▁education	-9.08584
▁movement	-9.08613
we	-9.08626
▁story	-9.08761
▁action	-9.08773
▁taking	-9.09063
▁students	-9.09109
▁American	-9.09168
▁questions	-9.09187
▁protection	-9.09189
▁decided	-9.0928
–	-9.09311
▁simply	-9.09441
gen	-9.09505
▁event	-9.0952
▁concept	-9.09772
▁someone	-9.09789
▁bad	-9.09879
▁link	-9.10117
au	-9.10155
▁foreign	-9.1022
▁ten	-9.10239
▁travel	-9.10279
▁living	-9.10375
ey	-9.10386
▁five	-9.10407
▁wide	-9.10465
▁plan	-9.10666
▁Free	-9.10694
tin	-9.10788
▁practice	-9.1093
sion	-9.11034
▁asked	-9.11079
ah	-9.11112
▁Se	-9.11131
ified	-9.1136
time	-9.11363
▁European	-9.11413
▁friends	-9.11479
▁decision	-9.11541
▁His	-9.11656
▁Pa	-9.1168
▁First	-9.11822
▁held	-9.11952
▁saw	-9.11958
▁series	-9.12061
▁approach	-9.12135
▁im	-9.12358
▁parts	-9.12407
▁below	-9.12538
▁+	-9.1254
side	-9.12716
▁wall	-9.12819
▁ready	-9.12925
J	-9.12933
▁Mi	-9.13037
▁Di	-9.13046
▁standard	-9.13089
▁deal	-9.1324
Z	-9.13353
▁multi	-9.13459
ther	-9.13628
▁page	-9.13684
art	-9.13813
▁remember	-9.13821
▁deep	-9.13831
▁disease	-9.13836
▁German	-9.13907
▁says	-9.13946
▁month	-9.13972
tal	-9.14135
▁usually	-9.14232
▁figure	-9.14256
▁mo	-9.1444
▁music	-9.14536
▁Per	-9.14569
br	-9.14603
▁paper	-9.14619
▁apartment	-9.14629
▁property	-9.14679
hi	-9.14711
ise	-9.14724
▁started	-9.14753
▁request	-9.15016
ai	-9.15037
▁significant	-9.15095
▁bank	-9.15148
▁app	-9.15167
▁stay	-9.15182
▁Ar	-9.15264
sa	-9.15273
▁green	-9.15448
▁flow	-9.156
▁•	-9.15602
ological	-9.15606
▁comes	-9.15667
iv	-9.15786
▁World	-9.15802
av	-9.15901
▁environment	-9.15914
row	-9.16021
▁needed	-9.16022
▁ho	-9.16028
▁popular	-9.1607
▁Yes	-9.16086
▁week	-9.16113
▁longer	-9.16181
▁research	-9.16234
▁financial	-9.16286
▁object	-9.16308
sis	-9.16578
>	-9.16605
cal	-9.16675
our	-9.1689
▁beginning	-9.16961
part	-9.16964
▁dry	-9.17238
▁Vi	-9.17333
▁Man	-9.17337
▁volume	-9.17571
▁else	-9.17631
▁watch	-9.17726
▁#	-9.1781
ight	-9.17837
▁inside	-9.17842
use	-9.17855
▁capital	-9.17968
▁character	-9.18024
▁companies	-9.18046
▁cat	-9.18095
▁payment	-9.18243
▁true	-9.18306
▁methods	-9.184
▁rule	-9.18536
▁Not	-9.18541
▁warm	-9.18555
▁enter	-9.18602
set	-9.18612
led	-9.18671
cre	-9.18677
▁select	-9.18682
▁ago	-9.18765
qui	-9.18774
kov	-9.18822
▁During	-9.1899
nu	-9.19015
▁population	-9.19071
▁ensure	-9.19088
▁Republic	-9.19156
if	-9.19182
▁medical	-9.19206
▁website	-9.19275
▁interest	-9.19472
▁events	-9.19589
▁May	-9.20307
▁Also	-9.20308
chi	-9.20324
ose	-9.20372
▁transfer	-9.20376
▁Even	-9.20574
▁sc	-9.20662
▁elements	-9.20753
▁sent	-9.20788
▁En	-9.20974
gg	-9.21159
▁Pre	-9.21266
ition	-9.21321
▁active	-9.21442
▁political	-9.21446
▁told	-9.2147
▁behind	-9.2151
mit	-9.21559
▁cross	-9.21601
ova	-9.21623
ple	-9.21652
▁security	-9.21688
▁pain	-9.21691
▁included	-9.21694
ries	-9.21832
▁growth	-9.21833
▁physical	-9.219
▁communication	-9.22166
▁TV	-9.22254
▁>	-9.2226
▁Te	-9.22285
▁requirements	-9.22542
▁trade	-9.22661
▁hold	-9.22713
ations	-9.22765
ification	-9.22794
▁layer	-9.22797
▁supply	-9.2294
▁ship	-9.22971
▁father	-9.23048
lov	-9.23123
▁demand	-9.23123
▁choice	-9.23215
▁stand	-9.23229
▁English	-9.23247
▁door	-9.233
▁includes	-9.23391
▁bi	-9.23491
▁Ho	-9.23765
▁increased	-9.23769
▁patients	-9.23904
ler	-9.23964
fa	-9.2405
ay	-9.24078
ore	-9.24099
▁sense	-9.24105
▁separate	-9.24124
▁provides	-9.24134
ug	-9.2442
▁display	-9.24437
ving	-9.24507
▁season	-9.24529
ef	-9.24645
▁Ga	-9.24646
▁online	-9.24703
▁opinion	-9.24716
ER	-9.24734
ound	-9.2496
▁sign	-9.25071
tu	-9.25346
▁Art	-9.25375
ens	-9.25575
▁send	-9.25633
▁hope	-9.25658
▁rubles	-9.25816
▁source	-9.25843
▁Your	-9.25894
▁industry	-9.25941
▁technical	-9.26021
▁seen	-9.2623
▁media	-9.26249
cl	-9.26262
ging	-9.26275
▁meet	-9.2628
▁location	-9.26393
▁worth	-9.26415
▁culture	-9.26437
▁points	-9.26532
▁members	-9.26693
ja	-9.26707
j	-9.26954
▁se	-9.27035
▁lead	-9.27194
pi	-9.27222
▁master	-9.27278
az	-9.27293
▁towards	-9.27314
▁reduce	-9.27322
ory	-9.27404
▁seems	-9.27408
—	-9.27449
dic	-9.27563
▁outside	-9.27612
▁dress	-9.27658
▁blue	-9.277
▁documents	-9.27705
▁Soviet	-9.27715
▁correct	-9.27716
act	-9.27762
▁secret	-9.2782
▁apply	-9.27829
▁Wi	-9.27834
▁ti	-9.27937
pl	-9.2799
);	-9.28057
▁United	-9.28121
▁son	-9.28126
▁gave	-9.2813
▁appear	-9.28185
▁window	-9.28193
▁influence	-9.28403
▁sometimes	-9.28415
▁picture	-9.28439
▁dog	-9.28454
▁damage	-9.28499
▁mass	-9.28712
lan	-9.28712
▁directly	-9.28724
▁signal	-9.28755
▁box	-9.28767
▁mean	-9.29014
▁Jo	-9.29037
▁unique	-9.29071
▁department	-9.29102
▁Photo	-9.29355
▁Th	-9.29363
▁agreement	-9.29386
▁bo	-9.29442
▁Stock	-9.29443
ped	-9.29466
▁Most	-9.29693
za	-9.29726
▁Don	-9.29784
▁however	-9.29798
▁ability	-9.29866
▁mar	-9.29942
▁|	-9.29993
▁ob	-9.30057
▁fight	-9.30235
▁formation	-9.30325
▁transport	-9.30361
▁shape	-9.30423
▁build	-9.30452
▁l	-9.30476
▁eye	-9.30488
▁Just	-9.30489
▁related	-9.30587
▁couple	-9.30589
▁mm	-9.30619
▁fine	-9.3064
▁looked	-9.30649
▁hot	-9.30748
▁report	-9.30752
▁rather	-9.30772
▁command	-9.30799
▁learn	-9.3081
▁six	-9.30836
▁pe	-9.30862
▁bright	-9.30875
▁street	-9.30913
▁lost	-9.30989
▁summer	-9.30994
▁dark	-9.31255
ps	-9.31356
▁switch	-9.31373
▁Dis	-9.31404
▁wanted	-9.31634
▁boy	-9.31738
own	-9.31979
ants	-9.32006
▁Europe	-9.32118
▁cold	-9.32143
wi	-9.32308
▁added	-9.32327
▁length	-9.32389
▁super	-9.32451
▁touch	-9.32585
▁improve	-9.32586
▁society	-9.32592
▁host	-9.32664
▁affect	-9.32693
▁tried	-9.32765
▁shall	-9.32875
▁ne	-9.32908
▁success	-9.33051
izing	-9.33082
▁j	-9.33097
▁shown	-9.33099
▁analysis	-9.33119
▁designed	-9.3312
▁cr	-9.3327
▁glass	-9.33275
ob	-9.33401
ists	-9.33409
▁train	-9.33415
▁Internet	-9.3351
▁positive	-9.33518
press	-9.33527
▁brand	-9.33604
ec	-9.33605
▁easily	-9.33629
▁takes	-9.3365
▁rules	-9.33791
▁changed	-9.3393
▁strength	-9.34058
istic	-9.34063
fo	-9.3411
gor	-9.34178
▁protect	-9.34218
ct	-9.3445
▁ball	-9.3492
▁respect	-9.35015
”,	-9.35034
▁sleep	-9.35138
▁parents	-9.35145
▁*	-9.3534
▁issues	-9.35355
▁Com	-9.35381
▁distance	-9.35495
▁feature	-9.35496
▁famous	-9.3554
val	-9.35645
▁private	-9.35648
▁memory	-9.35659
▁effective	-9.35752
▁Such	-9.35819
▁act	-9.35821
▁remove	-9.35847
▁established	-9.35926
ld	-9.35961
ana	-9.35968
▁term	-9.35973
▁tax	-9.36108
▁mis	-9.36139
▁du	-9.36197
hu	-9.36208
▁groups	-9.36285
▁looks	-9.36373
▁enjoy	-9.36374
▁Thus	-9.36375
▁district	-9.36445
▁installation	-9.36506
▁click	-9.36507
▁Gu	-9.36565
▁task	-9.36617
▁happy	-9.36681
ral	-9.3673
▁devices	-9.36756
▁force	-9.36818
▁although	-9.36838
ek	-9.36848
uff	-9.36867
▁cap	-9.36923
▁police	-9.36964
▁sw	-9.37143
▁Her	-9.37153
▁Since	-9.37168
den	-9.37192
▁po	-9.37252
tr	-9.37288
▁internal	-9.3743
▁morning	-9.3743
air	-9.37519
▁China	-9.3765
▁collection	-9.37691
▁potential	-9.37743
▁options	-9.37814
tain	-9.37835
ich	-9.37895
▁connected	-9.37919
▁General	-9.38079
▁document	-9.38128
▁safe	-9.38187
▁limit	-9.38188
▁equal	-9.38206
▁friend	-9.38227
▁direct	-9.38244
▁average	-9.38371
▁safety	-9.38454
▁procedure	-9.38469
AN	-9.3857
▁shows	-9.38579
ute	-9.38619
nch	-9.38746
▁track	-9.38797
▁Ju	-9.38848
▁final	-9.38867
▁cur	-9.38915
▁frame	-9.38953
▁whether	-9.38982
▁El	-9.39012
▁associated	-9.39133
▁soft	-9.39242
▁appearance	-9.39333
▁save	-9.39362
▁acid	-9.39383
+	-9.39432
▁brought	-9.39448
▁board	-9.39486
▁fi	-9.39534
▁Hotel	-9.39563
▁purpose	-9.39566
▁drink	-9.39587
cle	-9.39666
ell	-9.39674
ient	-9.39692
▁camera	-9.39722
tle	-9.39758
▁patient	-9.39761
▁topic	-9.39845
ably	-9.39887
▁exist	-9.40016
ok	-9.40024
▁stone	-9.40047
▁fish	-9.4006
▁port	-9.40129
▁High	-9.40211
▁myself	-9.40366
▁follow	-9.40398
▁o	-9.40471
▁Only	-9.40553
▁cool	-9.40701
▁fast	-9.40722
▁basic	-9.41066
▁perfect	-9.41133
▁Bu	-9.41146
nt	-9.4135
▁therefore	-9.41366
▁charge	-9.41409
▁appeared	-9.41446
rit	-9.41494
ping	-9.41532
gar	-9.41571
▁maximum	-9.41584
▁doctor	-9.41625
▁pattern	-9.41644
tern	-9.41791
ong	-9.41795
▁actions	-9.41927
▁Service	-9.4193
▁star	-9.41932
mor	-9.41949
ane	-9.42111
▁huge	-9.4214
▁presence	-9.42179
▁maintain	-9.42321
▁doing	-9.42455
▁serious	-9.42509
▁voice	-9.42604
work	-9.42665
▁Please	-9.42747
▁party	-9.42802
ee	-9.42829
▁Each	-9.42868
▁Pi	-9.42908
▁bed	-9.42931
▁wife	-9.42953
▁pa	-9.43199
ris	-9.43258
▁composition	-9.43281
ea	-9.43397
▁written	-9.43527
par	-9.43549
▁fit	-9.43631
▁competition	-9.43644
bu	-9.43653
▁fun	-9.43801
▁Ti	-9.4383
▁determine	-9.43884
▁perform	-9.43891
▁exchange	-9.43929
▁happened	-9.43994
▁driver	-9.44102
ned	-9.44115
▁server	-9.44136
▁eat	-9.44176
▁Many	-9.44222
▁map	-9.44288
▁software	-9.4431
▁exactly	-9.44421
light	-9.4445
tar	-9.44638
▁Da	-9.44664
▁Lu	-9.44688
▁draw	-9.44693
▁allowed	-9.44713
ear	-9.44842
▁walk	-9.4487
ery	-9.44873
ON	-9.44903
▁implementation	-9.44939
▁stock	-9.4503
▁details	-9.4514
▁round	-9.45167
▁continue	-9.45246
▁Ch	-9.45266
▁meaning	-9.45364
▁avoid	-9.45423
▁contains	-9.45437
ino	-9.45473
▁=	-9.45506
▁offers	-9.45666
▁rights	-9.45688
▁born	-9.45695
▁artist	-9.45737
ates	-9.45818
ng	-9.45867
▁major	-9.45981
▁territory	-9.46004
▁States	-9.46131
▁repair	-9.46158
▁install	-9.46221
eg	-9.46238
▁relationship	-9.46291
▁trying	-9.46352
AR	-9.46414
▁roll	-9.46533
▁Un	-9.46566
▁Ministry	-9.46734
ency	-9.46788
▁gift	-9.47122
mal	-9.47142
of	-9.47278
▁difference	-9.47458
▁external	-9.47629
▁performed	-9.47685
▁error	-9.47748
▁properties	-9.47758
▁target	-9.4776
▁accordance	-9.47778
▁anyone	-9.4781
▁listen	-9.47871
▁staff	-9.47887
▁installed	-9.4789
▁winter	-9.47916
board	-9.47972
▁Sea	-9.47972
▁Fa	-9.47983
▁Y	-9.47992
▁conduct	-9.48036
tract	-9.48144
struct	-9.48185
ock	-9.48223
▁element	-9.48247
ake	-9.483
ever	-9.48419
ue	-9.48458
▁gr	-9.48602
▁Bi	-9.4862
uch	-9.4864
▁wish	-9.4865
▁meters	-9.48652
▁policy	-9.48656
▁opportunity	-9.4868
▁record	-9.48715
▁across	-9.48734
uk	-9.48742
▁paid	-9.48766
▁users	-9.48804
▁km	-9.48851
fin	-9.48862
▁member	-9.4887
▁sports	-9.48879
ran	-9.48977
▁Black	-9.49012
▁goal	-9.4908
▁worked	-9.49119
▁University	-9.49211
tri	-9.49267
▁release	-9.49273
▁drop	-9.49362
▁cell	-9.49373
ik	-9.49561
▁forest	-9.49588
▁Ya	-9.49707
gram	-9.49807
▁pass	-9.49886
▁useful	-9.49927
▁purchase	-9.49946
▁joint	-9.49982
▁concern	-9.49995
▁Ri	-9.50044
▁drug	-9.50045
▁Great	-9.50054
▁micro	-9.50085
▁holiday	-9.50185
▁sex	-9.50203
▁Gra	-9.50215
ify	-9.50331
▁processes	-9.50367
▁symbol	-9.50373
▁places	-9.50503
▁hit	-9.50526
▁values	-9.50572
▁authorities	-9.50724
spect	-9.50773
▁bottom	-9.50856
▁determined	-9.50991
▁suit	-9.51011
gan	-9.5103
▁President	-9.51105
▁goods	-9.51218
▁lack	-9.51305
▁gives	-9.51328
▁loss	-9.51583
▁match	-9.5176
▁decrease	-9.51781
▁grow	-9.5181
▁getting	-9.51905
▁fat	-9.51962
ray	-9.52029
▁director	-9.52041
cu	-9.52107
▁mark	-9.52148
▁soul	-9.52178
▁Bar	-9.52354
°	-9.52463
ments	-9.52626
▁Qu	-9.52653
IN	-9.52765
▁investment	-9.52777
▁ever	-9.52787
▁behavior	-9.52811
].	-9.52858
▁French	-9.52934
kh	-9.53004
▁Are	-9.53016
▁dead	-9.53018
▁previous	-9.53072
▁forward	-9.53087
▁formed	-9.53113
▁response	-9.53125
▁reach	-9.53222
meter	-9.53276
tur	-9.53307
▁science	-9.53322
▁wrote	-9.53389
▁Du	-9.53396
▁becomes	-9.53451
▁Fe	-9.53576
▁excellent	-9.53704
▁trip	-9.53722
▁probably	-9.53723
▁hour	-9.539
▁motor	-9.5396
▁objects	-9.53986
▁download	-9.54
▁mountain	-9.54008
▁movie	-9.54062
ST	-9.5409
grad	-9.54192
▁x	-9.54268
▁filter	-9.54356
ged	-9.54378
▁hundred	-9.54456
▁variety	-9.54468
▁spring	-9.54487
▁though	-9.54522
▁games	-9.54533
▁Windows	-9.5456
▁flight	-9.54575
ju	-9.54596
ular	-9.54626
AL	-9.54721
▁negative	-9.54774
▁zone	-9.54934
▁applied	-9.54943
▁desire	-9.54981
▁note	-9.54996
▁traditional	-9.54999
▁prices	-9.55005
▁resources	-9.55046
▁Use	-9.55086
over	-9.55094
▁wind	-9.55134
▁upon	-9.55229
▁focus	-9.55263
▁cells	-9.55382
▁Sha	-9.5549
▁employees	-9.55529
si	-9.55529
ix	-9.55532
▁battle	-9.5554
▁combination	-9.55547
cur	-9.55607
du	-9.55616
▁costs	-9.55632
▁height	-9.55632
hen	-9.557
We	-9.55765
IS	-9.55815
▁Dr	-9.55816
▁labor	-9.55823
▁closed	-9.55914
tter	-9.55917
▁tank	-9.56082
▁baby	-9.56211
▁wheel	-9.5625
▁ancient	-9.56284
▁International	-9.56395
▁reaction	-9.56412
▁levels	-9.565
▁late	-9.56511
wa	-9.56539
In	-9.56542
▁speak	-9.56598
ign	-9.56633
▁plastic	-9.56669
▁mobile	-9.56688
▁liquid	-9.56755
▁Sp	-9.56775
▁Work	-9.56781
▁wait	-9.56811
▁forms	-9.5684
ric	-9.56858
ture	-9.56858
▁tool	-9.56864
▁trans	-9.56886
▁measures	-9.57072
▁operating	-9.571
ets	-9.57171
eva	-9.57184
▁begin	-9.5721
▁components	-9.57226
▁wave	-9.5724
▁running	-9.57286
▁fully	-9.57319
▁hospital	-9.57326
▁scientific	-9.57333
▁fo	-9.57404
▁projects	-9.57408
▁tree	-9.57425
▁More	-9.57456
ren	-9.57496
rus	-9.57526
▁church	-9.57584
ovich	-9.5761
▁opened	-9.57614
east	-9.57642
▁photos	-9.57705
▁pan	-9.57769
▁suitable	-9.5783
▁actually	-9.57834
body	-9.57851
▁National	-9.57887
▁presented	-9.57889
▁para	-9.57892
▁nice	-9.57979
▁Where	-9.58145
▁op	-9.58206
▁restaurant	-9.58215
▁Center	-9.58249
▁min	-9.5826
rap	-9.58278
lon	-9.58303
▁accept	-9.58448
ole	-9.58468
▁models	-9.58497
▁impossible	-9.585
not	-9.58516
▁rooms	-9.58549
▁balance	-9.58573
ase	-9.58615
▁evening	-9.58616
▁Who	-9.58641
bb	-9.58738
ley	-9.58821
ES	-9.58836
▁pick	-9.58843
▁steel	-9.58846
▁breath	-9.58846
oth	-9.58909
▁mechanism	-9.5891
oo	-9.5891
▁status	-9.58931
▁comfortable	-9.58995
▁icon	-9.59007
▁panel	-9.59009
▁budget	-9.5906
pp	-9.59075
▁died	-9.59358
vent	-9.59359
▁husband	-9.59367
▁wood	-9.5948
▁middle	-9.59496
▁Si	-9.59512
▁goes	-9.59582
▁met	-9.59832
cha	-9.59871
▁App	-9.60064
▁statement	-9.60068
▁manufacturer	-9.60136
car	-9.60177
▁ro	-9.6025
▁garden	-9.60315
▁cable	-9.60376
▁described	-9.60395
▁town	-9.60417
lor	-9.60448
cy	-9.60488
▁December	-9.60546
▁message	-9.60565
ches	-9.60606
▁girls	-9.60626
▁fuel	-9.60667
▁gain	-9.60772
▁brother	-9.60777
duc	-9.60904
▁whose	-9.60911
▁noted	-9.60987
len	-9.60999
▁count	-9.61004
mark	-9.61059
▁em	-9.61059
▁former	-9.6108
▁remain	-9.61101
▁refer	-9.61118
▁animals	-9.6112
▁pump	-9.61212
ult	-9.61228
▁felt	-9.61265
▁interested	-9.61322
sur	-9.61364
low	-9.61396
▁initial	-9.61404
▁remains	-9.61459
▁edge	-9.61476
▁caused	-9.61616
▁fresh	-9.61639
▁educational	-9.61683
▁depends	-9.6179
ari	-9.61831
▁People	-9.61873
▁explain	-9.61889
rd	-9.62054
▁Mu	-9.62145
▁cm	-9.62182
▁heard	-9.62331
rov	-9.62366
fu	-9.62387
▁fell	-9.6246
▁wrong	-9.62499
▁recommend	-9.62506
ically	-9.62564
▁impact	-9.62592
▁Today	-9.62738
▁earth	-9.62791
▁daughter	-9.6281
▁talking	-9.6283
▁Another	-9.62955
▁played	-9.62955
▁diseases	-9.62973
▁likely	-9.62994
▁sample	-9.63021
▁client	-9.63038
▁limited	-9.63054
▁Chinese	-9.63055
▁mu	-9.63067
▁output	-9.63127
▁taste	-9.63221
zz	-9.63289
▁root	-9.63341
▁clearly	-9.6336
▁passed	-9.63365
▁na	-9.63369
▁storage	-9.63375
▁bag	-9.63399
▁March	-9.63439
▁letter	-9.63464
▁lines	-9.63464
EN	-9.63476
▁Red	-9.63505
▁fear	-9.63538
▁kill	-9.63552
▁regional	-9.63567
▁colors	-9.63571
▁radio	-9.63595
bas	-9.63716
▁menu	-9.63803
▁river	-9.6382
ble	-9.63902
▁serve	-9.63958
▁September	-9.63962
▁whom	-9.64024
AT	-9.64077
cul	-9.64141
▁seem	-9.6421
▁factors	-9.64217
har	-9.64244
▁fa	-9.64319
▁Fi	-9.64352
▁global	-9.64464
▁extra	-9.64465
▁Vector	-9.64491
▁processing	-9.64533
▁selected	-9.64585
▁led	-9.646
▁kitchen	-9.64622
chan	-9.64653
▁Hu	-9.64665
▁lives	-9.64678
▁files	-9.64679
,"	-9.64694
su	-9.64741
load	-9.6475
”.	-9.64755
▁turns	-9.648
lig	-9.64854
OR	-9.64854
▁appropriate	-9.65009
nce	-9.65026
und	-9.65046
▁placed	-9.65052
▁organizations	-9.65077
room	-9.65115
▁October	-9.65169
▁functions	-9.65203
▁route	-9.65207
han	-9.65275
▁items	-9.65341
▁pen	-9.6536
▁require	-9.65487
▁plate	-9.65496
ties	-9.65504
▁Any	-9.65522
▁Ukrainian	-9.65628
▁plants	-9.65702
▁Q	-9.65751
serv	-9.65752
▁thanks	-9.65756
▁Roman	-9.65763
▁powerful	-9.65803
▁economy	-9.65837
year	-9.65905
▁Although	-9.65907
lar	-9.65914
▁central	-9.65977
ou	-9.65985
▁capacity	-9.66026
my	-9.66054
yan	-9.66054
lip	-9.66102
▁programs	-9.66259
▁owner	-9.66423
▁Because	-9.66454
▁leading	-9.66463
ker	-9.66511
nov	-9.6652
▁covered	-9.6653
▁Ad	-9.66555
▁creation	-9.66613
iz	-9.66633
▁Ru	-9.66644
fer	-9.66668
▁customers	-9.6672
▁degree	-9.6674
▁review	-9.66748
▁June	-9.66802
▁battery	-9.66848
▁platform	-9.66869
▁Vol	-9.66901
▁Code	-9.66926
▁via	-9.66961
▁units	-9.66992
vers	-9.67068
▁managed	-9.67069
▁successful	-9.67096
▁principle	-9.672
ome	-9.67238
▁leaves	-9.67282
lock	-9.67282
▁beauty	-9.67286
▁treat	-9.67321
▁Air	-9.67382
▁package	-9.67393
▁player	-9.6746
Q	-9.67525
itis	-9.67544
▁recommended	-9.67564
ave	-9.67587
▁guarantee	-9.67662
▁Cor	-9.67714
amp	-9.67726
▁forces	-9.67736
▁rich	-9.6774
vel	-9.67742
▁feed	-9.67766
▁removed	-9.67774
▁Part	-9.67927
▁format	-9.67931
graph	-9.67953
▁instead	-9.68012
ject	-9.68061
rk	-9.681
▁sector	-9.68102
▁Ge	-9.6813
▁double	-9.68134
▁Germany	-9.68167
▁spend	-9.68199
ough	-9.68202
▁South	-9.68305
▁poor	-9.68318
iff	-9.68327
▁January	-9.68383
▁alone	-9.68541
▁ring	-9.6862
▁criminal	-9.68793
▁income	-9.68823
▁border	-9.68854
▁participants	-9.68854
▁Add	-9.68904
▁Pe	-9.69075
▁relations	-9.69149
▁extremely	-9.69329
▁gold	-9.69331
RE	-9.69352
▁sale	-9.69367
ier	-9.69372
▁City	-9.69444
pri	-9.69449
lf	-9.69512
cing	-9.69534
▁interior	-9.69631
▁birth	-9.6964
ung	-9.69666
▁Sh	-9.6967
▁selection	-9.69707
▁chance	-9.69723
▁carry	-9.69731
iti	-9.69732
▁ways	-9.69753
▁foot	-9.69815
mat	-9.69923
uck	-9.70141
▁traffic	-9.70147
▁opening	-9.70152
▁reading	-9.70168
mic	-9.70271
▁guide	-9.70286
▁bus	-9.70295
sol	-9.70311
▁daily	-9.70344
▁burn	-9.70348
▁customer	-9.70349
▁Council	-9.70373
▁published	-9.70374
▁prepared	-9.70408
▁title	-9.70514
▁effects	-9.70518
med	-9.70582
▁feeling	-9.70608
▁Group	-9.70671
▁August	-9.70739
▁rise	-9.70768
▁Bank	-9.70801
▁snow	-9.70943
▁belong	-9.70992
ration	-9.71066
▁Central	-9.71077
cra	-9.71106
▁skills	-9.71115
▁weeks	-9.71118
rr	-9.71142
▁teacher	-9.7115
▁attempt	-9.71183
▁setting	-9.71216
▁reported	-9.71269
▁settings	-9.71359
rush	-9.7138
▁horse	-9.71442
▁poly	-9.71499
▁preparation	-9.71535
▁April	-9.71542
▁manager	-9.71712
▁ear	-9.7178
▁hole	-9.71919
ins	-9.71961
ox	-9.72085
▁throughout	-9.7209
▁progress	-9.72116
▁brain	-9.72137
▁connect	-9.72177
▁reasons	-9.7222
▁largest	-9.72272
lk	-9.72295
ding	-9.72325
▁par	-9.72329
▁lose	-9.7233
▁sa	-9.72335
▁released	-9.7237
▁enable	-9.72458
▁Note	-9.72461
▁band	-9.72547
▁electronic	-9.72568
PS	-9.72601
▁equipped	-9.72644
bra	-9.72719
bal	-9.7272
▁Ver	-9.7287
▁walls	-9.73006
▁Yu	-9.73033
▁club	-9.73078
▁farm	-9.73095
▁gun	-9.73107
▁Kazakhstan	-9.7316
▁spread	-9.73201
▁reality	-9.73299
▁pictures	-9.733
▁Ni	-9.73309
▁Alexander	-9.7334
▁cook	-9.73346
▁Over	-9.73404
▁characteristics	-9.73475
▁Comp	-9.73493
▁Shi	-9.73513
▁channel	-9.73545
▁achieve	-9.73573
▁drawing	-9.73587
matic	-9.73635
oid	-9.73729
▁waiting	-9.73846
▁corner	-9.7385
▁commercial	-9.73853
cess	-9.73934
OS	-9.73945
skaya	-9.73973
▁constantly	-9.7404
▁regular	-9.7413
▁profit	-9.7415
ax	-9.74156
▁sharp	-9.74204
graphic	-9.74232
back	-9.74359
▁highest	-9.74364
▁seat	-9.74373
▁shop	-9.74394
nic	-9.74396
▁Home	-9.74505
bit	-9.74506
▁increasing	-9.74506
▁forget	-9.74539
▁speech	-9.74544
▁obtained	-9.74597
▁easier	-9.74605
▁vehicle	-9.74651
▁relevant	-9.74689
▁sensor	-9.74759
▁Val	-9.7478
can	-9.74796
▁Law	-9.74804
int	-9.74877
▁park	-9.74881
▁community	-9.74888
▁fix	-9.74901
▁studies	-9.74957
right	-9.74974
lect	-9.75043
bar	-9.75064
▁Union	-9.75069
▁collect	-9.75075
▁auto	-9.75106
▁produce	-9.75175
▁conflict	-9.75208
▁contain	-9.75233
▁soil	-9.75257
▁wear	-9.75271
▁healthy	-9.75345
▁knew	-9.75356
▁See	-9.75415
▁credit	-9.75421
▁images	-9.75427
py	-9.75441
▁accident	-9.7555
▁Va	-9.75566
aries	-9.7557
▁convenient	-9.75686
▁July	-9.75754
▁industrial	-9.75755
tical	-9.7577
▁alcohol	-9.75786
▁animal	-9.7581
▁coming	-9.75817
▁John	-9.75825
so	-9.75828
▁Other	-9.75856
▁stress	-9.75912
rac	-9.75989
▁returned	-9.7599
top	-9.76004
ham	-9.76016
aging	-9.76032
▁generation	-9.76069
▁pet	-9.76078
▁cities	-9.76117
▁named	-9.76135
▁responsible	-9.76188
▁Pu	-9.76227
▁smooth	-9.76266
▁log	-9.76362
▁shot	-9.76367
▁requires	-9.76433
▁favorite	-9.7647
▁heavy	-9.76523
▁Two	-9.76553
ib	-9.76581
▁circle	-9.76734
▁understanding	-9.76738
▁tools	-9.76789
▁delivery	-9.76811
▁Am	-9.76899
▁hat	-9.76916
=	-9.7696
shi	-9.76974
hal	-9.76999
▁lock	-9.77012
cycl	-9.77021
CH	-9.77024
▁seven	-9.77026
▁workers	-9.77057
▁student	-9.77134
▁books	-9.77277
▁instrument	-9.77286
▁rock	-9.77376
▁beach	-9.77429
▁Tra	-9.77435
▁ideas	-9.77453
fri	-9.77472
▁cha	-9.77495
ney	-9.77526
▁November	-9.77639
▁enterprise	-9.77745
▁entered	-9.77787
▁hear	-9.77799
▁Ste	-9.77825
▁Good	-9.77872
▁tea	-9.77877
▁web	-9.77914
▁North	-9.77949
rea	-9.77974
▁citizens	-9.77996
▁Before	-9.78025
▁starting	-9.78029
▁army	-9.78084
▁funds	-9.78084
▁copy	-9.781
ook	-9.78135
▁flower	-9.78142
▁claim	-9.7817
cer	-9.78173
▁smile	-9.78179
lat	-9.78216
▁flat	-9.78358
▁involved	-9.78442
▁rid	-9.78467
▁adjust	-9.78524
gro	-9.78585
▁steps	-9.78619
▁fashion	-9.78706
▁expected	-9.78714
▁square	-9.78722
og	-9.78733
▁agent	-9.78738
▁happen	-9.78786
▁bodies	-9.78825
▁flowers	-9.78827
▁electric	-9.7885
▁slightly	-9.79015
▁painting	-9.79016
▁update	-9.79023
▁Committee	-9.79056
▁Every	-9.79068
▁chain	-9.79078
▁milk	-9.79107
late	-9.79191
▁inform	-9.79233
her	-9.79234
▁truth	-9.79272
▁conclusion	-9.79286
pre	-9.79295
▁trust	-9.79336
▁detect	-9.79386
▁counter	-9.7939
▁island	-9.7951
▁firm	-9.79532
▁syn	-9.79576
▁scale	-9.7959
▁multiple	-9.79716
gel	-9.79822
▁highly	-9.79861
▁produced	-9.79873
▁Che	-9.79883
▁description	-9.79889
▁tasks	-9.79926
▁agree	-9.80098
▁iron	-9.80154
▁developing	-9.80213
▁Pri	-9.80238
▁manual	-9.80239
rot	-9.8025
▁institutions	-9.80284
▁thinking	-9.80305
▁historical	-9.8031
▁creating	-9.80333
▁afraid	-9.80388
▁ideal	-9.8039
▁East	-9.8041
▁weather	-9.80413
▁sales	-9.80454
▁stick	-9.80469
▁applications	-9.80505
place	-9.80509
▁writing	-9.80518
▁resistance	-9.80556
▁specified	-9.80565
▁calm	-9.80606
▁straight	-9.80615
▁carefully	-9.80744
▁Ku	-9.80757
▁Under	-9.80762
▁jump	-9.80802
ache	-9.80804
off	-9.80883
▁meat	-9.80998
ologist	-9.8102
▁distribution	-9.81045
▁While	-9.81045
▁lived	-9.81048
sta	-9.81065
▁About	-9.811
▁pool	-9.81128
ans	-9.81183
cept	-9.81303
▁chemical	-9.81314
▁leg	-9.81346
cus	-9.81348
▁paint	-9.81459
Ma	-9.8147
▁Christ	-9.8163
▁scene	-9.81631
▁Day	-9.81645
▁parties	-9.8168
▁finally	-9.8168
vy	-9.81704
!!!	-9.81892
▁sold	-9.81942
▁Moreover	-9.81952
▁existing	-9.81991
▁sources	-9.82009
▁solid	-9.8222
▁Once	-9.82221
▁phase	-9.82301
▁expensive	-9.82305
▁hall	-9.82325
▁reached	-9.82394
ace	-9.82465
\	-9.82486
▁factor	-9.82578
▁evidence	-9.8261
rate	-9.8261
▁pipe	-9.82623
▁appears	-9.82637
▁mental	-9.82648
▁amazing	-9.82676
▁occur	-9.82687
▁Col	-9.827
▁moved	-9.82768
ories	-9.82771
▁seemed	-9.82814
▁trend	-9.82829
▁expect	-9.82855
▁pack	-9.82886
▁operations	-9.82887
▁win	-9.82899
▁Power	-9.82933
▁vector	-9.82964
▁handle	-9.83028
▁Company	-9.83032
▁Cha	-9.83101
LE	-9.83125
▁standards	-9.83161
▁input	-9.83187
AS	-9.83249
osis	-9.83276
▁Cre	-9.83298
▁sheet	-9.83302
▁Sc	-9.83314
dis	-9.83337
day	-9.83353
▁finish	-9.83414
▁Vladimir	-9.83422
▁regions	-9.83461
▁cream	-9.83486
▁thin	-9.83537
▁leader	-9.83552
▁Mon	-9.8357
ons	-9.83586
▁Department	-9.83589
▁enemy	-9.83623
▁Everything	-9.83657
▁guard	-9.83657
nal	-9.8366
▁System	-9.8379
▁push	-9.83809
IT	-9.83812
▁<	-9.83851
ff	-9.83881
▁participate	-9.8389
RO	-9.83904
▁essential	-9.83907
▁ones	-9.8394
▁sort	-9.83961
▁bra	-9.84014
▁sky	-9.84073
▁piece	-9.84121
▁scar	-9.84135
▁possibility	-9.84158
iness	-9.84164
▁San	-9.84168
▁fr	-9.84189
▁aircraft	-9.84197
mar	-9.84197
▁continued	-9.84209
▁billion	-9.84261
▁neighbor	-9.84292
▁infection	-9.84302
▁spot	-9.84319
▁operate	-9.84321
vil	-9.8434
▁salt	-9.8442
▁automatically	-9.84451
▁Ja	-9.84451
▁moving	-9.84501
▁White	-9.84511
▁cars	-9.8458
▁Lord	-9.84591
ators	-9.8463
▁players	-9.84663
▁license	-9.84663
▁Tri	-9.84681
ivity	-9.84737
▁reports	-9.84749
▁fixed	-9.848
▁certificate	-9.84907
cent	-9.84924
▁showed	-9.84997
ew	-9.85065
▁PC	-9.85105
▁diet	-9.85128
▁spoke	-9.85194
▁reduced	-9.85198
▁expand	-9.85204
ert	-9.85294
▁dance	-9.85303
▁medicine	-9.85356
▁sat	-9.85504
oma	-9.85509
▁parameters	-9.85515
pic	-9.85599
▁drugs	-9.85648
▁independent	-9.85847
▁technologies	-9.85927
hop	-9.85947
MA	-9.86028
▁strange	-9.86055
▁acc	-9.86115
ography	-9.86172
▁bird	-9.86181
tim	-9.86282
US	-9.86362
EC	-9.86433
▁pretty	-9.86458
▁creative	-9.86475
▁provision	-9.86539
▁loan	-9.86583
van	-9.86585
▁America	-9.86669
▁module	-9.86693
▁Church	-9.86698
▁completed	-9.86802
MS	-9.86813
▁administration	-9.86905
▁Year	-9.8691
see	-9.86911
▁sweet	-9.86915
▁earn	-9.86936
▁regard	-9.86955
▁Christian	-9.86956
dle	-9.86974
tom	-9.8701
▁begins	-9.87039
▁mix	-9.87075
▁conversation	-9.87103
▁Gen	-9.87119
▁pur	-9.8714
▁upper	-9.87204
▁reference	-9.87298
▁happens	-9.87314
wing	-9.87357
roll	-9.87407
▁cor	-9.87449
▁plans	-9.87454
▁recently	-9.87464
▁Ye	-9.87502
gue	-9.87514
▁exception	-9.87549
▁yellow	-9.8758
▁detail	-9.87596
▁compared	-9.87673
▁cheap	-9.87685
▁Bra	-9.87696
vis	-9.87714
▁session	-9.87729
▁rain	-9.87783
................	-9.87849
▁depending	-9.87866
▁growing	-9.87968
▁buildings	-9.87986
▁mono	-9.88015
▁relax	-9.88032
▁digital	-9.88119
▁Set	-9.88133
▁significantly	-9.88203
▁sand	-9.88236
ulation	-9.8824
▁currently	-9.88293
▁guests	-9.88313
lies	-9.88315
▁Ki	-9.88335
▁notice	-9.88346
▁spiritual	-9.88419
zo	-9.88438
ses	-9.88472
▁slow	-9.88475
▁schedule	-9.88478
uc	-9.88499
gy	-9.88504
▁earlier	-9.88513
▁Minister	-9.8853
ene	-9.88578
▁crime	-9.88628
▁sit	-9.88673
▁solutions	-9.88724
put	-9.88743
cho	-9.88751
*	-9.88771
▁origin	-9.88786
▁column	-9.88802
▁representatives	-9.88813
▁correspond	-9.88872
▁lo	-9.88943
▁registration	-9.88943
▁failure	-9.88956
▁doubt	-9.88989
▁mouth	-9.89014
▁House	-9.89028
its	-9.89052
▁ver	-9.89088
TA	-9.89093
▁Light	-9.89119
▁obvious	-9.89119
▁Kh	-9.89197
▁express	-9.89208
▁Director	-9.8924
▁consumer	-9.89297
▁ice	-9.89313
nes	-9.89428
▁obtain	-9.89489
▁Image	-9.89497
din	-9.89508
▁Em	-9.89554
▁generally	-9.89577
▁camp	-9.89607
atch	-9.89633
▁Thanks	-9.89634
▁thread	-9.89642
▁exceed	-9.8965
▁Product	-9.89679
▁thick	-9.89752
▁waste	-9.89777
▁tissue	-9.89836
?”	-9.89928
▁feet	-9.89945
▁Mr	-9.8995
▁advantage	-9.89965
▁coffee	-9.89995
▁die	-9.90033
▁structures	-9.90037
▁herself	-9.90098
▁Hi	-9.90117
▁Ab	-9.90156
▁pair	-9.90196
▁item	-9.90197
oph	-9.90252
tress	-9.9029
ama	-9.90298
▁song	-9.90361
etic	-9.90469
▁wire	-9.90485
enko	-9.90594
▁ran	-9.90717
▁plot	-9.90792
▁learning	-9.90844
sign	-9.90866
▁constant	-9.90884
▁France	-9.90925
▁benefits	-9.90957
hol	-9.91042
ility	-9.9106
zi	-9.91075
Re	-9.91112
▁minimum	-9.91113
▁interface	-9.91121
▁Petersburg	-9.91131
▁n	-9.91134
▁clothes	-9.9115
▁Japanese	-9.91207
▁signs	-9.91212
▁protein	-9.9123
▁cultural	-9.91278
▁consist	-9.91292
▁wonderful	-9.913
▁cycle	-9.91306
▁visual	-9.91358
▁fabric	-9.9141
▁spirit	-9.91471
rist	-9.91615
▁heating	-9.91651
▁decide	-9.91714
cip	-9.91742
▁February	-9.91781
▁offered	-9.91782
▁Fo	-9.91785
▁experiment	-9.91864
▁mixture	-9.91879
▁THE	-9.91881
▁typical	-9.91941
▁Men	-9.91973
lash	-9.92004
▁voltage	-9.92044
▁legs	-9.92105
sure	-9.92107
▁prove	-9.92116
▁tradition	-9.92144
▁species	-9.92165
▁states	-9.92175
▁profile	-9.92216
▁fill	-9.92281
▁attract	-9.92327
▁frequency	-9.9236
▁lay	-9.924
▁II	-9.9242
▁causes	-9.92452
RA	-9.92473
▁Bel	-9.92514
▁represent	-9.92548
reg	-9.9257
ibility	-9.92572
▁expression	-9.92615
miss	-9.92675
▁egg	-9.92741
▁Get	-9.92781
▁mistake	-9.92791
▁suddenly	-9.92799
é	-9.92846
ade	-9.92859
▁Za	-9.92885
▁Trans	-9.92904
gra	-9.93047
▁playing	-9.93063
▁mid	-9.93126
▁disc	-9.93141
▁practical	-9.93149
▁instructions	-9.93156
▁stopped	-9.93157
▁cooperation	-9.93231
▁OF	-9.93269
▁Check	-9.93273
dia	-9.93318
▁wine	-9.93427
iev	-9.93476
▁British	-9.93673
ush	-9.93701
AC	-9.93783
▁bio	-9.9381
RI	-9.93902
▁angle	-9.9392
▁environmental	-9.93954
▁characters	-9.93963
▁recent	-9.93966
box	-9.9399
yn	-9.94005
▁mod	-9.94023
▁ordinary	-9.94042
St	-9.94096
duct	-9.94118
▁Park	-9.94301
▁female	-9.94348
ura	-9.94349
▁seal	-9.94354
▁advance	-9.94391
▁remained	-9.94564
▁ha	-9.94574
▁Sam	-9.9466
▁definitely	-9.94777
cial	-9.94788
▁followed	-9.94853
▁mainly	-9.94906
▁honor	-9.94918
bor	-9.94954
You	-9.94959
term	-9.94987
pen	-9.94999
temp	-9.95079
▁increases	-9.95102
▁valve	-9.95143
AM	-9.95164
▁operator	-9.95193
▁regulation	-9.95225
▁transaction	-9.95228
tribu	-9.95244
▁monitor	-9.95254
▁sta	-9.95283
ED	-9.95285
▁dynamic	-9.953
▁ta	-9.95315
▁defend	-9.95338
▁strengthen	-9.9536
▁dangerous	-9.95365
▁Make	-9.95396
▁roof	-9.95397
res	-9.95413
▁Out	-9.95444
fully	-9.95469
▁occurs	-9.95469
vin	-9.95487
▁helps	-9.955
▁domestic	-9.95563
▁blow	-9.95592
▁deposit	-9.95661
bl	-9.95679
▁Sta	-9.95695
▁bought	-9.95742
▁Maybe	-9.95812
▁Water	-9.9582
▁bath	-9.95856
▁Min	-9.9591
onic	-9.95932
▁pull	-9.96046
▁greater	-9.96065
▁pure	-9.96105
otic	-9.96117
EL	-9.96128
▁theory	-9.96213
▁guy	-9.96228
▁Ve	-9.96263
til	-9.96301
▁Take	-9.96402
▁Earth	-9.96404
ET	-9.96411
▁solve	-9.9645
hood	-9.96467
tric	-9.96488
▁severe	-9.96514
pping	-9.96526
▁Play	-9.96541
▁category	-9.96593
▁remote	-9.96594
▁partner	-9.96601
▁interests	-9.96644
▁examination	-9.96824
▁holding	-9.96832
▁medium	-9.96842
▁commission	-9.96898
Ch	-9.96923
▁eight	-9.96944
gre	-9.96996
▁efficiency	-9.9706
mu	-9.97124
▁tri	-9.97155
▁Open	-9.97187
bin	-9.97215
ING	-9.9724
flow	-9.97257
ks	-9.97274
▁freedom	-9.97274
point	-9.97461
▁Je	-9.97523
ette	-9.97532
acy	-9.97574
▁housing	-9.97597
▁photograph	-9.97603
▁respond	-9.97759
▁Read	-9.97765
▁shoot	-9.97768
IC	-9.97849
▁Design	-9.97873
▁fruit	-9.97991
▁Select	-9.98051
▁symptoms	-9.98111
▁atmosphere	-9.98202
▁consumption	-9.98217
▁Nor	-9.98232
▁insurance	-9.98241
▁spent	-9.98285
lia	-9.9833
app	-9.98342
▁lift	-9.98535
NA	-9.98538
▁Their	-9.98572
▁illustration	-9.98579
▁leads	-9.9858
▁facilities	-9.98618
verse	-9.98629
▁lesson	-9.98649
▁kids	-9.9866
proof	-9.98737
▁Look	-9.98763
▁su	-9.98771
▁pla	-9.98773
▁forced	-9.9882
▁reserve	-9.98843
lit	-9.98853
▁observed	-9.98868
ians	-9.98884
▁maintenance	-9.98899
▁Have	-9.98995
SS	-9.99004
bel	-9.9906
ku	-9.99062
▁quiet	-9.99174
lea	-9.99183
▁advice	-9.99211
▁numbers	-9.99259
▁restore	-9.99261
▁row	-9.99299
▁weapons	-9.99318
▁rear	-9.99333
▁maybe	-9.99471
▁names	-9.99552
free	-9.99566
▁settlement	-9.99622
tech	-9.99635
▁coll	-9.99659
▁kept	-9.99708
▁peace	-9.99709
night	-9.99726
pon	-9.99729
▁Inter	-9.99758
▁consists	-9.99774
arm	-9.99821
▁announced	-9.99859
bri	-9.99863
▁mentioned	-9.99877
▁rank	-9.99895
▁changing	-9.99965
▁purposes	-9.99979
▁exercise	-10
▁debt	-10.0006
▁civil	-10.0011
▁manage	-10.0012
▁therapy	-10.0013
▁percent	-10.0015
▁hero	-10.0021
▁importance	-10.0021
▁attitude	-10.0025
▁follows	-10.0026
▁ban	-10.0032
cc	-10.0036
rew	-10.0039
▁Pat	-10.0039
▁planned	-10.0044
▁USSR	-10.0049
ature	-10.0052
mov	-10.0052
▁Zh	-10.0053
sp	-10.0054
▁absolutely	-10.0055
▁killed	-10.0055
▁president	-10.0059
▁plane	-10.0059
glo	-10.0062
▁establish	-10.0068
nit	-10.0075
pt	-10.0077
▁fan	-10.0077
MP	-10.0085
▁participation	-10.0089
imate	-10.0091
ridge	-10.0094
▁planet	-10.0095
▁concentration	-10.0096
▁victim	-10.0097
▁database	-10.0099
del	-10.01
▁cons	-10.01
rup	-10.0101
▁goals	-10.0102
▁View	-10.0102
net	-10.0108
▁sell	-10.0117
▁Time	-10.0119
▁measurement	-10.0126
▁‘	-10.0136
▁tend	-10.0141
▁Vo	-10.0142
▁experts	-10.0144
▁sad	-10.0146
▁laugh	-10.0148
▁audience	-10.0149
▁stream	-10.015
▁division	-10.0152
▁bathroom	-10.0154
▁otherwise	-10.0157
▁hum	-10.0158
▁defense	-10.0168
▁Pan	-10.0169
▁furniture	-10.0172
pha	-10.0181
▁exhibition	-10.0181
▁cloud	-10.0182
▁recognized	-10.0184
▁organized	-10.0184
▁hydro	-10.019
▁ticket	-10.0191
rt	-10.0192
des	-10.02
▁residents	-10.0203
▁guys	-10.0205
▁invest	-10.0207
▁Ser	-10.0208
▁Game	-10.0208
▁export	-10.0212
▁rep	-10.0213
▁introduced	-10.0216
rin	-10.0217
vas	-10.022
▁mini	-10.0224
▁faith	-10.0228
▁bone	-10.0228
▁divided	-10.0229
VI	-10.023
▁pieces	-10.0234
▁Mor	-10.0234
eng	-10.0235
house	-10.0236
▁Head	-10.0236
▁loved	-10.0238
▁launch	-10.0242
pan	-10.0244
▁bottle	-10.0244
ica	-10.0246
▁planning	-10.0247
▁tourist	-10.0249
▁Institute	-10.025
▁trees	-10.025
▁Article	-10.0253
▁actor	-10.0256
▁Ac	-10.026
burg	-10.026
all	-10.0262
?"	-10.0263
▁Kar	-10.0265
▁spin	-10.0274
▁classes	-10.0283
▁expert	-10.0288
▁learned	-10.0295
▁cancer	-10.0295
ree	-10.0295
▁reflect	-10.03
▁filled	-10.0319
▁IP	-10.0321
▁neck	-10.0322
log	-10.0327
▁houses	-10.0333
▁wild	-10.0333
▁indicated	-10.0335
▁contribute	-10.0339
▁cleaning	-10.0343
▁arm	-10.0348
▁sin	-10.0353
teen	-10.0355
▁circuit	-10.036
▁Tu	-10.0367
▁primary	-10.0369
▁Kiev	-10.0372
▁Color	-10.0377
▁cru	-10.0378
dri	-10.0379
organ	-10.0381
▁studied	-10.0384
▁cards	-10.0392
▁previously	-10.0393
▁finished	-10.0395
▁differ	-10.0407
down	-10.0415
▁custom	-10.0416
▁convert	-10.0427
▁attend	-10.0445
▁comfort	-10.0446
▁opposite	-10.0449
▁mine	-10.045
jo	-10.0452
▁organize	-10.0453
▁gene	-10.0457
▁flash	-10.0457
▁wedding	-10.046
▁Office	-10.0463
▁formula	-10.0475
▁Will	-10.0479
▁depth	-10.0482
▁fee	-10.0484
▁classic	-10.049
▁Control	-10.0498
q	-10.0498
ack	-10.0501
▁thus	-10.0505
win	-10.0518
af	-10.0519
vert	-10.0519
▁served	-10.052
tail	-10.0523
ero	-10.0525
▁Char	-10.0526
▁sugar	-10.0529
evich	-10.0532
▁tour	-10.0537
▁Main	-10.0537
atory	-10.0541
▁yes	-10.0547
▁arms	-10.0551
▁Very	-10.0554
▁corresponding	-10.0556
ect	-10.056
▁sum	-10.0563
▁component	-10.0564
▁chest	-10.057
▁prop	-10.0579
@	-10.0588
fra	-10.0591
▁cast	-10.0595
UR	-10.0602
▁coast	-10.0617
lay	-10.0617
▁joy	-10.0618
HO	-10.0621
▁specialists	-10.0622
yo	-10.0622
▁strip	-10.0624
logical	-10.0625
like	-10.0627
▁weak	-10.0629
▁Ber	-10.0629
▁estate	-10.0633
▁email	-10.0635
riv	-10.0636
▁fulfill	-10.0638
▁Special	-10.0638
▁comment	-10.0643
▁hang	-10.065
▁Har	-10.065
las	-10.0653
▁responsibility	-10.0657
▁Israel	-10.0657
▁providing	-10.0667
▁cash	-10.0669
ita	-10.067
▁Fu	-10.067
▁calculation	-10.0676
▁trouble	-10.0677
▁Sub	-10.0679
▁latest	-10.0681
lim	-10.0688
▁prepare	-10.0689
ential	-10.0697
▁Like	-10.0702
SO	-10.0702
▁passenger	-10.0708
▁harm	-10.0712
SE	-10.0717
dra	-10.0719
ME	-10.0719
▁personnel	-10.0724
▁Uni	-10.0725
▁clients	-10.0726
Fi	-10.0727
▁Tre	-10.073
▁despite	-10.0733
▁whi	-10.074
▁career	-10.074
ously	-10.0744
▁violation	-10.0744
▁School	-10.0748
▁Western	-10.0756
get	-10.0761
▁smell	-10.0763
▁visible	-10.0763
▁extract	-10.0764
▁scheme	-10.0765
▁institution	-10.0769
▁quick	-10.0769
vid	-10.0772
▁Second	-10.0774
▁ID	-10.0775
▁intended	-10.0778
▁score	-10.0778
but	-10.0783
▁existence	-10.0786
▁explained	-10.0788
dor	-10.079
▁fund	-10.0794
ez	-10.0795
aw	-10.0796
▁UN	-10.0796
▁gray	-10.0799
▁analyze	-10.0801
▁screw	-10.0804
oz	-10.0809
▁manufacture	-10.0809
▁windows	-10.0815
rack	-10.0817
cel	-10.0822
It	-10.0824
▁Sun	-10.0826
▁print	-10.0835
▁raised	-10.0835
ovsky	-10.0844
▁combined	-10.0845
pir	-10.0846
▁describe	-10.0848
▁tip	-10.0852
▁giving	-10.0854
▁technique	-10.0856
▁tube	-10.0861
▁annual	-10.0862
▁Star	-10.0864
▁Among	-10.0865
▁container	-10.0878
omy	-10.0882
▁leaving	-10.0885
▁suggest	-10.0886
▁Back	-10.0888
por	-10.089
▁Cl	-10.0892
▁supported	-10.0904
▁import	-10.0908
▁sitting	-10.0911
▁challenge	-10.0913
▁Both	-10.0915
▁mask	-10.0917
▁skill	-10.0918
▁king	-10.0918
▁tu	-10.0919
▁accurate	-10.0921
ji	-10.0922
▁chair	-10.0926
eu	-10.093
▁objective	-10.0935
▁Bro	-10.0937
▁shoulder	-10.0939
bur	-10.0941
▁repeated	-10.0942
vol	-10.0942
▁interaction	-10.0944
cher	-10.0945
▁branch	-10.0947
▁testing	-10.0947
▁Court	-10.095
▁novel	-10.0953
▁flu	-10.0963
▁gone	-10.0978
▁kg	-10.0979
▁arrived	-10.0982
▁Italian	-10.0984
▁race	-10.0985
▁norm	-10.0991
CE	-10.0992
flu	-10.0992
play	-10.0994
▁election	-10.0998
▁Step	-10.1002
NE	-10.1003
▁moral	-10.1008
▁campaign	-10.1011
▁gather	-10.1016
▁accepted	-10.1016
▁concrete	-10.1024
▁noise	-10.1025
▁knows	-10.1035
▁vehicles	-10.1036
▁era	-10.1038
▁tight	-10.1043
▁default	-10.1046
▁god	-10.1055
SA	-10.1057
▁discussion	-10.1062
▁USB	-10.1062
ination	-10.1063
▁worse	-10.1068
▁Sometimes	-10.107
▁resolution	-10.1073
He	-10.1076
▁Children	-10.1078
rum	-10.1078
▁lu	-10.1089
▁efficient	-10.1091
▁throw	-10.1092
ken	-10.1093
quality	-10.1096
with	-10.1102
pol	-10.1102
▁laws	-10.1117
pel	-10.112
made	-10.112
▁south	-10.1121
▁boat	-10.1126
▁wound	-10.1126
▁faster	-10.113
▁assistance	-10.1131
position	-10.1132
arch	-10.1133
▁vessel	-10.1137
▁foundation	-10.1138
▁combat	-10.1139
▁wooden	-10.1139
▁rose	-10.1141
zy	-10.1141
▁familiar	-10.1142
ara	-10.1144
▁chosen	-10.1146
ement	-10.115
ming	-10.1152
▁reliable	-10.1156
▁wants	-10.1161
▁conference	-10.1166
▁expense	-10.1168
On	-10.1169
▁principles	-10.1169
▁Party	-10.117
▁deliver	-10.1171
▁perhaps	-10.1174
▁teaching	-10.1176
▁Ter	-10.1176
▁pour	-10.1183
▁Mal	-10.1184
▁understood	-10.1185
ros	-10.1186
▁correctly	-10.1186
▁bear	-10.1188
oke	-10.1194
▁prior	-10.1197
▁empty	-10.1199
▁fuck	-10.1207
head	-10.1207
▁implement	-10.1211
▁valid	-10.1216
ware	-10.1219
▁expressed	-10.1221
▁Women	-10.1223
▁Mat	-10.1224
▁involve	-10.1231
▁gear	-10.1235
▁smart	-10.1235
ius	-10.1236
▁circumstances	-10.1236
▁enterprises	-10.1237
▁core	-10.1238
▁Christmas	-10.1239
▁West	-10.1241
▁delay	-10.1245
▁desired	-10.1248
▁rare	-10.1248
▁configuration	-10.125
▁friendly	-10.125
▁transition	-10.1252
gin	-10.1252
▁achieved	-10.1254
▁absence	-10.1255
rous	-10.1255
▁airport	-10.1262
nk	-10.1263
rink	-10.1267
itation	-10.1271
▁except	-10.1273
▁experienced	-10.128
▁register	-10.128
▁persons	-10.1282
qua	-10.1286
ese	-10.1286
▁issued	-10.1293
▁Health	-10.1296
▁interview	-10.1297
dom	-10.1301
▁Belarus	-10.1305
://	-10.1306
▁invention	-10.1312
▁teeth	-10.1313
▁identify	-10.1318
▁pot	-10.1319
▁replace	-10.1327
▁judge	-10.1329
▁shift	-10.133
poli	-10.1331
tens	-10.1332
▁ski	-10.1334
▁male	-10.1334
▁sides	-10.1334
▁bridge	-10.134
▁driving	-10.1342
▁fer	-10.1346
▁thank	-10.1346
▁Sch	-10.1353
▁electrical	-10.1357
▁stretch	-10.1357
▁fly	-10.1364
▁defined	-10.1365
▁subsequent	-10.1367
▁tests	-10.1378
▁assume	-10.1378
▁actual	-10.1392
▁north	-10.1393
▁realized	-10.1394
read	-10.1396
▁particularly	-10.1397
cro	-10.1399
hor	-10.1409
▁Auto	-10.1409
lot	-10.141
▁nor	-10.141
▁Sk	-10.1413
SD	-10.1413
▁Information	-10.1416
▁automatic	-10.1422
▁Federal	-10.1425
TS	-10.1426
▁pop	-10.1432
▁Count	-10.1434
▁sister	-10.1434
▁Sho	-10.1437
▁employee	-10.144
▁replaced	-10.1452
▁advise	-10.1454
▁ended	-10.1455
ili	-10.1455
dam	-10.1464
ban	-10.1467
▁LED	-10.1467
▁measure	-10.1468
▁secure	-10.147
▁diameter	-10.1471
▁catch	-10.1479
▁Does	-10.1481
view	-10.1489
▁detailed	-10.1491
ula	-10.1491
▁publication	-10.1499
cen	-10.1504
▁cup	-10.1504
▁treated	-10.1507
▁sufficient	-10.1508
ost	-10.1511
▁tear	-10.1519
▁benefit	-10.1527
comp	-10.1528
▁shock	-10.1544
▁Business	-10.1545
▁Data	-10.1551
▁youth	-10.1553
wear	-10.1555
▁unusual	-10.1556
AD	-10.1558
long	-10.1568
▁families	-10.1569
▁agreed	-10.1569
▁proposed	-10.1573
▁advanced	-10.1579
▁museum	-10.1583
even	-10.1584
aff	-10.1585
▁ratio	-10.1585
▁fans	-10.1587
▁pleasant	-10.1587
gent	-10.159
▁perfectly	-10.1593
▁framework	-10.1595
rank	-10.1599
▁hi	-10.1603
▁York	-10.1605
▁join	-10.1611
▁Google	-10.1612
SP	-10.1612
fla	-10.1616
▁IN	-10.1618
▁writer	-10.1625
!”	-10.1626
▁usual	-10.1628
▁somewhere	-10.1632
▁imagine	-10.1635
igh	-10.1635
▁lamp	-10.1636
▁factory	-10.1638
▁improvement	-10.1639
path	-10.1644
▁entry	-10.1652
▁disorder	-10.166
▁arise	-10.1662
rog	-10.1666
▁transmission	-10.1667
▁marriage	-10.1667
▁Super	-10.1668
▁stable	-10.1672
▁assessment	-10.1673
shirt	-10.1673
▁manner	-10.1675
▁predict	-10.1676
OL	-10.1683
▁boot	-10.1688
nia	-10.169
met	-10.1692
pper	-10.1692
nel	-10.1697
mail	-10.1708
▁Er	-10.1711
▁Chi	-10.1727
▁HD	-10.1731
tting	-10.1733
pass	-10.1734
▁narrow	-10.1741
hr	-10.1745
▁transferred	-10.1747
▁representative	-10.1748
▁literature	-10.1753
▁prefer	-10.176
▁Having	-10.1761
▁epi	-10.1762
▁emb	-10.1765
▁vote	-10.1767
▁inner	-10.178
mir	-10.1782
AP	-10.1784
▁brown	-10.1784
ink	-10.1785
▁larger	-10.1789
▁sentence	-10.1794
lav	-10.1799
▁smoke	-10.1799
▁signed	-10.18
▁Sur	-10.1802
▁destroy	-10.1807
▁boil	-10.1807
▁Development	-10.1815
uring	-10.1816
▁Ph	-10.1817
▁pleasure	-10.182
▁legislation	-10.1822
ball	-10.1824
new	-10.1827
lation	-10.1832
▁successfully	-10.1833
stro	-10.1835
▁investigation	-10.1837
▁obligation	-10.1837
▁kit	-10.185
▁Did	-10.1853
▁compound	-10.1855
scrib	-10.186
ening	-10.1862
▁Science	-10.1864
▁Real	-10.1866
▁troops	-10.187
▁virtual	-10.1874
▁Sen	-10.1874
LO	-10.1876
▁older	-10.1877
▁saying	-10.1883
▁sick	-10.189
rug	-10.1891
▁mission	-10.1898
▁pin	-10.19
▁Top	-10.1904
%.	-10.1912
▁Japan	-10.1913
cit	-10.1914
she	-10.1915
▁tre	-10.1918
▁CO	-10.1918
▁shade	-10.1919
▁Download	-10.1921
▁discover	-10.1923
▁threat	-10.1925
▁hide	-10.1928
DI	-10.1934
▁beat	-10.1937
▁approved	-10.1937
▁depend	-10.1938
No	-10.1941
▁alternative	-10.1943
last	-10.1948
▁advertising	-10.195
▁appeal	-10.195
▁thoughts	-10.1951
▁purchased	-10.1953
ogen	-10.1964
▁believed	-10.1965
▁married	-10.1977
called	-10.1985
anov	-10.1991
▁closer	-10.1993
SC	-10.1993
▁definition	-10.1995
▁strategy	-10.1996
▁Ben	-10.1999
▁characteristic	-10.2005
▁monitoring	-10.2006
▁decisions	-10.202
▁comments	-10.2022
▁news	-10.2022
▁critical	-10.2022
▁indicator	-10.2024
▁walking	-10.2025
▁machines	-10.2032
▁Oh	-10.2034
▁Mac	-10.2037
▁plug	-10.2037
▁relation	-10.2038
▁raise	-10.2038
▁sexual	-10.204
now	-10.2041
▁Hand	-10.2041
▁cutting	-10.2041
▁slowly	-10.2041
mination	-10.2046
▁beyond	-10.2051
▁Museum	-10.2053
▁standing	-10.2059
▁variable	-10.2078
ami	-10.208
▁feelings	-10.2081
▁Georgia	-10.2089
▁owners	-10.209
▁talent	-10.2093
▁arch	-10.2094
!"	-10.2096
▁Perhaps	-10.2096
▁adult	-10.2098
▁onto	-10.2102
▁Government	-10.2104
▁Asia	-10.2105
▁surprise	-10.2106
oh	-10.2107
oli	-10.2108
vari	-10.2112
tel	-10.2116
▁react	-10.2121
▁vol	-10.2122
▁majority	-10.2122
PA	-10.2126
▁vitamin	-10.2127
▁Press	-10.2128
▁defeat	-10.2134
▁permanent	-10.214
▁transform	-10.2144
▁breed	-10.2153
▁Post	-10.2157
▁eliminate	-10.2158
▁stories	-10.2164
▁acts	-10.2165
▁Arab	-10.2169
▁entrance	-10.2172
▁London	-10.2178
▁dose	-10.2179
radi	-10.2182
▁helped	-10.2188
▁audio	-10.2194
▁context	-10.2197
▁fiber	-10.22
▁leaders	-10.22
▁insert	-10.221
▁India	-10.2215
▁religious	-10.2231
▁teachers	-10.2231
▁magic	-10.2235
▁clo	-10.2238
▁enhance	-10.2239
▁temple	-10.2245
▁mat	-10.2246
▁views	-10.225
▁newspaper	-10.2253
▁rent	-10.2253
®	-10.2261
CA	-10.227
▁rub	-10.2274
lev	-10.2278
▁scan	-10.2282
based	-10.2294
▁continuous	-10.2297
▁minute	-10.2299
▁Dan	-10.2314
▁promote	-10.2319
▁overall	-10.2324
▁effort	-10.2325
▁tablet	-10.2328
▁repeat	-10.233
don	-10.2331
▁EU	-10.2336
▁gets	-10.2338
▁climb	-10.2338
TE	-10.2339
▁particle	-10.2341
▁terrible	-10.2344
▁Nu	-10.2349
▁Ed	-10.235
ished	-10.235
▁USA	-10.235
▁prison	-10.2352
hold	-10.236
yr	-10.236
atic	-10.2371
▁reduction	-10.2388
cin	-10.2388
▁album	-10.239
▁Old	-10.2393
rant	-10.2393
▁fields	-10.2396
▁Greek	-10.2396
▁essence	-10.2397
▁efforts	-10.2398
▁Despite	-10.2399
▁sites	-10.2401
▁designer	-10.2401
lex	-10.2403
avi	-10.2408
ode	-10.2411
▁Sol	-10.2412
▁Royalty	-10.2413
▁shoes	-10.2415
▁terminal	-10.2416
SI	-10.2416
▁quarter	-10.2417
under	-10.2418
▁latter	-10.2419
▁landscape	-10.242
▁registered	-10.242
▁honest	-10.2423
▁Paris	-10.2424
posed	-10.2426
▁dedicated	-10.2427
ened	-10.2428
▁semi	-10.2437
pit	-10.2438
▁mirror	-10.2439
▁networks	-10.2441
▁wash	-10.2442
▁stood	-10.2444
wel	-10.2444
▁habit	-10.2448
char	-10.245
IA	-10.2454
▁containing	-10.2461
▁confirmed	-10.2465
):	-10.2468
rine	-10.2468
itch	-10.2476
▁Sal	-10.2478
▁mineral	-10.248
▁coat	-10.2483
cious	-10.2487
name	-10.2487
ame	-10.2488
▁Start	-10.2488
▁consequences	-10.249
▁broken	-10.2495
▁relatively	-10.2495
▁attribute	-10.2503
▁Love	-10.2513
&	-10.2514
▁numerous	-10.2516
▁letters	-10.252
▁silver	-10.2529
▁mechanical	-10.2533
▁consult	-10.2533
▁gradually	-10.2541
▁fluid	-10.2548
▁consciousness	-10.2549
▁virus	-10.2556
▁stored	-10.2561
▁ahead	-10.2562
▁truck	-10.2563
▁attached	-10.2566
▁unknown	-10.2572
▁Cal	-10.2577
▁Peter	-10.2578
▁affected	-10.2579
▁Key	-10.2584
▁administrative	-10.2585
loc	-10.2585
sembl	-10.2586
MO	-10.2588
▁broke	-10.2588
▁Find	-10.259
▁cho	-10.2595
▁stages	-10.2596
urge	-10.2602
▁scientists	-10.2604
▁dust	-10.2617
▁continues	-10.2617
▁confirm	-10.2618
▁Leg	-10.2622
▁Hy	-10.2622
▁Life	-10.2624
II	-10.2625
▁football	-10.2632
LA	-10.2636
▁fate	-10.2638
▁substances	-10.2639
▁presentation	-10.264
▁somehow	-10.2644
▁crisis	-10.2648
▁lips	-10.2653
▁wonder	-10.2659
▁Pla	-10.2659
ky	-10.266
▁parking	-10.2661
▁finger	-10.2662
▁Bur	-10.2665
▁positions	-10.2667
▁spa	-10.267
▁Gor	-10.2672
▁carbon	-10.2675
▁discussed	-10.2684
war	-10.2689
▁native	-10.269
▁muscle	-10.27
▁characterized	-10.2704
▁vertical	-10.2705
▁discuss	-10.2706
▁King	-10.2707
▁Web	-10.2708
PU	-10.2709
▁saving	-10.2711
▁Next	-10.2713
▁adapt	-10.272
PE	-10.2721
fusion	-10.2729
ym	-10.2739
▁spec	-10.2742
▁sight	-10.275
PR	-10.275
▁Mikhail	-10.2751
▁Bre	-10.2752
▁shell	-10.2753
hin	-10.2762
▁proper	-10.2763
▁couldn	-10.2764
▁twice	-10.2766
▁conducted	-10.2769
ID	-10.277
▁evil	-10.277
▁password	-10.2777
▁indicate	-10.279
▁lake	-10.2791
▁Ros	-10.2791
▁survive	-10.2799
▁theater	-10.2802
▁Right	-10.2808
col	-10.281
range	-10.281
▁Italy	-10.2811
uz	-10.2821
▁Room	-10.2827
▁Ob	-10.2838
▁procedures	-10.2839
▁reader	-10.2841
GB	-10.2841
RS	-10.2845
born	-10.2846
MI	-10.2847
▁rates	-10.2851
IP	-10.2855
tics	-10.2855
▁string	-10.2859
water	-10.2859
▁trading	-10.2859
▁hung	-10.2861
IL	-10.2862
▁Everyone	-10.2868
▁transportation	-10.287
▁drawn	-10.2871
▁fair	-10.2871
▁fur	-10.2871
▁bread	-10.2872
▁regime	-10.2873
witch	-10.2877
▁Kha	-10.2878
▁nail	-10.288
▁properly	-10.2881
▁da	-10.2882
▁pregnancy	-10.2882
▁seek	-10.2885
▁RE	-10.2885
▁Using	-10.2885
▁ordered	-10.2889
▁occasion	-10.2889
▁tail	-10.289
ata	-10.289
▁emergency	-10.2895
▁calls	-10.2899
toxic	-10.291
ttle	-10.2911
▁wallpaper	-10.2914
▁silent	-10.2916
▁situations	-10.2917
▁Type	-10.2918
▁Thank	-10.2921
▁colon	-10.2921
▁mood	-10.2927
▁Region	-10.2931
▁Azerbaijan	-10.2934
▁crack	-10.2934
▁lies	-10.2936
▁crystal	-10.2937
▁grade	-10.2939
▁Act	-10.294
▁raw	-10.2941
lam	-10.2945
▁segment	-10.2947
TH	-10.295
▁resource	-10.2953
▁index	-10.2956
LI	-10.2963
▁regarding	-10.2964
▁actively	-10.2967
▁degrees	-10.2968
▁Prince	-10.2969
▁fundamental	-10.2973
www	-10.2973
▁Education	-10.2974
▁trial	-10.2975
▁Click	-10.2977
▁Android	-10.2981
▁http	-10.2982
▁stars	-10.2986
PO	-10.299
cient	-10.2991
▁minor	-10.2994
▁commander	-10.2998
▁cent	-10.3
▁legend	-10.3001
▁capable	-10.3004
▁recorded	-10.3014
▁emotional	-10.3016
ato	-10.3017
▁Jesus	-10.3018
▁recipe	-10.3019
▁banks	-10.3029
dol	-10.3033
▁Table	-10.3033
▁resort	-10.3036
▁ceiling	-10.3038
▁Pol	-10.3041
une	-10.3046
berg	-10.3047
dent	-10.3051
▁edit	-10.3052
▁thermal	-10.3053
▁chart	-10.3053
▁shut	-10.3054
ault	-10.3058
plo	-10.3062
▁approximately	-10.3063
▁soldiers	-10.3063
▁Page	-10.3064
▁fail	-10.3065
▁Connect	-10.3068
▁liter	-10.3069
▁construct	-10.307
▁Street	-10.3071
▁Port	-10.3079
ffi	-10.3081
stitution	-10.3082
cut	-10.3083
agon	-10.3083
▁notes	-10.3084
▁smaller	-10.3087
▁hidden	-10.3091
▁indicators	-10.3095
▁Bal	-10.3097
▁assess	-10.3103
▁grant	-10.3107
▁architecture	-10.3108
▁critic	-10.3109
▁adults	-10.3113
rm	-10.3115
▁belt	-10.3115
▁stated	-10.3121
▁flag	-10.3127
▁powder	-10.313
▁Girl	-10.3132
▁impression	-10.3133
clo	-10.3134
▁label	-10.3135
ender	-10.3138
where	-10.3138
quest	-10.3139
ati	-10.3143
▁authority	-10.3158
run	-10.3168
dding	-10.3171
▁tons	-10.3171
▁liked	-10.3176
▁doctors	-10.3178
▁reform	-10.3181
▁Anti	-10.3184
ani	-10.3187
▁gate	-10.319
▁partners	-10.319
▁»	-10.3193
▁seconds	-10.3194
eb	-10.3194
ovo	-10.3203
PI	-10.3206
▁turning	-10.3206
▁relative	-10.3233
bil	-10.3234
NO	-10.3235
▁disappear	-10.3239
wise	-10.3241
▁channels	-10.3247
»	-10.3249
ament	-10.3258
▁hurt	-10.3258
▁leadership	-10.326
▁Book	-10.3266
▁Best	-10.3272
▁centuries	-10.3272
▁bedroom	-10.3283
▁nose	-10.3284
▁ser	-10.3286
cid	-10.3287
▁Academy	-10.329
▁schools	-10.3291
▁survey	-10.3294
▁Cher	-10.3306
lab	-10.3307
▁supposed	-10.3307
▁pr	-10.3308
▁Program	-10.3309
▁Order	-10.331
▁nuclear	-10.3312
▁citizen	-10.3313
quir	-10.3317
▁sing	-10.3318
▁Hor	-10.3318
▁individuals	-10.3319
▁collected	-10.3321
▁doors	-10.3321
▁Force	-10.3324
▁monument	-10.3324
▁Army	-10.3328
▁Nik	-10.3328
▁functional	-10.333
▁Ly	-10.333
▁absorb	-10.3331
▁brush	-10.334
ched	-10.334
▁recovery	-10.334
▁arrest	-10.3341
▁folder	-10.3342
%)	-10.3343
▁comparison	-10.3344
▁remind	-10.3345
▁outdoor	-10.3347
▁Which	-10.3357
▁Green	-10.3358
▁execution	-10.336
rag	-10.336
▁passion	-10.3363
▁Big	-10.3363
type	-10.3364
▁Mer	-10.3366
▁extent	-10.337
pher	-10.337
▁Show	-10.3372
▁User	-10.3374
▁plus	-10.338
suit	-10.3386
DE	-10.3391
vision	-10.3393
olog	-10.3394
▁audit	-10.3399
▁certainly	-10.34
▁revealed	-10.3401
▁infrastructure	-10.3409
field	-10.3419
▁childhood	-10.3423
▁consideration	-10.3431
▁magazine	-10.3433
▁permit	-10.3433
ved	-10.3434
▁«	-10.3441
▁Figure	-10.3444
known	-10.3444
▁List	-10.3445
▁Up	-10.345
▁bill	-10.345
ifies	-10.3451
▁Ivan	-10.3457
▁trace	-10.3462
▁recognize	-10.3465
fect	-10.3466
▁teach	-10.3467
▁texture	-10.3469
▁Island	-10.3469
▁stuff	-10.3472
▁concert	-10.3476
mission	-10.3477
▁starts	-10.3478
▁qua	-10.3478
▁controlled	-10.3479
kha	-10.3487
Hz	-10.3488
▁carrier	-10.3489
word	-10.3489
▁pages	-10.3493
▁Tru	-10.3494
▁Indian	-10.3497
▁dish	-10.3502
▁broad	-10.3509
▁reveal	-10.3517
▁Ke	-10.352
▁script	-10.3521
▁officers	-10.3522
BC	-10.3524
▁Gi	-10.3525
unk	-10.3531
▁guess	-10.3533
▁Pen	-10.3537
▁award	-10.3542
mount	-10.3545
▁Microsoft	-10.355
▁Mag	-10.3551
cord	-10.3552
▁danger	-10.3553
ski	-10.3553
finite	-10.3561
▁Grand	-10.3564
▁breast	-10.3564
▁lighting	-10.3567
▁identified	-10.3572
▁instance	-10.3581
▁cancel	-10.3583
▁destroyed	-10.3594
PP	-10.3597
pot	-10.3605
▁television	-10.3608
▁Win	-10.3613
▁aimed	-10.3613
▁prince	-10.3613
▁opportunities	-10.3614
craft	-10.3616
▁isolated	-10.362
▁fold	-10.3626
▁Security	-10.3629
active	-10.3636
▁federal	-10.3637
▁laid	-10.3639
▁translation	-10.3644
▁Sim	-10.3659
▁secondary	-10.3659
TI	-10.3661
▁speaker	-10.3662
▁pig	-10.3665
bol	-10.3666
▁juice	-10.3668
▁tab	-10.367
DA	-10.3676
▁struggle	-10.3677
▁drama	-10.3684
EX	-10.3684
▁mill	-10.3685
▁university	-10.3687
▁Unfortunately	-10.3691
▁differences	-10.3701
▁contrast	-10.3702
▁editor	-10.3704
▁pink	-10.3704
▁emphasize	-10.3712
ector	-10.3713
▁improved	-10.3714
▁Test	-10.3721
▁sounds	-10.3724
▁favor	-10.3726
voc	-10.3732
▁Social	-10.3739
▁decor	-10.374
▁happiness	-10.3741
▁nation	-10.3743
▁vision	-10.3747
▁attractive	-10.3749
ident	-10.375
▁Plan	-10.3755
▁chronic	-10.3757
▁sphere	-10.376
astic	-10.3765
▁resulting	-10.377
▁relationships	-10.3771
▁ride	-10.3777
physi	-10.3783
list	-10.3786
▁phenomenon	-10.3801
▁highlight	-10.3807
▁sew	-10.3809
▁Those	-10.381
▁Long	-10.381
▁winner	-10.3812
▁uses	-10.3818
pet	-10.382
ada	-10.3821
ram	-10.3822
▁fruits	-10.3823
▁disk	-10.3828
▁uniform	-10.3833
▁climate	-10.3837
▁tower	-10.3837
▁noticed	-10.3838
▁assets	-10.384
▁crowd	-10.3841
GO	-10.3849
▁household	-10.3851
▁displayed	-10.3851
▁receiving	-10.3853
▁leather	-10.3853
▁craft	-10.3856
▁organic	-10.3858
▁isn	-10.3862
▁knee	-10.3865
▁resolve	-10.3866
▁lie	-10.3873
▁languages	-10.3876
▁discount	-10.3879
▁hypo	-10.3883
ulate	-10.3883
▁Commission	-10.3884
ural	-10.3886
▁Natural	-10.3892
ancy	-10.3893
▁calculated	-10.3894
▁candidate	-10.3901
ific	-10.3901
▁decade	-10.3906
▁Try	-10.3908
▁Blue	-10.3917
▁psychological	-10.392
▁clock	-10.3921
▁promotion	-10.3924
IM	-10.3924
▁universal	-10.393
▁listed	-10.393
▁paragraph	-10.3934
TO	-10.3951
▁controller	-10.3954
▁duration	-10.3967
▁adopted	-10.3975
▁ml	-10.398
max	-10.3981
hydr	-10.3987
▁advantages	-10.399
▁argument	-10.3991
о	-10.3994
▁muscles	-10.3996
▁stability	-10.3999
some	-10.4
▁lens	-10.4002
rest	-10.4004
[	-10.4004
▁sequence	-10.4004
▁Management	-10.4013
och	-10.4015
lumin	-10.4026
▁Three	-10.4026
OP	-10.4027
▁aspects	-10.4027
▁breakfast	-10.4029
▁//	-10.403
▁poet	-10.4037
itive	-10.404
▁choosing	-10.4045
xi	-10.405
▁Due	-10.4051
▁Africa	-10.4055
color	-10.4057
▁initiative	-10.4057
▁decoration	-10.4061
▁episode	-10.4063
mil	-10.4063
ulated	-10.4069
direct	-10.407
▁accompanied	-10.4076
mate	-10.4081
▁demonstrate	-10.4084
▁draft	-10.409
▁studio	-10.4091
For	-10.4092
▁recording	-10.4095
▁library	-10.4102
▁radiation	-10.4103
zer	-10.4106
▁Cla	-10.4108
▁internet	-10.4108
▁tape	-10.4111
▁sport	-10.4113
▁buyer	-10.4115
▁shared	-10.4115
▁width	-10.4121
▁replacement	-10.4131
rid	-10.4131
▁relatives	-10.4132
▁publish	-10.4136
▁combine	-10.4138
pu	-10.4138
▁introduction	-10.4139
▁Video	-10.4139
▁Tour	-10.414
▁mention	-10.4146
▁porn	-10.4147
а	-10.4151
▁River	-10.4151
▁Tro	-10.4151
▁mixed	-10.4154
▁widely	-10.4158
▁vary	-10.4163
▁finding	-10.4167
▁exhaust	-10.417
▁drain	-10.4175
▁cry	-10.4178
▁communicate	-10.418
▁Ok	-10.4181
▁songs	-10.4185
▁Board	-10.4187
▁colleague	-10.4189
▁answered	-10.4197
▁techniques	-10.4198
▁becoming	-10.4201
▁clinical	-10.4202
SU	-10.4203
▁neuro	-10.4207
key	-10.4209
▁caught	-10.421
▁steam	-10.4217
▁quote	-10.4218
▁personality	-10.4228
gran	-10.4231
book	-10.4232
▁dishes	-10.4235
▁dinner	-10.424
▁saved	-10.4243
▁wa	-10.4243
▁grass	-10.4246
▁religion	-10.4246
Se	-10.4249
▁Access	-10.4256
▁revolution	-10.4263
▁autumn	-10.4263
▁shower	-10.4265
▁categories	-10.4266
▁alarm	-10.4268
ope	-10.4282
▁truly	-10.4284
▁Ze	-10.4284
▁extreme	-10.4289
▁Australia	-10.4295
▁bomb	-10.4298
▁Pass	-10.4306
▁geo	-10.4306
▁primarily	-10.4308
▁Ven	-10.4311
▁claims	-10.4311
▁contrary	-10.4313
▁chip	-10.4316
▁victory	-10.4317
lum	-10.4317
ava	-10.4318
▁diagnosis	-10.4328
De	-10.4329
▁parallel	-10.4332
▁incident	-10.4334
▁Bri	-10.4336
▁messages	-10.4342
▁Master	-10.4344
▁journalist	-10.4347
cover	-10.4354
plan	-10.4356
▁stomach	-10.4358
▁removal	-10.4358
cap	-10.4361
TER	-10.4363
aria	-10.4372
gal	-10.4374
▁ourselves	-10.4375
▁Apple	-10.4376
fil	-10.4377
▁surprised	-10.4392
▁festival	-10.4395
▁zero	-10.4397
▁nearby	-10.4401
▁shopping	-10.4401
▁smartphone	-10.4403
augh	-10.4407
▁Cup	-10.441
▁rating	-10.4412
weight	-10.4412
▁Paul	-10.4412
▁branches	-10.4414
NS	-10.4418
iber	-10.4421
▁duty	-10.4424
▁surgery	-10.4427
wood	-10.4433
▁emotions	-10.4442
phone	-10.4443
▁Cap	-10.4444
je	-10.4445
▁lawyer	-10.4448
▁remaining	-10.445
FA	-10.445
▁Gal	-10.4451
▁appreciate	-10.4454
▁proposal	-10.4456
▁marketing	-10.4458
urg	-10.446
▁loud	-10.446
▁logo	-10.4462
▁Full	-10.4465
▁assigned	-10.4467
commun	-10.4468
▁withdraw	-10.4471
▁Form	-10.4474
print	-10.4482
▁precisely	-10.4483
▁Support	-10.4484
▁aware	-10.4486
▁pocket	-10.4494
▁thickness	-10.4496
▁pilot	-10.4497
▁cheese	-10.451
▁reviews	-10.4513
▁association	-10.4514
▁customs	-10.4515
▁hyper	-10.4516
▁lit	-10.4517
▁indicates	-10.4518
▁Research	-10.4519
▁engaged	-10.4521
pat	-10.4524
▁Multi	-10.4532
▁Name	-10.4534
▁Cat	-10.4539
▁protected	-10.4542
▁suffer	-10.4544
▁chief	-10.4547
▁everywhere	-10.4553
▁shooting	-10.4557
▁Far	-10.4563
▁discovered	-10.4567
viv	-10.4568
Con	-10.4569
▁Cho	-10.4575
▁bacteria	-10.4576
▁exercises	-10.4579
▁Para	-10.4581
▁parent	-10.4583
Po	-10.4584
▁Fla	-10.4587
▁technological	-10.4589
▁retain	-10.4589
▁Gri	-10.4592
▁grain	-10.4595
▁regularly	-10.4597
▁accounting	-10.4598
▁tire	-10.4601
▁domain	-10.4604
▁specialist	-10.4604
▁grand	-10.4607
valu	-10.4608
lish	-10.4609
leg	-10.4612
▁anywhere	-10.4618
▁Last	-10.4619
▁gap	-10.4622
▁Putin	-10.4624
▁glad	-10.4626
▁cake	-10.4628
rill	-10.4635
▁walked	-10.4637
To	-10.464
▁bow	-10.4644
cular	-10.4644
ida	-10.4645
face	-10.4645
▁phrase	-10.4654
▁Pop	-10.4655
CO	-10.4655
▁©	-10.4663
▁def	-10.4666
▁Affairs	-10.4671
▁surrounding	-10.4672
▁Standard	-10.4679
bus	-10.468
▁defect	-10.4686
▁mail	-10.4686
▁accessories	-10.469
▁san	-10.4695
▁engineering	-10.4695
UT	-10.4699
yu	-10.4701
▁pension	-10.4705
▁Young	-10.4708
▁Fig	-10.4711
▁activate	-10.4715
insky	-10.4716
chrom	-10.4716
▁residential	-10.472
▁achievement	-10.4721
▁opponent	-10.4724
gress	-10.4725
▁Project	-10.4725
exp	-10.4727
▁fourth	-10.4731
▁TO	-10.4732
bank	-10.4734
▁Create	-10.4735
▁Pay	-10.4737
▁engineer	-10.4739
▁rubber	-10.4741
chenko	-10.4742
▁assembly	-10.4744
▁urban	-10.4749
▁organs	-10.4752
▁missing	-10.4752
▁currency	-10.4753
▁coating	-10.4753
from	-10.4754
▁Tom	-10.4754
▁motion	-10.4759
▁fingers	-10.4764
▁define	-10.4765
▁coach	-10.4765
ket	-10.4773
▁Land	-10.4789
▁Turkey	-10.4798
▁filling	-10.4802
▁moisture	-10.4802
▁drag	-10.4803
ference	-10.4803
▁Crimea	-10.4806
dependent	-10.4809
▁bond	-10.4809
▁protocol	-10.481
▁stupid	-10.4814
rom	-10.4814
▁tone	-10.4815
▁bro	-10.482
uri	-10.4821
▁athlete	-10.4823
▁confident	-10.4825
▁template	-10.4834
▁folk	-10.4839
▁tested	-10.4839
ola	-10.484
▁horizontal	-10.4848
power	-10.4852
▁municipal	-10.4853
▁artificial	-10.4853
▁nervous	-10.4855
▁drill	-10.4862
▁meta	-10.4863
▁watching	-10.487
▁mg	-10.4876
▁implemented	-10.4879
vor	-10.4887
▁aluminum	-10.49
▁Mil	-10.4902
▁wealth	-10.4904
state	-10.4907
Mo	-10.491
ifying	-10.4917
Com	-10.4917
▁sail	-10.4923
▁vacation	-10.4924
▁musical	-10.4925
▁officer	-10.4925
▁liver	-10.4928
▁escape	-10.4932
▁Arm	-10.4933
▁UK	-10.4934
look	-10.4936
▁promise	-10.4938
card	-10.494
▁recommendations	-10.4941
▁observation	-10.4942
▁Public	-10.4942
nik	-10.4942
▁examine	-10.4945
ule	-10.4954
▁marked	-10.4955
▁personally	-10.4956
▁singer	-10.4958
illa	-10.4958
urb	-10.4963
▁producer	-10.4964
▁preparing	-10.4964
▁Finally	-10.4966
▁launched	-10.4967
▁visited	-10.4969
")	-10.4969
▁browser	-10.4971
▁realize	-10.4975
▁loop	-10.4975
▁proportion	-10.4976
akh	-10.499
▁hell	-10.4995
NT	-10.5
EA	-10.5002
▁prayer	-10.5005
Pro	-10.5006
▁abroad	-10.5006
▁Zo	-10.5008
▁Mc	-10.501
▁contribution	-10.5011
▁Angel	-10.5012
▁birthday	-10.5017
piece	-10.5026
▁Sign	-10.5026
What	-10.5031
▁node	-10.5034
▁recover	-10.5039
▁Jack	-10.5041
▁nine	-10.5046
▁nut	-10.5051
▁worry	-10.5053
▁laser	-10.5055
▁celebrate	-10.5055
▁chamber	-10.5055
evsky	-10.5056
▁Bor	-10.5058
ike	-10.5059
▁funny	-10.5067
▁oxygen	-10.507
tention	-10.5074
▁difficulties	-10.5076
CT	-10.5079
shin	-10.5084
gh	-10.5089
▁:)	-10.5094
▁specifically	-10.5096
▁armor	-10.5097
▁exit	-10.5097
▁extension	-10.5099
▁Human	-10.51
▁Islam	-10.5106
▁compress	-10.5109
▁optimal	-10.5111
ked	-10.5117
connect	-10.5118
▁vegetables	-10.512
ella	-10.512
▁Holy	-10.5121
test	-10.5124
▁pulled	-10.5127
▁crop	-10.5128
EM	-10.5129
▁Model	-10.513
▁manufacturing	-10.5137
cell	-10.5146
▁complaint	-10.5147
▁murder	-10.5152
▁Plus	-10.5152
▁mutual	-10.5153
▁fighting	-10.5153
▁republic	-10.5155
well	-10.5159
law	-10.5162
▁proceed	-10.5168
▁weapon	-10.5172
▁adjustment	-10.5177
▁buying	-10.5177
FI	-10.5179
▁tele	-10.5179
visor	-10.5181
▁England	-10.5186
▁chapter	-10.5191
lateral	-10.5193
$	-10.5195
font	-10.5199
▁Fire	-10.5199
stance	-10.52
TION	-10.5203
▁brief	-10.5204
▁clothing	-10.5205
Fig	-10.5206
▁apparently	-10.5207
ulating	-10.5209
▁valuable	-10.5213
encies	-10.5214
▁Edit	-10.5215
▁diploma	-10.5216
▁losses	-10.5222
▁represented	-10.5223
Pa	-10.5223
▁District	-10.5226
▁welcome	-10.5229
▁corporate	-10.5233
▁agency	-10.5233
▁Low	-10.5235
▁tile	-10.5236
▁Additional	-10.5236
▁temporary	-10.5241
resistant	-10.5244
inter	-10.525
▁poison	-10.5256
ending	-10.5259
▁Server	-10.5261
▁residence	-10.5264
▁rail	-10.5266
nikov	-10.527
▁Orthodox	-10.5272
▁entrepreneur	-10.5277
▁rod	-10.5278
▁Kur	-10.5286
▁prohibit	-10.5289
▁suffering	-10.529
▁trick	-10.529
▁railway	-10.5292
CP	-10.5292
GE	-10.5294
gla	-10.5297
▁refuse	-10.5302
▁Build	-10.5304
▁supplier	-10.5306
posit	-10.5306
▁massage	-10.5309
▁exact	-10.5316
ux	-10.5316
▁kiss	-10.5318
▁mostly	-10.5322
▁showing	-10.5328
▁criteria	-10.5329
bell	-10.5333
▁hardware	-10.5334
▁visitors	-10.5337
▁Give	-10.5339
▁dear	-10.5341
heat	-10.5349
how	-10.5353
▁curve	-10.5354
▁happening	-10.5356
ept	-10.5357
▁practically	-10.5364
▁parameter	-10.5372
cision	-10.538
ulator	-10.5381
▁intelligence	-10.5383
▁Kra	-10.5384
▁psycho	-10.5386
▁dispute	-10.5394
cm	-10.5401
▁permission	-10.5401
▁trail	-10.5402
Co	-10.5405
▁Price	-10.5406
▁True	-10.5406
chin	-10.5411
umble	-10.5417
▁failed	-10.5417
▁manifest	-10.5417
▁Music	-10.543
▁van	-10.5434
▁alive	-10.5436
▁fault	-10.5437
▁Father	-10.5439
▁creature	-10.5439
▁shadow	-10.5442
▁OS	-10.5444
OM	-10.5448
▁blind	-10.5452
▁supplement	-10.5459
cor	-10.5463
▁agricultural	-10.5464
▁tired	-10.5465
▁sn	-10.5468
link	-10.5468
pine	-10.547
~	-10.5474
nar	-10.5477
▁invited	-10.5478
Do	-10.5479
▁comm	-10.548
ense	-10.548
▁AND	-10.5482
▁competitive	-10.5483
▁random	-10.549
Sh	-10.5502
▁Internal	-10.5504
▁accuracy	-10.5508
▁Mari	-10.5516
▁seeds	-10.5518
▁brake	-10.5521
▁encourage	-10.5524
▁Watch	-10.5524
▁innovation	-10.5526
▁Member	-10.5527
▁Mark	-10.553
rian	-10.5534
▁Ana	-10.5535
▁specialized	-10.5536
▁iPhone	-10.5539
▁measured	-10.5541
▁actress	-10.5541
escent	-10.5541
▁documentation	-10.5542
▁guest	-10.555
▁suspect	-10.5551
▁illness	-10.5552
▁seriously	-10.5554
▁twenty	-10.5554
▁cooling	-10.5555
▁everyday	-10.556
е	-10.5561
▁strike	-10.5562
▁Sex	-10.5567
▁greatest	-10.5571
org	-10.5576
▁Change	-10.5577
UL	-10.5577
IG	-10.5578
и	-10.5582
▁illegal	-10.5589
▁distinct	-10.5619
▁Description	-10.562
▁euro	-10.562
▁peasant	-10.5622
▁blade	-10.5625
▁dig	-10.5629
This	-10.5634
▁Asian	-10.5634
ternal	-10.5636
▁gym	-10.5641
▁laboratory	-10.5643
▁Arch	-10.5644
▁collapse	-10.5644
▁delete	-10.5644
▁electricity	-10.565
▁occurred	-10.565
▁Sar	-10.5652
▁dimensions	-10.5656
▁Mother	-10.5657
▁Modern	-10.566
▁toilet	-10.5661
▁clip	-10.5662
▁Tar	-10.5669
▁Poland	-10.567
▁algorithm	-10.567
ote	-10.5672
▁damaged	-10.5674
▁Spanish	-10.5689
chev	-10.5691
▁concentrate	-10.5693
▁grew	-10.5705
rated	-10.572
▁bearing	-10.5721
▁formal	-10.5724
Russian	-10.5726
▁destruction	-10.5727
stone	-10.5728
gon	-10.5729
▁rec	-10.5731
▁Fund	-10.5731
▁protective	-10.5732
▁Economic	-10.5732
▁Spa	-10.5734
▁integrated	-10.5734
▁recall	-10.5736
utter	-10.5737
▁cargo	-10.5741
RU	-10.5745
▁delicious	-10.5752
▁density	-10.5752
▁poem	-10.5755
▁Del	-10.576
▁Card	-10.576
▁leaf	-10.5764
▁qualities	-10.5766
▁perceive	-10.5767
▁chicken	-10.5769
▁taught	-10.5771
oper	-10.5778
▁collective	-10.5782
▁fishing	-10.5784
▁demo	-10.5786
▁golden	-10.5788
▁journey	-10.579
▁expansion	-10.5792
▁submit	-10.5792
▁decent	-10.5793
▁tension	-10.5795
▁portrait	-10.5795
▁Wall	-10.5796
▁deputy	-10.5801
▁slot	-10.5805
▁split	-10.5808
▁contained	-10.5811
▁coin	-10.5812
bid	-10.5817
rip	-10.5817
▁net	-10.582
▁Pal	-10.5823
▁honey	-10.5833
▁interact	-10.5834
▁tale	-10.5836
▁priest	-10.5836
post	-10.5837
Ex	-10.5838
▁Log	-10.584
▁Application	-10.5845
ographic	-10.5847
life	-10.5852
▁printing	-10.5852
▁drinking	-10.5854
▁excess	-10.5854
▁elder	-10.5858
▁workshop	-10.5862
▁CD	-10.587
▁premises	-10.5878
▁washing	-10.5881
▁priority	-10.5882
▁tomorrow	-10.5885
▁Place	-10.5892
▁Dia	-10.5895
▁manifestation	-10.5899
gur	-10.5902
▁Iran	-10.5904
ika	-10.5905
▁kilometers	-10.5908
▁clinic	-10.5913
CC	-10.5915
▁fighter	-10.5916
izer	-10.5918
▁Help	-10.592
akov	-10.5921
▁fragment	-10.5924
ching	-10.5924
▁inspection	-10.5925
▁Turn	-10.5932
SH	-10.5941
▁resist	-10.5942
And	-10.5943
pin	-10.5944
▁substance	-10.5947
▁employment	-10.5947
rel	-10.5948
▁carrying	-10.5955
▁introduce	-10.5956
▁union	-10.5959
▁confidence	-10.5962
▁beam	-10.5972
static	-10.5978
▁careful	-10.5979
▁Civil	-10.5981
ua	-10.5982
▁dollars	-10.5988
▁Middle	-10.5989
▁Without	-10.5991
▁Print	-10.5992
▁luck	-10.5993
▁neither	-10.601
▁awarded	-10.6012
▁declared	-10.6016
▁acute	-10.6018
▁strategic	-10.6021
▁Buy	-10.6027
▁Market	-10.6033
▁Eastern	-10.6035
▁pad	-10.6036
▁slip	-10.6036
▁Off	-10.6042
▁transformation	-10.6049
▁ocean	-10.605
▁none	-10.6055
▁Han	-10.6059
cker	-10.606
▁explanation	-10.606
▁ingredients	-10.6063
psych	-10.6064
▁directed	-10.6066
▁Gar	-10.6066
▁referred	-10.6075
▁retail	-10.6078
▁thermo	-10.6079
▁Organization	-10.608
corn	-10.6081
▁evaluate	-10.6086
▁observe	-10.6089
▁David	-10.6096
▁strict	-10.6099
▁committee	-10.61
▁abilities	-10.6109
▁Setting	-10.611
▁applies	-10.6111
▁estimate	-10.6112
uni	-10.6114
▁peak	-10.6127
▁knock	-10.6135
▁jacket	-10.6135
▁Spain	-10.6141
▁rough	-10.6142
▁studying	-10.6143
▁acting	-10.6148
▁Pack	-10.6148
▁remark	-10.6152
▁diagnostic	-10.6153
▁discharge	-10.6156
▁tumor	-10.6158
▁passing	-10.6163
▁grown	-10.6164
bul	-10.6168
▁broadcast	-10.6169
▁portion	-10.617
clusion	-10.6173
▁compare	-10.6176
▁electro	-10.6177
▁effectiveness	-10.618
▁reward	-10.6181
▁abandon	-10.6186
▁entirely	-10.6192
▁rarely	-10.6193
round	-10.6194
▁extended	-10.6196
IR	-10.6203
▁extend	-10.6207
non	-10.6208
▁eating	-10.6222
morph	-10.6224
▁separately	-10.6224
▁hunt	-10.6226
▁passage	-10.6236
▁argue	-10.6238
▁bind	-10.6248
▁exam	-10.6248
▁cinema	-10.6248
nie	-10.6249
▁prescribed	-10.6251
service	-10.6255
▁satellite	-10.6262
▁crew	-10.6269
▁Anna	-10.6274
▁dated	-10.6275
tell	-10.6279
emia	-10.6283
▁Enter	-10.6288
▁delivered	-10.629
▁meant	-10.629
▁blog	-10.6291
▁Follow	-10.6301
▁comb	-10.6302
khov	-10.6306
▁entities	-10.6309
▁translate	-10.6311
stat	-10.6312
▁warning	-10.632
▁Call	-10.632
OD	-10.6321
▁gentle	-10.6324
ifier	-10.6324
▁orange	-10.6324
▁profession	-10.6331
graduate	-10.6335
▁committed	-10.6338
AZ	-10.6342
▁executive	-10.6345
▁crash	-10.6348
▁biggest	-10.6351
ago	-10.6351
▁logic	-10.6357
ATION	-10.6358
▁operational	-10.6368
▁melt	-10.6372
▁painted	-10.6373
▁Remove	-10.6375
▁magnetic	-10.6383
▁injection	-10.6391
Be	-10.6406
▁Mini	-10.6409
liv	-10.641
▁anniversary	-10.6411
▁agencies	-10.6413
▁forever	-10.6415
DS	-10.6423
nish	-10.6431
duction	-10.6433
▁false	-10.6435
hand	-10.6437
▁occupied	-10.6439
mid	-10.6439
▁Kir	-10.6442
▁satisfied	-10.6444
▁submitted	-10.6445
▁apple	-10.6447
▁NOT	-10.6447
▁refused	-10.6447
▁dozen	-10.6449
BA	-10.645
▁arrival	-10.6452
▁nutrition	-10.6454
▁Was	-10.6456
▁stronger	-10.6457
berry	-10.6458
▁Small	-10.6461
▁delight	-10.6463
▁coordinate	-10.6465
media	-10.6468
▁Jews	-10.6476
▁bike	-10.6477
▁tournament	-10.6478
▁effectively	-10.6479
▁Jewish	-10.648
▁Olympic	-10.6484
▁exposure	-10.6485
▁updated	-10.649
▁prompt	-10.6495
▁wage	-10.6495
▁connector	-10.6499
**	-10.65
▁compact	-10.65
▁transparent	-10.6502
▁Keep	-10.6503
▁literally	-10.6509
▁Gold	-10.6513
▁spell	-10.6517
▁Contact	-10.6517
▁cartoon	-10.6517
▁speaking	-10.6518
Ba	-10.6521
case	-10.6522
▁biological	-10.6523
▁slave	-10.6524
▁establishment	-10.6526
▁photography	-10.6532
▁reporting	-10.6538
metric	-10.6543
vic	-10.6544
▁statistics	-10.6546
><	-10.655
▁remembered	-10.6553
▁swimming	-10.6556
▁depict	-10.656
▁Picture	-10.6567
▁circulation	-10.6567
▁passport	-10.6567
▁membrane	-10.657
▁unexpected	-10.657
▁Material	-10.6574
▁Polish	-10.6575
empt	-10.6578
▁consistent	-10.6581
▁execute	-10.6586
▁entering	-10.6586
troph	-10.6588
▁recognition	-10.6591
blo	-10.6597
▁intention	-10.6597
▁Dmitry	-10.6601
▁Audi	-10.6607
▁shipping	-10.6608
▁Through	-10.6608
▁Basic	-10.6609
▁reflection	-10.6622
class	-10.6624
▁processor	-10.663
▁sorry	-10.6632
▁Tele	-10.6633
kra	-10.6636
onym	-10.6642
▁improving	-10.665
▁adding	-10.6651
▁cylinder	-10.6654
correct	-10.6657
▁Euro	-10.6658
TR	-10.6673
▁arrow	-10.6677
▁coal	-10.6682
▁charm	-10.6685
▁interval	-10.6688
▁laptop	-10.6696
▁tag	-10.6696
▁bowl	-10.6698
▁Stalin	-10.6702
▁appointed	-10.671
▁minimal	-10.6712
▁respectively	-10.6718
▁brick	-10.6721
▁reasonable	-10.6722
▁Learn	-10.6722
▁joke	-10.6725
▁acquired	-10.6725
gli	-10.6726
▁Association	-10.6729
▁printer	-10.6729
▁Foreign	-10.6729
code	-10.6732
▁burning	-10.6736
HA	-10.6738
▁younger	-10.674
▁thorough	-10.6742
▁moon	-10.675
kar	-10.675
▁somewhat	-10.6751
▁sensitive	-10.6754
▁comprehensive	-10.6756
▁cooking	-10.676
▁Gro	-10.6762
▁applicant	-10.6764
▁LLC	-10.6764
▁nerve	-10.6766
▁closely	-10.6772
▁packaging	-10.6777
▁flavor	-10.6779
▁png	-10.6784
▁overcome	-10.6786
▁Stra	-10.6787
▁functionality	-10.6789
kova	-10.679
ulf	-10.679
▁Choose	-10.6792
▁Labor	-10.6793
▁selling	-10.6794
iya	-10.6794
▁reliability	-10.6795
▁knife	-10.6799
▁sauce	-10.6799
▁Usually	-10.6801
▁nearly	-10.6804
▁bonus	-10.6805
▁barrier	-10.6808
▁wearing	-10.6811
bon	-10.6811
var	-10.6812
▁engage	-10.6816
▁Tur	-10.6821
▁matches	-10.6824
▁difficulty	-10.6824
▁Hol	-10.6829
▁supplied	-10.6832
▁seller	-10.6833
▁capture	-10.6834
▁threaten	-10.6836
▁adequate	-10.6845
▁generate	-10.6846
▁Turkish	-10.6847
▁absolute	-10.6855
ique	-10.6856
pack	-10.6861
▁Live	-10.6862
▁disappeared	-10.6869
▁fairly	-10.6871
▁province	-10.6873
▁Mont	-10.6878
▁inhabitants	-10.6878
▁entertainment	-10.688
fall	-10.6882
▁restrict	-10.689
▁prevention	-10.6892
▁abstract	-10.6892
▁innovative	-10.6892
RT	-10.6896
▁Him	-10.6901
▁hearing	-10.6903
▁neutral	-10.6906
▁spray	-10.6909
▁distinguish	-10.6911
▁grave	-10.6914
grav	-10.6916
▁layout	-10.6917
▁elastic	-10.6922
▁connecting	-10.6929
▁Beach	-10.6936
▁Slav	-10.6939
▁Deputy	-10.6941
▁Pet	-10.6946
▁Maxim	-10.6947
▁regulate	-10.6948
▁interpretation	-10.6953
▁crown	-10.6955
▁Personal	-10.6957
immer	-10.696
▁Gre	-10.6966
▁slight	-10.6971
anda	-10.6973
▁Poly	-10.6973
▁hill	-10.6974
▁witness	-10.6977
▁tender	-10.6977
▁Based	-10.6984
▁proud	-10.6984
▁reducing	-10.6985
resident	-10.6988
▁arrive	-10.6989
▁regardless	-10.6998
▁leak	-10.7002
▁robot	-10.7004
▁Saint	-10.7006
▁feedback	-10.7008
▁Armenian	-10.7014
gno	-10.7017
▁decline	-10.702
bot	-10.7021
▁Lake	-10.7025
▁suggested	-10.7035
▁Intel	-10.7035
crypt	-10.7037
▁restrictions	-10.7038
cade	-10.7038
ND	-10.704
▁injury	-10.704
▁royal	-10.704
▁enemies	-10.7046
▁Muslim	-10.7048
▁Mak	-10.7052
▁accumulate	-10.7068
odor	-10.7071
Ar	-10.7073
▁convey	-10.7074
▁Czech	-10.7076
▁mold	-10.7077
▁fairy	-10.7079
▁structural	-10.7084
▁flour	-10.7086
Option	-10.7089
SR	-10.7097
▁chocolate	-10.7104
▁generated	-10.7111
maker	-10.7114
▁blank	-10.7116
▁weigh	-10.7121
▁trigger	-10.7124
CS	-10.7127
▁performing	-10.7129
▁fence	-10.7129
▁Siberia	-10.7134
▁League	-10.7136
▁poll	-10.7138
▁Cut	-10.714
cast	-10.7148
▁telephone	-10.7148
▁Mir	-10.7151
▁Later	-10.7154
▁Line	-10.7163
▁loose	-10.7163
▁III	-10.7176
#	-10.7177
▁Spirit	-10.7178
▁Yo	-10.718
▁slide	-10.7181
▁distinguished	-10.7183
▁Max	-10.7186
▁enforcement	-10.7186
▁prospect	-10.7191
▁diagram	-10.7194
▁configure	-10.7198
▁compliance	-10.72
amine	-10.7201
▁scratch	-10.7202
ovna	-10.7204
▁irre	-10.7223
▁Medical	-10.7227
▁glue	-10.7227
▁Bla	-10.7229
▁complicated	-10.7229
▁hook	-10.723
aya	-10.7231
self	-10.7233
cil	-10.7241
▁upgrade	-10.7241
▁Food	-10.7241
awn	-10.7243
most	-10.7243
▁perception	-10.7254
oxy	-10.7254
▁provider	-10.7256
▁Airport	-10.7263
▁Clean	-10.7268
▁pregnant	-10.7269
▁Cra	-10.7269
▁Cur	-10.7271
▁violence	-10.7271
▁heaven	-10.7271
{	-10.7275
▁palm	-10.7281
udge	-10.7281
▁distributed	-10.7284
▁Miss	-10.7286
Turk	-10.7287
claim	-10.7291
▁forecast	-10.7294
▁Luc	-10.7301
erie	-10.7302
▁Wallpaper	-10.7306
train	-10.7306
▁polymer	-10.7308
chlor	-10.7322
▁identity	-10.7324
band	-10.7325
▁receipt	-10.7328
▁attraction	-10.7332
▁solar	-10.7337
▁Direct	-10.734
▁flying	-10.7343
therapy	-10.7349
▁disturb	-10.7353
▁sweat	-10.7356
▁entity	-10.7359
▁affairs	-10.7365
▁percentage	-10.737
▁assistant	-10.7376
▁spark	-10.7377
▁guilt	-10.7378
▁decorative	-10.7378
▁spare	-10.7379
plication	-10.7381
▁Tan	-10.7383
▁integration	-10.7384
PC	-10.7385
▁twist	-10.7386
▁genetic	-10.7386
▁vital	-10.7387
build	-10.74
▁northern	-10.74
▁theoretical	-10.7402
▁causing	-10.7411
▁invite	-10.7416
▁kid	-10.7419
▁crush	-10.7419
▁tough	-10.7422
treat	-10.7429
▁employer	-10.7429
▁lying	-10.743
TC	-10.7433
▁dried	-10.7438
▁silence	-10.7446
▁Syria	-10.7446
▁Rome	-10.7447
pell	-10.745
OC	-10.7459
▁castle	-10.7461
▁approaches	-10.7462
▁reflected	-10.7463
▁Convention	-10.7466
▁exclude	-10.7473
▁promised	-10.7477
▁yesterday	-10.7487
NI	-10.7494
▁harmful	-10.7495
▁rapid	-10.7495
▁keyboard	-10.7501
rite	-10.751
▁duties	-10.7511
▁armed	-10.7511
ception	-10.7515
▁protest	-10.7515
▁foam	-10.7516
▁flood	-10.7518
▁transmit	-10.752
mobil	-10.752
▁Canada	-10.7522
phil	-10.7529
▁charged	-10.7537
▁rat	-10.7545
▁senior	-10.7548
▁descend	-10.755
▁wireless	-10.7553
▁succeed	-10.7554
force	-10.7557
▁Remember	-10.7558
▁joined	-10.7558
▁Report	-10.756
▁float	-10.756
▁Op	-10.7561
▁extensive	-10.7566
▁healing	-10.7569
▁socio	-10.7582
bla	-10.7585
▁intellectual	-10.7587
▁concluded	-10.7588
TP	-10.7594
count	-10.7595
▁artistic	-10.7597
▁arrangement	-10.7598
▁lady	-10.7599
rav	-10.76
▁capabilities	-10.7602
▁African	-10.7603
▁Often	-10.7608
▁array	-10.7609
▁preference	-10.7615
▁render	-10.7616
▁Tool	-10.7618
▁scope	-10.7622
▁elegant	-10.7627
▁authentic	-10.7629
FC	-10.7631
▁focused	-10.7631
▁Austria	-10.7632
▁George	-10.7632
▁drunk	-10.7638
SM	-10.7638
▁crazy	-10.764
▁simultaneously	-10.7642
▁vast	-10.7644
▁Network	-10.7646
▁destination	-10.7648
▁demon	-10.7655
▁bug	-10.7658
▁suspension	-10.7663
▁Wood	-10.7664
▁specify	-10.7664
BI	-10.7667
▁Run	-10.7669
▁mom	-10.7673
▁Guard	-10.7674
▁massive	-10.7674
▁Michael	-10.7678
▁stroke	-10.7678
BS	-10.7679
}	-10.768
▁mut	-10.7681
▁decorated	-10.7681
▁Beautiful	-10.7682
▁tap	-10.7682
▁edition	-10.7683
▁organism	-10.7684
▁Facebook	-10.7686
▁cafe	-10.7687
▁Guide	-10.7698
▁digest	-10.7699
▁Custom	-10.7702
▁eventually	-10.7708
oi	-10.7714
EP	-10.7715
▁reception	-10.7717
▁glasses	-10.7722
▁sym	-10.7722
▁reverse	-10.7732
▁slope	-10.7735
▁Consider	-10.7735
motion	-10.7736
▁reaches	-10.7741
▁Dark	-10.7741
▁rotation	-10.7742
▁mouse	-10.7745
▁Maria	-10.7747
▁adventure	-10.7748
▁minister	-10.775
▁explore	-10.775
▁outcome	-10.7754
▁copper	-10.7757
▁ease	-10.7763
road	-10.7766
NC	-10.7767
▁Otherwise	-10.7768
▁whatever	-10.7771
▁phenomena	-10.7772
▁compensation	-10.7772
▁Manager	-10.7776
ancing	-10.7776
▁needle	-10.7777
▁Come	-10.778
itu	-10.7781
▁Armenia	-10.7785
▁Four	-10.7788
▁pipeline	-10.7795
uous	-10.78
▁evolution	-10.7801
▁developers	-10.7801
VA	-10.7809
lick	-10.781
▁Mode	-10.7813
▁varieties	-10.7817
▁deploy	-10.7817
▁sword	-10.7821
▁Sunday	-10.7826
▁serving	-10.7826
▁academic	-10.7829
▁ultimate	-10.783
▁radical	-10.783
▁correction	-10.783
sumption	-10.783
▁undergo	-10.7831
▁Display	-10.7833
▁medal	-10.7834
▁Again	-10.7841
UN	-10.7843
▁anyway	-10.7843
▁philosophy	-10.7847
Ro	-10.785
▁measuring	-10.7857
▁ruin	-10.7862
▁cute	-10.7866
▁Sergey	-10.7875
▁anymore	-10.7875
▁oven	-10.7875
▁authorized	-10.7875
▁History	-10.7877
▁lung	-10.7878
▁assist	-10.7878
▁Question	-10.7883
▁Flor	-10.7884
▁Draw	-10.7885
including	-10.7888
▁boiler	-10.789
▁washed	-10.7896
▁Ten	-10.7899
▁Van	-10.7903
▁unable	-10.7909
which	-10.7911
▁prize	-10.7913
▁painful	-10.7914
▁relief	-10.7918
▁interpret	-10.7925
▁intensity	-10.7925
▁weekend	-10.7925
▁Club	-10.7928
▁hormone	-10.7929
▁warehouse	-10.7935
▁announce	-10.7939
arbitr	-10.7941
▁lunch	-10.7944
▁shaft	-10.7949
▁lifestyle	-10.7949
function	-10.7951
▁Dress	-10.7954
т	-10.7959
▁bake	-10.7961
If	-10.7968
▁surrounded	-10.7972
н	-10.7975
▁bush	-10.7977
▁storm	-10.7978
▁researchers	-10.7986
pple	-10.7989
▁yield	-10.7992
RM	-10.7992
▁preferred	-10.7999
▁miles	-10.8006
▁Uzbekistan	-10.8007
▁signature	-10.801
▁metro	-10.8013
▁yard	-10.8014
▁encounter	-10.8016
▁salary	-10.8016
▁colorful	-10.8021
▁Oil	-10.8026
▁flexible	-10.8027
GA	-10.8039
▁inhibit	-10.8043
▁printed	-10.8044
▁poster	-10.8045
▁alter	-10.8048
MB	-10.8051
▁File	-10.8052
▁cosmetic	-10.8053
▁luxury	-10.8053
▁Bon	-10.806
ipped	-10.8062
▁deserve	-10.8065
▁captured	-10.8074
▁sensation	-10.8076
▁Ham	-10.8077
▁Sil	-10.8081
rig	-10.8081
▁accommodation	-10.8084
▁macro	-10.8092
▁vegetable	-10.8094
▁interrupt	-10.8095
▁chose	-10.8097
SK	-10.81
▁stem	-10.8102
▁lean	-10.8102
▁taxes	-10.8104
▁Harry	-10.8104
compatible	-10.8107
▁surprising	-10.8109
▁calendar	-10.8115
▁coincide	-10.8116
▁Tim	-10.8121
▁rural	-10.8127
▁complain	-10.8133
▁Search	-10.8136
▁tongue	-10.8136
▁Sky	-10.8139
▁tall	-10.814
▁syndrome	-10.814
shaped	-10.8143
▁tourism	-10.8144
▁dialogue	-10.8145
piration	-10.8146
▁batteries	-10.816
▁Tell	-10.8161
▁boxes	-10.817
▁contradict	-10.8171
▁prosecutor	-10.8175
▁Latin	-10.8177
▁sleeve	-10.8182
ground	-10.819
▁embodiment	-10.8191
▁Square	-10.8193
▁insulation	-10.8193
▁flew	-10.8198
▁kick	-10.8202
▁urgent	-10.8202
▁approval	-10.8206
▁appointment	-10.8209
▁Plant	-10.8209
▁Close	-10.8211
▁finance	-10.8213
▁Large	-10.8215
▁Mur	-10.8218
▁fasten	-10.822
▁generator	-10.822
▁bend	-10.8221
▁harvest	-10.8224
gri	-10.8227
▁addict	-10.823
▁darkness	-10.8232
▁PRO	-10.8233
▁barrel	-10.8233
▁basket	-10.8235
▁dad	-10.8237
▁heroes	-10.8238
mur	-10.8239
▁Family	-10.824
▁Hard	-10.8243
▁justice	-10.8243
▁Indeed	-10.8246
▁dense	-10.8261
circ	-10.8262
▁popularity	-10.8263
▁preserved	-10.8264
▁vacuum	-10.8269
▁bull	-10.827
▁Alex	-10.8271
▁ignore	-10.8272
vul	-10.8277
▁Motor	-10.8278
▁romantic	-10.828
▁Decor	-10.8282
▁missile	-10.8283
▁passes	-10.8285
▁hip	-10.8298
▁Further	-10.8303
▁belief	-10.8303
script	-10.8306
▁experimental	-10.8309
▁equivalent	-10.8319
▁Instead	-10.8321
▁gland	-10.8322
▁calculate	-10.8324
▁Online	-10.8325
▁Opera	-10.8331
▁indeed	-10.8332
▁Number	-10.8332
▁outfit	-10.8335
dress	-10.8339
▁equation	-10.8339
eller	-10.8349
trans	-10.8351
▁pray	-10.8352
icular	-10.8353
▁Defense	-10.8353
▁Drive	-10.8354
▁Night	-10.8356
▁Empire	-10.8357
▁Cross	-10.8358
DR	-10.8366
▁Smart	-10.8368
▁discipline	-10.8371
PL	-10.8373
▁scream	-10.8375
▁Robert	-10.8377
▁Electric	-10.8378
▁independence	-10.838
CI	-10.838
▁emission	-10.8383
▁solving	-10.8391
▁variation	-10.8394
▁underground	-10.8396
▁southern	-10.8398
▁Fashion	-10.8405
▁Theater	-10.8405
▁Nations	-10.8412
▁frequently	-10.8417
▁aesthetic	-10.8418
▁completion	-10.8418
▁diver	-10.8424
MD	-10.8424
▁fool	-10.8426
▁Sergei	-10.8428
▁shout	-10.843
lush	-10.8431
▁Boris	-10.8436
RC	-10.8436
▁giant	-10.8438
▁availability	-10.8439
scale	-10.8439
▁Machine	-10.8444
▁punishment	-10.8444
BO	-10.8445
▁creativity	-10.8446
▁Regional	-10.8451
▁bolt	-10.8454
▁significance	-10.8457
iki	-10.8466
▁Account	-10.8467
▁knit	-10.8468
Alexandr	-10.8469
level	-10.8472
▁Author	-10.848
→	-10.8494
▁Short	-10.8495
▁kidney	-10.8495
▁offend	-10.8496
▁Korea	-10.8503
▁Hall	-10.8508
▁console	-10.8509
▁ceremony	-10.8512
▁rational	-10.8513
▁strictly	-10.8518
▁Chapter	-10.8522
▁alien	-10.8526
ibly	-10.8527
break	-10.8528
▁facility	-10.8529
TU	-10.853
▁partnership	-10.8531
▁Assembly	-10.8533
▁employ	-10.8537
▁Trade	-10.8537
▁borrow	-10.8538
▁Baby	-10.8539
▁Especially	-10.8549
▁supplies	-10.8549
▁Prime	-10.8551
▁ensuring	-10.8559
operative	-10.8559
SQL	-10.8562
▁visa	-10.8569
▁trap	-10.857
▁Anton	-10.8574
▁Still	-10.8577
bro	-10.8596
▁candle	-10.8598
▁Energy	-10.86
▁Doctor	-10.8603
▁Travel	-10.8603
rich	-10.8606
▁settled	-10.8606
▁quantity	-10.8607
▁cotton	-10.8607
▁rapidly	-10.861
▁losing	-10.8611
▁acquire	-10.8616
▁Class	-10.8617
</	-10.8618
▁outline	-10.862
▁suffered	-10.862
Tech	-10.8621
▁hunting	-10.8625
▁estimated	-10.8625
corp	-10.863
▁scenario	-10.8631
▁convict	-10.8631
▁govern	-10.8634
▁diamond	-10.8635
▁Frank	-10.8638
▁Until	-10.864
▁noble	-10.8653
▁replied	-10.8654
▁possibilities	-10.8663
▁opposition	-10.8665
cam	-10.8668
▁Phil	-10.8676
▁Happy	-10.868
▁requirement	-10.8687
▁Garden	-10.869
rick	-10.8692
▁ownership	-10.8693
▁Word	-10.8695
▁investors	-10.8695
▁molecule	-10.8701
▁cabinet	-10.8704
▁pepper	-10.8705
▁devoted	-10.8713
▁beloved	-10.8713
▁Minsk	-10.8714
phan	-10.8716
▁miracle	-10.8727
▁universe	-10.8729
€	-10.8734
▁durable	-10.8738
▁superior	-10.8738
clude	-10.8752
▁Def	-10.8753
But	-10.8754
▁Put	-10.8754
▁beneficial	-10.8757
▁unless	-10.8761
▁consultation	-10.8762
▁independently	-10.877
▁Similar	-10.8771
▁infant	-10.8777
▁solved	-10.8777
▁exclusive	-10.8782
Friend	-10.8784
▁favorable	-10.8784
itarian	-10.8786
▁Syn	-10.879
ENT	-10.8791
▁glance	-10.8795
▁jewelry	-10.8801
▁advertise	-10.8802
▁desert	-10.8803
▁Tax	-10.8812
▁desktop	-10.8812
▁revenue	-10.8816
▁cock	-10.8817
▁lucky	-10.8823
▁Friday	-10.8826
▁contest	-10.8826
▁Mel	-10.8827
▁Brazil	-10.8828
▁threw	-10.8829
▁genre	-10.8832
▁disabled	-10.8836
▁insect	-10.8837
▁Front	-10.8838
▁rescue	-10.8838
▁archive	-10.8841
ogenic	-10.8844
▁identification	-10.8847
▁aroma	-10.885
▁portal	-10.8854
▁Villa	-10.8855
▁Shu	-10.8859
▁busy	-10.8861
▁Several	-10.8862
▁Example	-10.8866
▁flame	-10.8868
▁disappoint	-10.8871
▁evaluation	-10.8878
▁admit	-10.8882
▁Lenin	-10.8887
▁Supreme	-10.8888
▁classical	-10.8888
▁restoration	-10.889
inflammatory	-10.8893
▁interfere	-10.8898
▁receiver	-10.8901
▁modification	-10.8902
zen	-10.891
▁Belarusian	-10.8916
▁Double	-10.8917
▁naked	-10.892
▁Nikolai	-10.8921
▁wake	-10.8922
other	-10.8926
screen	-10.8931
▁gender	-10.8935
с	-10.8936
▁qualified	-10.8938
▁dropped	-10.894
▁frequent	-10.894
▁cluster	-10.8943
ckle	-10.8944
▁swim	-10.8945
▁Flower	-10.8953
▁consent	-10.8953
▁Background	-10.8953
▁Road	-10.8961
▁musician	-10.8967
▁immune	-10.8967
▁terrace	-10.8967
▁wrap	-10.8968
▁Constitution	-10.8971
▁professor	-10.8972
▁rental	-10.8975
▁Bulgaria	-10.8979
▁analog	-10.8981
▁medication	-10.8982
▁boss	-10.8983
migrant	-10.8991
▁chairman	-10.8996
▁impressive	-10.8996
▁lecture	-10.8996
▁Metal	-10.8996
▁council	-10.9001
▁greet	-10.9001
▁proven	-10.9009
control	-10.9013
▁shield	-10.9018
▁Lithuania	-10.9025
▁Chan	-10.9027
▁Should	-10.903
▁depression	-10.9032
▁sake	-10.9034
agin	-10.9035
▁putting	-10.9039
▁detection	-10.9042
▁excessive	-10.9044
▁stir	-10.9045
▁Novo	-10.905
▁divide	-10.9051
▁copies	-10.9054
kovsky	-10.9056
▁forgive	-10.9058
▁consume	-10.9059
▁inflammation	-10.9059
▁vice	-10.9062
▁directory	-10.9064
▁Shar	-10.9065
integr	-10.9067
EV	-10.9072
▁James	-10.9072
▁Ken	-10.9074
▁apparatus	-10.9076
roid	-10.9076
▁vibration	-10.9078
para	-10.9092
ecu	-10.9093
▁Hair	-10.9097
clock	-10.9102
▁stylish	-10.9105
▁grind	-10.9109
▁outlet	-10.9114
▁explosion	-10.9115
ü	-10.9125
▁Team	-10.9127
arian	-10.9132
TM	-10.9132
▁Tatar	-10.9135
▁peaceful	-10.9135
▁Agreement	-10.9137
▁incredible	-10.9137
style	-10.9141
▁competitor	-10.9144
▁Install	-10.9145
flex	-10.9148
▁Korean	-10.9151
▁Java	-10.9152
▁behave	-10.9155
▁Rock	-10.9156
▁Society	-10.9157
▁unpleasant	-10.9162
▁trim	-10.9162
▁universities	-10.9164
▁reset	-10.9169
wall	-10.917
▁chat	-10.9173
▁drove	-10.9177
▁determining	-10.918
▁cartridge	-10.9181
▁Summer	-10.9184
▁fleet	-10.9194
glyc	-10.9196
▁parliament	-10.9198
▁facilitate	-10.9213
▁journal	-10.9217
▁fellow	-10.9219
▁lever	-10.9221
▁handling	-10.9222
posing	-10.9224
▁exhibit	-10.9226
▁optical	-10.9228
▁Cri	-10.9232
▁angry	-10.9232
azar	-10.9232
▁linear	-10.9235
▁obstacle	-10.9236
▁Protection	-10.9237
▁patch	-10.9238
▁arranged	-10.924
р	-10.924
▁William	-10.9241
▁fifth	-10.925
▁mushroom	-10.9253
▁Palace	-10.9256
▁blame	-10.9261
▁champion	-10.9269
▁cope	-10.9269
▁desk	-10.927
▁helpful	-10.9283
▁industries	-10.9285
file	-10.9288
▁exclusively	-10.9289
▁(“	-10.929
▁Text	-10.9292
▁axis	-10.9293
▁Review	-10.9296
oxi	-10.93
▁intervention	-10.9303
▁college	-10.931
RP	-10.9311
▁aggressive	-10.9315
▁FOR	-10.9318
▁palace	-10.9323
▁Currently	-10.9324
▁kilo	-10.9327
stein	-10.9331
▁uncle	-10.9331
▁indoor	-10.9335
▁Bill	-10.9336
naya	-10.934
▁begun	-10.9344
▁pulse	-10.9349
KB	-10.9352
▁Chairman	-10.9353
▁Graphic	-10.9353
▁possess	-10.9359
▁wholesale	-10.9364
▁identical	-10.9365
▁Instagram	-10.9373
etch	-10.9375
aire	-10.9376
▁Micro	-10.9382
▁applicable	-10.9383
▁conventional	-10.9384
▁Golden	-10.9387
▁steering	-10.9388
▁suppress	-10.9395
▁trunk	-10.9395
▁Guest	-10.9402
▁cease	-10.9404
▁mandatory	-10.9405
▁Command	-10.9406
▁Case	-10.941
▁sec	-10.9416
▁Sale	-10.942
▁prime	-10.9422
▁literary	-10.9428
▁monk	-10.9429
▁rifle	-10.9431
▁Little	-10.9431
▁Egypt	-10.9445
▁guitar	-10.9456
▁hydraulic	-10.9458
▁communities	-10.9463
▁stain	-10.9465
space	-10.9466
▁Technical	-10.9471
▁Almost	-10.9473
▁ritual	-10.9474
turn	-10.9475
▁removing	-10.9476
▁outstanding	-10.9477
▁moderate	-10.948
▁verb	-10.9483
▁bullet	-10.9488
cogni	-10.9496
CR	-10.9498
▁Student	-10.9499
▁mounted	-10.9501
▁scatter	-10.9501
▁pale	-10.9503
▁adapter	-10.9504
▁Vasily	-10.9506
▁courage	-10.9517
▁nurse	-10.9517
▁cave	-10.9518
▁ventilation	-10.9519
▁programming	-10.952
▁drum	-10.9522
▁polish	-10.9522
▁Olga	-10.9529
▁attach	-10.953
fill	-10.953
▁Philip	-10.9546
▁strap	-10.9547
▁championship	-10.9548
▁Meanwhile	-10.955
▁navigation	-10.955
▁abuse	-10.955
▁stuck	-10.9558
▁highway	-10.9558
▁complement	-10.9568
`	-10.9573
▁balcony	-10.9573
▁magical	-10.9577
▁villa	-10.958
▁tribe	-10.958
▁Local	-10.9581
▁Technology	-10.9583
▁tattoo	-10.9586
▁Elena	-10.9586
▁disadvantage	-10.9591
▁Mill	-10.9592
▁servant	-10.9602
ALL	-10.9607
▁indication	-10.9613
FO	-10.9613
▁celebration	-10.9614
▁regulatory	-10.9614
▁strain	-10.9615
▁divorce	-10.9616
VER	-10.962
▁Besides	-10.9622
ART	-10.9623
▁sofa	-10.9625
▁weakness	-10.9628
▁regret	-10.964
▁instantly	-10.965
▁approx	-10.9668
▁fought	-10.9668
▁Winter	-10.9675
▁injuries	-10.9681
▁HIV	-10.9686
▁Customer	-10.9688
▁Illustration	-10.9696
▁recruit	-10.9696
▁Global	-10.9699
▁OK	-10.9701
▁margin	-10.9706
▁cow	-10.9707
▁Chu	-10.9709
▁Space	-10.9714
▁Series	-10.9714
▁variant	-10.972
▁preliminary	-10.9722
▁dough	-10.9723
▁deck	-10.9723
hara	-10.9735
▁organizing	-10.9738
▁suck	-10.9743
glu	-10.9749
▁emerge	-10.9751
▁ethnic	-10.9754
▁civilization	-10.9754
▁Saturday	-10.9756
▁territories	-10.9756
▁stamp	-10.9762
▁intense	-10.9769
▁Berlin	-10.9782
▁Queen	-10.9782
▁Lead	-10.9785
▁dirty	-10.9789
▁Film	-10.9794
▁tries	-10.9795
▁alloy	-10.9798
lug	-10.9799
▁lovers	-10.98
▁Administration	-10.9801
▁Professor	-10.9801
▁cabin	-10.9806
▁policies	-10.9814
▁Paint	-10.9814
▁terrorist	-10.9816
▁hydrogen	-10.9817
▁grandmother	-10.9819
▁Method	-10.9819
KO	-10.982
bacter	-10.9822
▁mature	-10.9824
▁curtain	-10.9829
▁Kingdom	-10.983
▁costume	-10.9837
MC	-10.9838
▁Share	-10.9846
▁convinced	-10.9858
angle	-10.9863
▁Media	-10.9865
▁perspective	-10.9866
action	-10.9869
▁catalog	-10.9869
▁Rub	-10.987
▁salad	-10.9877
▁grace	-10.988
▁monster	-10.9883
▁departure	-10.9885
▁Nothing	-10.9886
▁vein	-10.9893
▁Spring	-10.9893
▁violate	-10.9897
▁Latvia	-10.9898
▁Quality	-10.9903
▁appliance	-10.9906
▁Would	-10.9911
▁boundaries	-10.9911
▁patent	-10.9914
▁Military	-10.9919
charge	-10.9924
▁Probably	-10.993
▁confess	-10.993
▁horror	-10.9938
▁intake	-10.9943
▁ceramic	-10.9948
▁Provide	-10.996
▁lid	-10.9961
▁Hold	-10.9963
▁complications	-10.9967
▁orientation	-10.9975
▁rope	-10.9979
▁smoking	-10.9983
▁convenience	-10.9988
▁Criminal	-10.9991
worth	-10.9993
phen	-11
▁mysterious	-11.0004
▁DNA	-11.0009
▁satisfy	-11.0018
▁sensitivity	-11.0018
▁refrigerator	-11.002
▁plenty	-11.002
text	-11.0024
▁burst	-11.0029
▁unlikely	-11.0031
▁worldwide	-11.0031
▁threshold	-11.0034
PM	-11.0034
▁Digital	-11.005
▁participant	-11.0059
just	-11.006
▁reputation	-11.0063
centr	-11.0065
▁eternal	-11.0071
▁classification	-11.0079
▁charging	-11.008
activ	-11.008
magn	-11.0084
▁worst	-11.0085
▁blend	-11.0099
bble	-11.0102
▁shame	-11.0104
khan	-11.0105
▁conversion	-11.0106
▁throat	-11.0112
▁Yuri	-11.012
▁plum	-11.012
▁acquaintance	-11.012
▁contemporary	-11.012
▁bulk	-11.0121
▁intelligent	-11.0123
▁premium	-11.0125
▁worn	-11.0126
▁lemon	-11.0127
▁unlike	-11.0127
condition	-11.0129
▁disaster	-11.0131
Invest	-11.014
▁politics	-11.0147
itude	-11.0155
found	-11.0157
▁pose	-11.0157
▁Save	-11.0158
▁pace	-11.0161
▁accessible	-11.0165
▁Transport	-11.017
▁immediate	-11.0175
▁Process	-11.0186
▁Interest	-11.0186
ounce	-11.0188
▁worried	-11.0193
▁accused	-11.0193
▁arrange	-11.0194
ML	-11.0203
▁warranty	-11.0204
▁sketch	-11.021
phon	-11.0213
▁Store	-11.0213
▁Phone	-11.0217
▁Nevertheless	-11.0218
sufficient	-11.0218
▁Nice	-11.0219
▁Conference	-11.023
firm	-11.0232
▁Professional	-11.0237
▁negotiations	-11.0237
▁regiment	-11.0239
▁welding	-11.024
▁distant	-11.0245
▁Nazi	-11.0246
▁captain	-11.0247
▁Spec	-11.0247
▁exciting	-11.0248
▁cloth	-11.025
▁admitted	-11.0256
▁buried	-11.0259
▁agriculture	-11.027
▁stainless	-11.0275
patriot	-11.0276
▁frost	-11.0277
order	-11.0279
▁Operation	-11.0283
▁cuisine	-11.0284
Script	-11.03
▁stack	-11.0306
front	-11.0312
▁Though	-11.0323
▁okay	-11.0325
▁punish	-11.0335
▁volunteer	-11.0336
▁motivation	-11.0339
clause	-11.0339
▁recreation	-11.0341
▁Victor	-11.0345
▁Write	-11.0353
▁Rob	-11.0354
▁stimulate	-11.0355
▁intensive	-11.0358
▁warrior	-11.0361
▁boost	-11.0362
▁mounting	-11.0366
▁Foundation	-11.0366
▁Made	-11.0367
▁productivity	-11.0368
▁diagnose	-11.0372
carbon	-11.0374
still	-11.0374
▁compartment	-11.0375
▁thrown	-11.0378
▁Novgorod	-11.0386
COM	-11.0388
▁wipe	-11.039
▁Apparently	-11.0391
How	-11.0391
▁spoil	-11.0391
▁Northern	-11.0394
▁taxi	-11.0396
▁merchant	-11.0416
▁peculiar	-11.0416
▁purple	-11.042
related	-11.042
ATE	-11.042
▁Engine	-11.0422
▁barely	-11.0423
▁acceptable	-11.0434
▁hire	-11.0435
cluding	-11.0439
aunt	-11.044
▁Kara	-11.0441
▁facing	-11.0442
▁Prim	-11.0448
▁electron	-11.0449
▁exposed	-11.0455
▁diesel	-11.0456
▁relay	-11.0458
▁Trump	-11.0461
▁Championship	-11.0462
▁Studio	-11.0464
▁Cossack	-11.0469
▁accelerate	-11.0475
▁Culture	-11.0481
▁Agency	-11.0483
▁arose	-11.0493
▁surgical	-11.0497
▁ultra	-11.05
▁coverage	-11.0505
▁monastery	-11.0506
▁spacious	-11.0509
▁Rose	-11.051
▁commit	-11.0514
▁imagination	-11.052
™	-11.0526
▁skirt	-11.0527
<	-11.0527
▁sq	-11.0533
▁coefficient	-11.0534
▁limitation	-11.0545
▁Delivery	-11.0548
▁modified	-11.0549
revolutionary	-11.0553
▁Third	-11.0557
▁fitting	-11.0558
▁Petrov	-11.0562
▁Policy	-11.0565
▁dirt	-11.0565
▁Hello	-11.0568
▁awareness	-11.0569
▁coronavirus	-11.0571
▁merge	-11.0572
▁Britain	-11.0572
▁Answer	-11.0574
▁representation	-11.0581
▁brilliant	-11.0582
metry	-11.0585
▁Mobile	-11.0588
▁noticeable	-11.0588
▁Woman	-11.0602
▁Greece	-11.0608
▁erect	-11.0612
▁utility	-11.0616
nutrient	-11.0619
▁potatoes	-11.0622
▁suspend	-11.0622
▁clay	-11.0628
▁teenager	-11.063
▁distort	-11.0633
▁Camp	-11.0635
▁rice	-11.0642
▁Estonia	-11.0642
▁Body	-11.0643
▁Jan	-11.0646
▁Duma	-11.0647
▁calcium	-11.065
▁placing	-11.0664
▁Festival	-11.0673
▁pier	-11.0682
spire	-11.0685
▁Andrey	-11.0687
▁detachment	-11.0693
▁elite	-11.0695
▁Odessa	-11.0702
▁lymph	-11.0705
▁weaken	-11.0706
▁admire	-11.0706
▁separation	-11.0707
▁raising	-11.071
▁tasty	-11.0711
▁architect	-11.0717
▁jam	-11.0718
▁injured	-11.0719
▁Royal	-11.0719
▁zoo	-11.073
▁Cover	-11.0731
▁sink	-11.0732
▁Mountain	-11.0733
▁Construction	-11.0736
▁adjacent	-11.0739
▁asleep	-11.0745
▁dissolve	-11.0753
▁unfortunately	-11.0754
▁fitness	-11.0758
▁creator	-11.0758
high	-11.076
▁cheerful	-11.0768
▁Catholic	-11.0771
▁anxiety	-11.0771
▁memories	-11.0779
economic	-11.0783
▁gall	-11.0785
▁optimize	-11.0788
▁accomplish	-11.0794
▁Expert	-11.08
▁relieve	-11.08
▁Monday	-11.0804
▁Recall	-11.0809
▁institute	-11.081
▁banner	-11.081
▁polar	-11.081
▁Viktor	-11.0814
▁cavity	-11.0814
▁Oleg	-11.0815
▁shine	-11.0817
▁integral	-11.0818
▁reservoir	-11.0823
▁forgotten	-11.0824
▁adhere	-11.0824
▁damp	-11.083
▁compete	-11.083
▁nest	-11.0838
▁cheek	-11.084
▁wool	-11.084
▁carpet	-11.0851
▁awesome	-11.0855
▁liability	-11.0856
▁confused	-11.0863
▁dining	-11.0864
▁affordable	-11.0869
▁Comb	-11.0869
▁California	-11.0869
▁dare	-11.087
▁assignment	-11.0872
▁disposal	-11.0875
▁matrix	-11.0875
▁certification	-11.0878
taking	-11.0879
▁Features	-11.0884
▁stove	-11.0887
▁Return	-11.089
▁corridor	-11.089
▁salon	-11.0891
▁Ball	-11.0893
▁Congress	-11.0894
▁routine	-11.0896
▁antenna	-11.0896
▁historian	-11.0902
▁praise	-11.0916
▁Record	-11.092
▁odd	-11.0921
▁enzyme	-11.0928
▁satisfaction	-11.0928
▁cozy	-11.0929
▁governor	-11.0932
▁transmitted	-11.0937
glass	-11.0941
▁instant	-11.0942
▁suggestion	-11.0944
▁producing	-11.0948
▁garage	-11.0952
LAN	-11.0955
▁obliged	-11.0957
▁Washington	-11.0963
▁diverse	-11.0966
▁stereo	-11.0973
▁pronounced	-11.0975
▁partially	-11.0975
▁sodium	-11.0978
▁soldier	-11.0991
▁Eye	-11.0996
▁trait	-11.0998
▁loyal	-11.0999
▁architectural	-11.1005
▁proceedings	-11.1005
▁closing	-11.1006
▁nevertheless	-11.101
▁twin	-11.1011
▁subscriber	-11.1016
▁Nikolaev	-11.1016
▁confirmation	-11.1017
▁Organ	-11.1022
▁Leningrad	-11.1029
▁Radio	-11.1031
▁guidance	-11.1037
▁prisoners	-11.1042
▁Moldova	-11.1043
▁JSC	-11.1044
Circ	-11.1045
▁sharing	-11.1052
▁Actually	-11.1055
▁Samsung	-11.1055
▁politician	-11.1058
after	-11.106
▁qualification	-11.106
ukh	-11.1061
▁judgment	-11.1066
▁burden	-11.1087
▁plasma	-11.1089
drop	-11.1095
▁scientist	-11.1096
▁Easy	-11.11
▁winning	-11.1101
▁inspired	-11.1103
▁Valentin	-11.1104
▁poetry	-11.1105
▁participating	-11.1111
▁elected	-11.1111
▁supervision	-11.1122
▁Complete	-11.1124
▁Territory	-11.1126
в	-11.1129
▁occupation	-11.1138
▁Mount	-11.1138
▁Upon	-11.1143
▁substantial	-11.115
▁expectations	-11.1152
▁cigarette	-11.1156
▁refine	-11.116
▁Restaurant	-11.1171
▁spectrum	-11.1177
▁Depending	-11.1186
▁Never	-11.1189
▁Abstract	-11.1189
▁whisper	-11.1192
puls	-11.1197
▁settle	-11.1199
▁psychology	-11.1201
▁bay	-11.1208
ö	-11.121
ikh	-11.1213
▁silicon	-11.1213
▁seminar	-11.1215
▁Secretary	-11.1217
▁instruction	-11.122
▁arc	-11.1223
▁magnet	-11.1225
▁mild	-11.1226
▁PNG	-11.1228
▁graduated	-11.123
stream	-11.1233
▁jet	-11.1237
▁Fast	-11.1239
▁serial	-11.1243
▁tariff	-11.1249
▁Apartment	-11.1253
▁rust	-11.1254
▁tub	-11.1263
▁Hope	-11.1274
▁Quick	-11.1277
▁acquisition	-11.128
▁afternoon	-11.1286
▁hazard	-11.1289
▁harmony	-11.1298
▁conclude	-11.1304
ometer	-11.1307
▁forgot	-11.131
▁behalf	-11.131
▁determination	-11.1313
▁Screen	-11.1322
▁Magn	-11.1337
▁mortal	-11.1341
▁sacrifice	-11.1344
▁shake	-11.1347
...............	-11.1352
▁corruption	-11.1356
▁friendship	-11.136
▁integrity	-11.1362
▁straw	-11.1369
▁allocated	-11.138
▁Walk	-11.1381
worm	-11.1383
▁bunch	-11.1384
С	-11.139
▁kingdom	-11.1397
▁comrade	-11.1402
▁gang	-11.1407
▁kindergarten	-11.1411
▁inscription	-11.1411
▁dump	-11.142
▁continent	-11.1423
▁airline	-11.1425
▁respiratory	-11.143
▁Kazan	-11.143
store	-11.1432
▁fraction	-11.1437
ECT	-11.1439
dimensional	-11.1439
▁Something	-11.1443
▁Unlike	-11.1444
▁freeze	-11.1449
▁physician	-11.146
crim	-11.146
▁fantastic	-11.146
▁Self	-11.1461
▁Communication	-11.1473
▁necessarily	-11.1476
▁auction	-11.1477
ponent	-11.1483
▁intend	-11.1483
▁comprise	-11.1488
▁resume	-11.1492
▁unnecessary	-11.1501
▁diabetes	-11.1504
▁adaptation	-11.1506
▁Could	-11.152
▁strategies	-11.1526
▁competent	-11.1527
▁offense	-11.1529
Activ	-11.1543
▁tighten	-11.1557
cultural	-11.1566
▁antibiotic	-11.1566
▁cruel	-11.1568
chemical	-11.1575
▁incredibly	-11.1582
▁Section	-11.1582
▁bleeding	-11.1585
▁Brown	-11.1595
▁extraordinary	-11.1601
▁Silver	-11.1601
▁Document	-11.1604
▁rocket	-11.1605
open	-11.1605
▁Jean	-11.1606
▁migration	-11.1607
▁Update	-11.163
▁Secret	-11.1631
▁strive	-11.164
▁preferably	-11.1644
▁possibly	-11.1645
▁stairs	-11.1645
▁fiction	-11.1645
▁silk	-11.1655
▁judicial	-11.1657
▁cult	-11.1658
▁Louis	-11.1658
▁Experience	-11.1663
▁physics	-11.1664
▁Computer	-11.1667
▁Pushkin	-11.1682
▁deprive	-11.1692
▁fake	-11.1693
through	-11.1697
▁Classic	-11.1698
▁administrator	-11.1698
▁Ocean	-11.1701
MENT	-11.1702
▁thirty	-11.1705
▁probability	-11.172
▁exploit	-11.1721
▁gently	-11.1722
cellular	-11.1726
▁frozen	-11.1733
▁principal	-11.1733
▁Point	-11.1735
▁Ivanov	-11.1741
▁bump	-11.1741
▁civilian	-11.1749
TRA	-11.1749
▁grip	-11.1755
▁casual	-11.1756
▁scholar	-11.1762
oriented	-11.1763
trud	-11.1767
▁statistical	-11.1768
▁Active	-11.1771
▁worship	-11.1775
▁delicate	-11.1778
▁socket	-11.1778
▁firmware	-11.1779
speed	-11.178
▁absorption	-11.1784
▁squad	-11.1784
▁upcoming	-11.1785
▁helicopter	-11.179
▁hint	-11.1792
▁Glass	-11.1795
▁Link	-11.1799
▁headquarters	-11.18
▁tiny	-11.1802
▁statue	-11.1807
determin	-11.181
government	-11.1815
tsev	-11.1821
▁conscious	-11.1824
▁Nature	-11.1829
▁Environment	-11.1832
▁humidity	-11.1835
▁Client	-11.1838
▁bubble	-11.1839
▁animation	-11.1839
system	-11.1844
▁Style	-11.1847
ovskaya	-11.1848
▁Furthermore	-11.1864
▁illustrate	-11.1871
▁minimize	-11.1871
▁Bluetooth	-11.1874
▁grateful	-11.1877
▁snake	-11.1879
▁steal	-11.1885
▁Recently	-11.1887
▁Level	-11.189
▁possession	-11.1894
▁Santa	-11.1895
▁Cathedral	-11.1897
▁metabolism	-11.1903
▁aviation	-11.1905
▁Develop	-11.1908
▁Charles	-11.1911
▁Location	-11.1916
pcs	-11.1923
▁circum	-11.1926
▁Petro	-11.1927
▁Installation	-11.1931
▁Gift	-11.1933
▁Martin	-11.1934
▁bloom	-11.1939
▁gaze	-11.1939
▁Frame	-11.194
▁grid	-11.1952
▁facade	-11.1956
▁DVD	-11.1971
Atlant	-11.1974
▁cottage	-11.1978
▁implant	-11.1978
▁Effect	-11.1987
▁portfolio	-11.1994
▁harsh	-11.1998
▁Think	-11.2004
▁widespread	-11.2004
▁sacred	-11.2007
▁Kazakh	-11.2013
▁Battle	-11.2015
▁territorial	-11.2017
▁certified	-11.2023
▁Baku	-11.2026
▁Visit	-11.2029
▁attachment	-11.203
▁reconstruction	-11.204
▁Function	-11.204
▁Brand	-11.2042
▁investigate	-11.2046
▁occurrence	-11.2049
▁compression	-11.205
▁grandfather	-11.2053
▁dragon	-11.2053
▁Baltic	-11.2058
▁Together	-11.2059
▁hack	-11.2062
virus	-11.2063
▁wander	-11.2066
▁dialog	-11.2069
▁bulb	-11.207
▁systematic	-11.2072
▁horizon	-11.2074
Cloud	-11.2077
▁sudden	-11.2083
▁besides	-11.209
error	-11.2091
▁shelter	-11.2096
▁Switzerland	-11.2099
▁infected	-11.21
▁Animal	-11.2109
▁Adjust	-11.211
▁Express	-11.2115
▁lease	-11.2121
▁grape	-11.2123
▁composed	-11.2125
▁grab	-11.2131
▁tractor	-11.2134
▁acquainted	-11.2135
▁College	-11.2138
▁promising	-11.2145
▁spouse	-11.2149
▁dependence	-11.2154
▁Linux	-11.2162
▁Major	-11.2168
▁pride	-11.2176
▁penetrate	-11.2185
▁collaboration	-11.2188
▁puzzle	-11.2188
saturated	-11.2195
national	-11.2198
▁trauma	-11.2198
▁Police	-11.2208
▁fever	-11.2213
▁Artist	-11.2215
▁fatigue	-11.2218
▁​​	-11.2221
▁bride	-11.2229
▁fuse	-11.2233
▁Alexei	-11.2235
▁Single	-11.2241
▁tunnel	-11.2248
▁pillow	-11.2252
▁resemble	-11.2254
▁indicating	-11.2255
▁synthetic	-11.2268
▁Division	-11.2274
▁betray	-11.2277
▁hiding	-11.2278
▁subtle	-11.2278
▁damn	-11.2282
▁precious	-11.2298
EST	-11.2304
▁pencil	-11.2306
▁Increase	-11.2309
▁squeeze	-11.2312
▁sustain	-11.2313
▁waist	-11.2315
▁Opti	-11.2315
▁sustainable	-11.2321
install	-11.2325
▁Caucasus	-11.2339
▁classified	-11.2339
▁temper	-11.2345
dynamic	-11.2353
▁commitment	-11.2358
▁wisdom	-11.2359
▁Treatment	-11.2366
▁dollar	-11.2367
▁sculpture	-11.2369
▁Monitor	-11.2373
▁valley	-11.2373
▁rising	-11.2382
▁Finland	-11.2383
▁Know	-11.2384
▁pitch	-11.2396
▁cruise	-11.2405
▁Collection	-11.241
▁heavily	-11.2414
ocyte	-11.2424
▁intermediate	-11.2427
▁hurry	-11.243
habit	-11.2433
▁Mexico	-11.2437
▁UAH	-11.2437
▁facial	-11.2446
▁YOU	-11.2448
▁treasure	-11.2454
×	-11.2458
▁Translation	-11.2459
▁Chief	-11.2461
▁Object	-11.2466
▁silhouette	-11.2478
▁alert	-11.2484
▁Iraq	-11.2491
▁boring	-11.2492
▁textbook	-11.2495
▁Pavel	-11.2498
▁adoption	-11.2501
▁Specific	-11.2505
▁artillery	-11.2513
▁suicide	-11.2513
▁decisive	-11.2519
▁Software	-11.2533
▁sovereign	-11.2537
▁girlfriend	-11.2537
▁invitation	-11.2537
▁nano	-11.2539
▁Language	-11.254
▁Cartoon	-11.2544
▁Exchange	-11.2547
▁poverty	-11.2547
clusive	-11.2548
▁Victoria	-11.256
▁Kremlin	-11.2561
▁pupil	-11.2561
course	-11.2562
▁Parliament	-11.2564
▁refuge	-11.2564
▁conquer	-11.2572
strict	-11.2572
▁hybrid	-11.2575
scape	-11.2577
▁crawl	-11.2578
▁Source	-11.2588
▁Device	-11.2592
▁scrap	-11.2592
standing	-11.2598
▁Sweden	-11.2599
▁Richard	-11.2599
▁Hospital	-11.2606
▁democratic	-11.2609
▁Transfer	-11.2609
scopic	-11.2614
▁Revolution	-11.2619
▁Character	-11.2623
▁solvent	-11.2627
▁bracket	-11.2627
▁precise	-11.2629
▁slice	-11.263
▁declaration	-11.2633
▁casino	-11.2634
▁ornament	-11.2634
▁tram	-11.2635
▁psychologist	-11.2637
▁excited	-11.2637
▁patron	-11.2637
▁lend	-11.2643
▁emergence	-11.2645
▁Factor	-11.2656
▁subordinate	-11.2658
▁Below	-11.266
▁rigid	-11.2665
к	-11.2668
▁Regulation	-11.2668
keeper	-11.2669
generation	-11.2676
▁replacing	-11.2679
▁rotate	-11.2681
▁Safety	-11.2689
▁vain	-11.2693
▁afford	-11.2694
white	-11.2697
▁pollution	-11.2703
▁sanctions	-11.2703
▁activation	-11.2714
▁decree	-11.272
▁ladies	-11.2721
▁Excellent	-11.2738
ESS	-11.2743
▁opera	-11.2744
▁financing	-11.2745
▁Irina	-11.2749
▁tray	-11.275
▁uncertain	-11.2756
▁Kids	-11.2759
▁deviation	-11.276
▁Andrei	-11.2762
▁DHgate	-11.2766
▁fantasy	-11.277
▁swallow	-11.2777
▁dwell	-11.2782
▁Child	-11.2784
▁Always	-11.2785
▁vocal	-11.2786
▁Death	-11.2788
▁mechanic	-11.2793
▁triangle	-11.2795
▁verification	-11.2802
▁entitled	-11.2805
▁glow	-11.2809
▁tune	-11.281
▁Dutch	-11.2816
▁amateur	-11.282
▁guidelines	-11.282
▁undertake	-11.2824
▁electrode	-11.2826
▁olive	-11.2826
▁Executive	-11.2827
▁garbage	-11.2827
▁Whether	-11.2834
photo	-11.2839
▁cement	-11.2843
−	-11.2844
▁dancing	-11.2852
▁inspiration	-11.2855
▁torture	-11.2857
▁capsule	-11.2859
▁rival	-11.2867
▁fertilizer	-11.2869
▁divine	-11.2869
▁flaw	-11.2872
▁Procedure	-11.288
wolf	-11.2882
▁Partner	-11.2894
±	-11.2894
▁Improve	-11.2912
▁wardrobe	-11.2923
▁absent	-11.2923
▁typ	-11.2933
▁rehabilitation	-11.2937
▁horn	-11.2938
▁Blood	-11.2941
▁Constant	-11.2941
▁await	-11.2941
▁glory	-11.2941
▁Protect	-11.2947
▁additive	-11.2951
circulat	-11.2959
▁beginner	-11.2971
▁urine	-11.2972
▁Rules	-11.2974
▁hairstyle	-11.2979
▁deliberate	-11.298
▁invented	-11.2981
▁timing	-11.2982
▁berries	-11.2984
▁companion	-11.3002
▁sunlight	-11.3016
▁motive	-11.3016
▁baking	-11.3021
▁dawn	-11.3024
▁curious	-11.3028
▁investigator	-11.3031
▁flexibility	-11.3031
nomic	-11.3032
▁deputies	-11.3038
▁dye	-11.304
▁plaster	-11.3041
▁Clear	-11.3042
▁versa	-11.3045
▁penalty	-11.3056
▁adverse	-11.3076
▁Porn	-11.3091
▁pharmaceutical	-11.3092
▁Perfect	-11.3099
·	-11.3103
▁YouTube	-11.3103
▁pixel	-11.3111
▁inventory	-11.3111
▁throne	-11.3114
▁Dream	-11.3118
▁Egyptian	-11.3123
▁Finance	-11.314
product	-11.3144
▁desirable	-11.3147
▁mathematical	-11.3147
▁offensive	-11.3147
▁eastern	-11.3151
▁NATO	-11.3154
▁motorcycle	-11.3154
config	-11.3187
▁corporation	-11.3191
▁clamp	-11.3199
←	-11.3202
chemistry	-11.3206
▁refresh	-11.3213
▁corrosion	-11.3217
▁snap	-11.3217
▁liberal	-11.3221
Integr	-11.3227
???	-11.3238
▁Financial	-11.3239
▁recipient	-11.3239
▁Automatic	-11.3245
л	-11.3246
▁purchasing	-11.3246
▁Training	-11.3247
length	-11.3256
▁Overall	-11.3257
▁Joseph	-11.3257
▁LCD	-11.3258
enthusiast	-11.3272
▁gaming	-11.3288
▁expedition	-11.3291
▁drew	-11.3295
▁genuine	-11.3298
▁Tajikistan	-11.3309
▁nozzle	-11.3317
▁intestine	-11.3321
aggregat	-11.3325
electric	-11.333
▁ribbon	-11.3335
▁prominent	-11.3339
▁heritage	-11.3343
▁gasoline	-11.3347
▁Representative	-11.335
▁Premium	-11.335
russia	-11.3356
▁interference	-11.3373
▁Industry	-11.3377
▁inherent	-11.3377
▁queue	-11.3381
▁Industrial	-11.3388
▁queen	-11.3394
▁accompany	-11.3395
▁combustion	-11.3395
▁Swiss	-11.3399
▁qualitative	-11.341
▁dominate	-11.3415
▁Already	-11.3425
▁cognitive	-11.3429
▁raid	-11.3432
▁customize	-11.3432
▁wheat	-11.3434
▁disgust	-11.344
▁Field	-11.3441
natural	-11.3443
▁ongoing	-11.3445
▁scandal	-11.346
oscope	-11.3467
▁isolation	-11.3485
▁adopt	-11.3488
▁adhesive	-11.3493
▁delegation	-11.3493
▁durability	-11.3493
▁pedagogical	-11.3501
▁achieving	-11.3516
▁smiling	-11.3524
▁fraud	-11.3524
▁legislative	-11.3527
voluntary	-11.3531
▁Electronic	-11.3535
▁embroider	-11.3539
▁automation	-11.3543
▁preschool	-11.3547
▁Hitler	-11.3547
▁forbidden	-11.3554
▁invisible	-11.3558
▁nodded	-11.3566
▁sought	-11.3566
▁pursue	-11.3584
▁Scott	-11.3585
▁automated	-11.3593
▁admission	-11.3598
 	-11.3599
▁Vietnam	-11.3604
▁immuno	-11.3605
flict	-11.3605
▁preserve	-11.3609
▁coordination	-11.3611
anthrop	-11.3613
▁Private	-11.3615
▁Mediterranean	-11.3623
▁vapor	-11.3627
▁vaccine	-11.3631
▁Almaty	-11.3638
▁consequence	-11.3643
▁saint	-11.3646
^	-11.3646
▁hierarch	-11.365
thyroid	-11.365
wheel	-11.3657
▁Communist	-11.3665
escence	-11.3671
▁activist	-11.3678
▁notebook	-11.3683
▁gesture	-11.3692
▁subscription	-11.3696
▁clarify	-11.3704
▁Emperor	-11.3708
▁nitrogen	-11.3712
▁tennis	-11.3716
▁quantities	-11.3719
▁contour	-11.3723
▁snack	-11.3724
▁philosophical	-11.3731
▁Thomas	-11.3735
▁emperor	-11.3743
▁forehead	-11.3747
▁constitute	-11.3747
▁Honor	-11.3751
vascular	-11.3761
▁situated	-11.3774
▁replenish	-11.3786
▁Different	-11.3789
▁bronze	-11.3789
▁Typical	-11.3797
▁educate	-11.3798
▁accumulation	-11.3801
▁disagree	-11.3801
▁prototype	-11.3805
▁survival	-11.3805
▁Resource	-11.3809
factor	-11.3816
▁Channel	-11.3817
▁dimension	-11.3824
▁Konstantin	-11.3825
▁cube	-11.3843
▁gratitude	-11.3844
▁limb	-11.3852
▁enrich	-11.3855
▁Canadian	-11.3856
▁flesh	-11.3857
▁oxide	-11.386
▁microphone	-11.3874
▁Kyrgyzstan	-11.3875
▁democracy	-11.3876
▁Original	-11.388
▁empire	-11.3887
▁jack	-11.3902
▁disrupt	-11.3908
phospho	-11.3911
▁explosive	-11.3915
▁seamless	-11.3915
▁Afghanistan	-11.3919
▁terminate	-11.392
▁gallery	-11.3924
▁tragedy	-11.3931
▁amendment	-11.3931
current	-11.3936
▁Equipment	-11.3939
▁clutch	-11.3943
▁bureau	-11.3963
▁Captain	-11.3965
▁Solution	-11.3982
▁garlic	-11.3983
▁Speed	-11.3984
▁shoe	-11.399
▁competence	-11.3991
skoye	-11.3994
▁striking	-11.4002
▁carriage	-11.4002
▁Francis	-11.4006
▁immunity	-11.4006
▁Ultra	-11.401
▁stadium	-11.4014
ICE	-11.4017
▁diversity	-11.4023
▁Content	-11.4026
▁optimization	-11.4026
▁Chamber	-11.403
▁pretend	-11.404
▁privacy	-11.4046
▁refusal	-11.4046
▁reinforced	-11.4054
▁Condition	-11.4054
▁Simple	-11.4065
symmetric	-11.4074
▁stabilize	-11.4074
▁gloss	-11.4079
�	-11.408
▁Measure	-11.4082
▁denied	-11.4087
▁advisable	-11.409
▁Camera	-11.4091
▁blessing	-11.4095
▁veteran	-11.4103
▁Fixed	-11.4103
▁substitute	-11.4103
▁restrain	-11.4104
▁fracture	-11.4107
▁tomatoes	-11.4115
▁compensate	-11.4119
▁tobacco	-11.4123
▁babies	-11.4123
▁Meeting	-11.4123
▁bouquet	-11.4131
▁temporarily	-11.4131
▁Address	-11.4132
punct	-11.4133
▁prevail	-11.4135
▁privilege	-11.4139
▁rejected	-11.4139
▁severity	-11.4147
▁Photography	-11.4151
▁buffer	-11.4151
▁struck	-11.4151
▁historic	-11.4154
▁amaze	-11.4157
▁infectious	-11.4159
▁luxurious	-11.4171
▁debate	-11.4179
▁regulator	-11.4183
▁elevator	-11.4183
▁battalion	-11.4187
▁condemn	-11.4192
▁Yellow	-11.4196
▁nonsense	-11.4196
credit	-11.4198
|	-11.4206
▁associate	-11.4215
▁OOO	-11.4216
▁geometric	-11.4229
▁Library	-11.4232
▁vintage	-11.4232
▁reproduction	-11.4232
▁sponsor	-11.4236
Architect	-11.424
▁Beauty	-11.4257
▁furnace	-11.4265
▁Leather	-11.4273
▁Twitter	-11.4277
▁Rostov	-11.4278
▁medieval	-11.4281
▁Register	-11.4285
▁vagina	-11.4289
▁monetary	-11.429
▁Kyrgyz	-11.4294
▁helmet	-11.4298
▁Problem	-11.431
▁assembled	-11.4311
▁wiring	-11.4311
▁Ivanovich	-11.4321
▁transplant	-11.4322
▁jaw	-11.4327
▁Tatyana	-11.4331
▁Wait	-11.4334
ethylene	-11.4339
▁Scientific	-11.4339
▁pussy	-11.4339
▁magnificent	-11.4351
shoot	-11.4354
▁Champion	-11.4354
▁boundary	-11.4355
▁ortho	-11.4358
▁sanitary	-11.4364
▁enlarge	-11.4364
▁mankind	-11.4368
▁wrapped	-11.4374
That	-11.4375
▁Jerusalem	-11.4376
▁continuing	-11.4388
▁Galaxy	-11.4393
▁Netherlands	-11.4393
▁Hollywood	-11.4397
▁withstand	-11.441
▁Dragon	-11.4416
complete	-11.4421
▁ruling	-11.4423
▁composer	-11.4426
▁sauna	-11.443
▁Pacific	-11.4438
▁Swedish	-11.4442
▁skull	-11.4447
▁Henry	-11.4451
▁Thursday	-11.4455
▁derived	-11.4455
▁gravity	-11.4459
▁anchor	-11.4463
▁relating	-11.4468
▁Sorry	-11.4468
▁dental	-11.4474
▁enormous	-11.4476
▁allergic	-11.4497
▁feather	-11.4501
▁logistics	-11.4509
depend	-11.452
▁piano	-11.4522
▁Explore	-11.453
▁mystery	-11.4531
▁leisure	-11.4564
▁substrate	-11.4564
▁GIF	-11.4564
▁jurisdiction	-11.4572
▁receptor	-11.4577
▁shelves	-11.4581
▁tolerance	-11.4586
▁courtyard	-11.4589
▁swelling	-11.459
▁unconscious	-11.4602
▁mortgage	-11.461
▁blur	-11.4616
▁Analysis	-11.4619
▁abundance	-11.4623
▁securities	-11.4636
▁inflation	-11.4636
▁hammer	-11.464
▁perfume	-11.4649
▁mathematics	-11.4653
“	-11.4653
▁refund	-11.4657
▁torque	-11.4665
▁Enterprise	-11.4666
▁Remote	-11.467
▁detained	-11.467
▁[...]	-11.4683
▁Ideal	-11.4687
▁Compare	-11.4698
▁Journal	-11.47
▁mobility	-11.4704
▁analogue	-11.4706
▁reservation	-11.4713
▁stunning	-11.4717
▁surgeon	-11.4726
▁prophet	-11.4727
▁Earlier	-11.4738
▁potassium	-11.4747
▁inexpensive	-11.4751
▁dessert	-11.4751
▁virtue	-11.4756
▁involving	-11.4756
▁impulse	-11.4756
▁ultrasound	-11.4764
▁provoke	-11.4764
›	-11.4768
plasm	-11.4772
▁radiator	-11.4773
▁occupy	-11.4781
▁geographical	-11.4781
▁compromise	-11.4794
▁bucket	-11.4803
▁Range	-11.4805
▁excursion	-11.4812
▁allegedly	-11.4816
▁PVC	-11.4816
▁Southern	-11.4821
▁jeans	-11.4825
▁radius	-11.4829
▁harmonious	-11.4838
▁disinfect	-11.4838
▁Daniel	-11.4851
world	-11.4855
▁emphasis	-11.4859
▁violent	-11.4864
▁yoga	-11.4864
▁illusion	-11.4868
▁Virgin	-11.4868
▁amplifier	-11.4877
▁boast	-11.4877
​	-11.7949
‘	-12.4359
•	-12.8424
«	-13.5554
©	-14.1725
